#version: 0.2
Ġ t
h e
Ġ a
i n
č Ċ
e r
o n
Ġt he
r e
a n
o r
e n
a t
Ġ s
Ġ o
e d
i s
e s
a l
Ġ w
a r
i t
Ġo f
n d
Ġ c
Ġ in
Ġ f
Ġ b
Ġ p
i c
a s
in g
Ġa nd
i on
r o
l e
Ġ S
Ġt o
Ġ m
Ġ d
o u
Ġ C
Ġ A
i l
Ġ h
en t
Ġ T
Ġ 1
a m
s t
e l
Ġ M
o m
o l
Ġ (
Ġ re
Ġ l
a c
Ġ B
a d
u r
Ġ P
e t
e c
Ġ n
i v
er s
at ion
Ġ H
i g
Ġt h
Ġ I
Ġ 2
i d
Ġw as
i r
o t
u s
Ġ e
Ġ R
a y
i m
Ġf or
l y
Ġ on
t er
Ġ1 9
Ġ D
Ġ L
o s
Ġ g
c h
Ġ is
u t
u n
Ġ F
o w
e m
Ġa s
is t
Ġ G
ĠT he
it h
Ġ N
Ġ W
t h
Ġs t
0 0
he r
an d
c t
u l
a g
c e
Ġw ith
â Ģ
Ġa l
Ġ E
Ġb y
u m
Ġ J
' s
r a
v er
ro m
Ġb e
o p
es t
Ġa t
Ġw h
Ġa n
r i
Ġc on
âĢ ĵ
Ġ O
o c
Ġ he
Ġ v
Ġf rom
o d
Ġ "
Ġth at
a in
al l
a b
i an
Ġ K
a v
Ġc om
it y
re s
t s
Ġd e
Ġp ro
i es
i f
at e
i a
Ġ U
e w
il l
u p
b er
Ġ it
u d
ar d
ar t
ĠS t
1 9
ig h
a k
Ġp l
q u
u b
i p
a p
Ġ or
Ġh is
or t
e ar
o re
ic h
Ġ r
Ġ čĊ
l d
es s
Ġ2 00
o v
T he
at ed
Ġa re
ĠI n
Ġ2 0
ou r
is h
ar y
m ent
u g
m er
iv e
on g
Ġc h
ĠC h
en d
n t
i al
o g
Ġe x
an t
Ġ V
g e
Ġs e
s e
as t
k s
in e
el l
u nd
er e
Ġ y
u st
am e
f er
or d
u c
r an
s o
e p
ec t
u re
i re
o st
) ,
Ġ le
Ġw ere
u e
ion s
ic al
en c
Ġ âĢĵ
Ġs p
Ġwh ich
ac k
ter n
i e
Ġal so
t her
Ġcom p
Ġs h
Ġ un
a re
ĠH e
ĠU n
Ġ k
r it
ag e
Ġpl ay
p p
r y
ig n
f f
as s
Ġ20 1
r ic
igh t
c l
ou s
ir st
Ġ Ġ
id e
m an
Ġc l
i z
or k
on d
e os
Ġn ot
Ġ Y
Ġa r
p er
av e
ation s
l and
or y
er v
Ġ 3
Ġ us
he d
Ġh ad
Ġh as
an g
o k
ow n
ou nt
Ġ19 9
Ġ1 8
om e
ation al
n g
Ġw he
am p
o ol
Ġf irst
ac t
Ġ ro
Ġcon t
Ġre s
ic an
f ter
ic e
Ġin t
ac h
e y
or n
at er
em ber
ĠI t
i b
ou t
ĠT h
Ġ Ð
w o
ĠA l
Ġa d
I n
Ġt e
u ct
it ion
ul t
im e
p h
Ġ j
Ġthe ir
Ġit s
en s
Ġa b
en ce
re e
p l
e e
at es
Ġwh o
it ed
p ort
i k
ch ool
le ct
ac e
2 0
enc es
) .
Ġb ut
ou nd
a w
ĠA r
at h
ar k
l ow
mer ican
Ġa c
Ġon e
Ġa pp
Ġp art
Ġ -
e g
Ġy ear
ug h
cl ud
Ġm an
ub l
p t
it e
ou ld
Ġre c
al ly
il d
or s
i le
Ð ¾
e op
il m
o ver
f or
Ġ her
is s
w n
ent s
Ġp er
iv ers
l es
Ġa g
Ġh ave
e b
ĠN ew
Ġth is
R e
res s
i o
ad e
eop le
h n
o y
Ġ 4
Ġb ec
ur ing
Ġ en
Ġs c
Ġ19 8
ol d
Ġin clud
Ġt wo
fer ences
o b
as ed
on s
t e
in d
o ot
Ġ |
ĠM ar
v el
o in
Ġo ther
ur n
u ch
g h
a il
Ġd es
w ard
al s
Ġ im
h ip
ab le
Re ferences
ing s
i ed
s s
Ġd is
Ġbe en
ĠC om
Ð µ
Ġcom m
Ġa fter
w ay
Ġa ct
el y
w e
b all
t ed
ic s
Ġ up
o od
Ġ 5
Ġ19 7
t on
re d
Ġc an
Ġp r
2 00
ur y
is hed
ou th
Ġl in
Ġn ew
Ġ| |
Ġof f
an ce
Ġo ver
f t
Ġo ut
or ld
r am
r al
re n
e x
Â ł
as e
on t
Ġthe y
on e
Ġf ilm
Ð °
Ġint o
p e
Ġ qu
ĠA merican
g an
a h
ou gh
is ion
Ġt r
ĠL e
Ġe v
an s
Ġ und
Ñ Ĥ
Ġs erv
Ġal l
Ġl oc
am es
Ã ©
Ġp re
E x
or th
ak e
in al
d uc
ĠS h
ran s
oc k
Ġg ro
ivers ity
ol og
ro ugh
Ð ¸
Ġat t
ic k
Ġc ol
Ġt ime
ic t
al e
an c
Ġ19 6
os e
Ġw ork
Ġk n
for m
1 8
tern al
e ver
c ess
Ġp eople
ĠC ol
Ġh im
as on
Ġs ec
ĠUn ited
i ous
Ġ est
ĠS p
ri b
ist s
i x
it ies
i el
en er
a z
Ġb u
n e
l l
Ġb et
Ġcon s
re at
in s
Ġs he
c ent
Ġund er
Ġwhe n
e v
e at
oot ball
Ġ 6
ou n
Ġre g
a j
Ġlin ks
in ce
Ġm ore
ĠJ o
Ġc o
b um
Ġin d
i er
in n
an n
ol low
Ġc ent
c he
u ary
Ġw ould
Ex ternal
if e
we en
ul ar
ĠI nd
Ġp ubl
at t
ot h
u al
Ġp ol
Ġ Z
Ġfor m
Ġyear s
Ġre t
us e
Ġte am
us ic
Ġas s
oc i
Ġb o
ĠP ro
ab l
Ġst ud
Ġon ly
il y
st r
d er
ire ct
Ġag ain
id ent
Ġab out
Ġs chool
Ġm ost
ĠUn iversity
ĠS c
Ġwhe re
Ġd uring
Ġs up
ĠC l
Ð¾ Ð
em b
Ġs ub
ĠE ng
er ies
Ġre l
an y
Ġbet ween
Ġs y
Ġplay ers
le y
Ġm e
Ġ 7
ra ph
a ir
Ġus ed
en n
ĠA n
d uct
Ġp op
Ñ ģ
Ġin ter
ion al
Ġal bum
em ent
Ġd ec
Ġe ar
ag ue
ist ory
Ġth rough
at ive
Ġre le
ro und
res ent
Ġd ist
if ic
Ġre m
ĠSt ates
f ore
Ġthe re
Ġ19 4
Ġ19 5
p r
Ġth ree
ar s
Ġs o
Ġt ra
ĠTh is
as h
Ġn um
in a
over n
he n
Ġ ed
Ð ½
Ġf ound
Ġf ollow
ou se
Ġthe m
o ber
t en
iel d
er m
ers on
Ġs ing
19 9
p or
Ġthe n
Ñ Ģ
Ġ end
Ġl ater
ĠB r
iv er
Ġ ra
p en
at ing
Ġm ov
" ,
Ġrec ord
Ġw rit
" .
ar g
ĠS chool
Ġ ent
Ġt rans
ĠI s
Ġs uch
i am
Ġm ade
er n
er t
Ġa m
Ġ 8
Ġpro v
el s
Ġsec ond
os s
Ġs ome
er man
Ġsp ec
Ġth an
ĠĠ ĠĠ
Ġkn own
c c
Ġs et
an k
ĠC ount
u res
v e
Ġse ason
vel op
Ġar t
ik e
. "
is m
le v
ĠA s
og raph
Ġin v
it s
Ġde f
ow er
Ġd o
ĠJo hn
ĠA ust
ĠB l
Ġe lect
ep t
Ġf ootball
ric t
ĠW ar
ĠW orld
Ġbec ame
Ġest abl
m p
it t
ment s
Ġs ong
iv ed
Ġ1 7
Ġbe ing
Ġ Q
in es
Ġd irect
Ġ 9
Ġex p
ĠC ar
i ew
Ġp ar
Ġ &
ot her
un e
Ġc all
ĠF ran
Ġl a
Ġf l
Ġ1 0
âĢ Ķ
Ġst r
us s
ĠC on
le t
Ġb l
Ġw ell
ĠC an
is e
Ġf am
iv ing
Ġp h
ay s
ut e
Ġm on
u ro
ur ch
Ġch ar
c es
st em
st it
r on
s on
ĠP h
ĠS he
a x
ĠCom m
Ġf our
ĠB rit
ver y
Ġs eries
Ġm ed
i ent
oun c
Ġg r
Ġn o
Ġac c
e f
Ġh igh
ul l
Ġm od
Ġinclud ing
t il
ĠY ork
b y
Ġin c
ĠN ational
Ġy ou
ĠO r
ic ip
ow ever
Ġwh ile
th s
Ġad d
Ġg o
Ġb ir
Ġman y
Ġle ad
Ġgro up
Ġor ig
Ġo per
t y
Ġs ign
Ġm ay
el f
Ġbe fore
a i
Ã ¡
tern ational
u es
ĠA d
ĠA t
Ġ19 3
g ram
ĠF or
ire d
ur al
at her
ĠP r
00 0
Ġb ro
Ġ1 5
Ġagain st
ĠP l
Ġo wn
ĠO n
Ġs ur
ĠCount y
am ed
ĠM ay
ul ation
et h
ĠJ an
Ġc ount
Ġsh ow
Ġn ame
Ġg u
Ġb ack
ic a
20 1
2 1
Ġun til
ian s
Ġe m
Ġm ain
j ect
Ġ1 6
ut ion
iv es
m y
ĠS outh
Ġ200 6
en g
ar ri
Ġnum ber
Ġde velop
u k
Ġc ap
amp ions
Ġd if
Ġf in
19 8
Ġb oth
Ġc re
i um
y s
Ġc are
Ġare a
r ist
et s
Ġm usic
l ish
ĠG erman
Ã ³
Ġm in
ot t
Ġd r
Ġg ener
Ġfor mer
b orn
ĠAust ral
Ġde ath
Ġ1 2
Ġoff ic
ut h
Ġ .
Ġn e
Ġre p
olog y
Ġse ver
ro ss
le ge
Ġbu ild
ĠW h
y l
Ġplay ed
iz ed
ĠJ u
Ġv ar
s p
he s
Ġre ce
u ally
im es
ag es
Ġg ame
aj or
is ter
Ġo pen
Ġs m
ug ust
ĠC ent
Ġf eat
emb ers
om an
duc ed
i or
Ġex t
p le
overn ment
ĠN ov
ĠC ity
v ed
ĠP ar
Ġr un
er ed
l ed
ov e
Ġsy stem
Ġdes ign
ad a
Ġrele ased
in c
are d
om en
Ġo b
ĠLe ague
ain ed
i et
is c
Ġst ate
a use
ĠD ec
ĠB ro
S t
ĠG e
f ess
u ed
ept ember
o ok
ĠN orth
Ġ '
C h
ĠBrit ish
a id
os ed
Ġw ill
Ġw on
iss ion
s h
Ġpro gram
re t
Ġl ong
ir d
lev ision
Ġto wn
am b
r id
ib le
it al
Ġret urn
et er
Ã Ń
ĠC al
ĠD e
19 7
Ġcall ed
an ge
v ent
Ġst ation
ar m
re nt
ct ober
ist or
v en
ĠA ugust
Ġde p
Ġpol it
ĠG u
Ġs ame
il t
Ġcont in
Ġan n
ĠE d
S ee
Ġsever al
al ity
Ġor gan
il ity
f ul
Ġl ife
Ġa ir
Ġm at
ak ing
Ġcl ub
ward s
ĠB ar
ĠAl l
A merican
ĠK ing
str uct
h am
ĠS eptember
ĠA ss
a u
Ġs uc
n er
Ġfollow ing
r is
ĠMar ch
Ġb as
ĠE uro
Ġan y
ĠI I
Ġpubl ic
a f
ĠM an
pr il
on y
ampions hip
Ġ1 3
1 0
oin t
ĠB e
r ing
Ġus e
ograph y
Ġthe se
ial ly
Ġc ur
Ġst art
ĠJ une
Ġ el
f l
Ġear ly
cent ury
à ¸
ain s
Ġn ear
ang u
ĠG r
1 7
un g
ĠO ctober
ure d
Ġdis c
ĠJan uary
al es
ic es
Ġcl ass
ĠA m
ĠJu ly
ap an
Ġb el
Ġb and
Ð »
ĠH igh
Ġcomm un
st er
ĠC o
t he
eb r
l ing
ĠU S
Ġres p
Ġw e
ĠSt ate
Ġcare er
Ġ1 4
Ġp ass
Ġch ild
re en
Ġfam ily
il it
c om
Ġcomp le
Ġhe ad
id ed
i ence
k e
ce pt
O n
ec hn
ro p
ĠR e
Ġs im
Ġpop ulation
ĠThe y
Ġc ity
ĠW ill
m in
at or
ĠF l
od e
an ts
es e
ĠA pril
Ġ200 7
an e
ĠP ol
Ġp res
Ġs ince
ĠR eg
y n
Ġe ff
ical ly
or ks
Ġv ers
Ġl ist
. .
Ġt it
or ts
t o
Ġb ased
c k
Ġal ong
il le
Ġg ames
Ġapp ear
Ġ1 1
end ed
ĠR ep
Ġm en
Ġ es
ĠDec ember
Ġl and
is ed
ĠNov ember
ec ts
ĠT r
on om
ĠS w
or m
o x
ect ion
ĠW est
2 2
Ġ âĢĶ
Ġsm all
ĠH ar
ĠEng lish
ord s
Ġestabl ished
ac ed
Ġn amed
Ġpro duct
as ter
ĠCh rist
Ġloc ated
Ġe ach
uc k
Ġim p
ĠE x
Ġp erson
Ġdes c
Ġm embers
Ġp rom
ac ks
iv al
Ġbe gan
igh ts
un icip
Ġen g
Ġv ill
in ess
ĠA fter
qu e
ec h
b le
Ġd id
ĠA f
ĠEuro pe
ĠR ec
at a
av ing
Ġbir ths
19 6
er g
Ġhe l
Ġb us
Ġo cc
ĠR o
at s
ebr uary
Ġc ar
ĠM c
Ġman ag
Ġsup port
Ġm et
ĠH is
f ord
a e
ro w
a ugh
ĠA nd
ĠGe or
Ġcent ury
ore d
m e
en e
ren ch
t ing
ard s
Ġ200 5
r act
Ġpl ace
Ñ ĥ
s ide
Ġm ajor
Ġc ould
Ġdif fer
in o
Ġh ome
ĠJ apan
Ġre v
Ġw orld
Ġcomp et
Ġt erm
Ġfilm s
ur g
it ions
Ġ200 8
Ġsing le
ar n
ar ge
Ð º
l in
al th
our n
ĠCol lege
ĠN o
ad em
Ġl aw
y p
Ġn ow
re w
Ġsuc cess
id es
ac es
Ġp o
ĠE l
ro l
Ġn ational
er y
Ġg overnment
Ġloc al
ĠC up
Ġte levision
1 6
1 5
Ġa round
ĠF ebruary
a ul
ĠP ark
Ġp os
al d
ĠA b
ear ch
T h
ond on
iv ision
et y
un ct
ĠA ir
ĠH owever
k et
ff ic
ĠCom p
Ġl ine
Ġcomp any
H e
ly mp
m ed
Ġm ember
Ġbu ilt
Ġo ld
id d
o o
ĠM in
at ure
ĠS e
A l
at ic
1 2
Ġl ast
Ġre st
Ġle g
an a
Ġre f
Ġc r
p s
Ġplay er
re et
ac ter
ak es
at ely
t t
Ġ200 4
es tern
s c
Ġd ue
ubl ic
uth or
oci ation
Ġpubl ished
ad io
Ġn orth
Ġto ok
our t
Ġhe ld
Ġ X
ar a
Ġle ft
Ġ201 0
ill ion
ex t
Ġe p
Ġs u
ĠS y
che s
y le
ent ly
Ġ19 2
Ġ200 9
is on
in t
Ġf inal
a us
Ġd et
Ġre qu
ĠT e
it er
ĠL ondon
âĢ Ļ
Ġj oin
Ġed uc
Ġd own
ide o
Ġserv ed
ĠM ed
ĠIt al
ing ton
ed er
angu age
if ied
ĠD ist
iv en
Ġev ent
ĠD av
Ġre fer
Ġc amp
c o
Ġcons id
al k
ĠH er
Ġa v
d ay
ĠP art
Ġpro fess
ilit ary
p ed
Ġbec ause
th ough
ĠCh ar
Ġ if
Ġde b
Ġ201 1
Ġinclud e
Ġ200 0
i od
Ġh istory
Ġsh ort
Ġp resent
ĠWill iam
ĠA ng
ie f
r ation
in k
a im
enc y
Ġl ike
Ñ ı
Ġd el
Ġ19 0
Ġs on
Ġ ,
od y
om in
5 0
in ed
Ġd ay
H istory
um b
Ġl arge
ect ed
ord ing
Ġs ix
Ñ ĭ
Ġal low
ĠL a
p ar
Ġt ri
um ent
iz ation
ur s
Ġapp ro
ĠAf ric
v ers
Ġb orn
ĠC or
Ġp ower
on es
ĠS ec
Ġj ust
ĠF rench
Ġor der
Ġf ive
Ã ¼
um an
| -
ĠThe re
if orn
ĠR uss
ĠD r
ĠS up
ra ft
l ine
Ġs l
l er
Ġdiffer ent
t al
1 4
ĠE n
z e
um n
ri end
ĠPh il
1 3
Ġres ult
Ã³ n
Ġorig inal
iforn ia
Ġl arg
Ġm ark
ĠCh ampionship
um mer
Ġinclud ed
om b
ĠY ou
Ġf r
Ġw omen
inn ing
Ð ¼
it ar
re g
Ġs k
iv ely
ounc il
Ġwith in
Ġd em
le g
Ġrece ived
ur ther
ain t
Ġre pl
Ġan other
arri ed
Ġst and
ĠR iver
st e
Ġto p
s k
v es
t ain
Ġ200 3
n ess
ĠM e
Ġbo ok
ĠH ouse
Ġvill age
Ñ Į
Ġd ied
ĠEng land
Ġst ill
Ġs outh
Ġs aid
Ġc or
ĠS an
he m
Ġpro t
Ġ $
et her
ĠAustral ia
Ġdist rict
Ġth ird
ic o
ition al
Ġn on
n a
Ġcur rent
Ġ3 0
Ġad v
ĠG l
ĠCal ifornia
ee k
our s
Ġper form
Ġm unicip
ad ian
v ious
oc ial
her n
. ,
ĠM ich
op h
Ġw ater
o on
Ġchar acter
Ġchild ren
Ġ very
Ġe qu
Ġbuild ing
Ġf ac
er ing
Ġqu e
ĠInd ian
Ġw ar
Ġim port
Ġv is
Ġn ov
Ġh and
Ġb est
ĠA ct
Ġ200 2
Ġf ield
19 4
Ġk ill
Ġ200 1
ĠR es
Ġtr ad
Ġ18 9
Ġrep resent
ol l
Ð ²
et t
Ġ201 2
Ġof ten
ĠA c
m s
Ġex per
Ġper iod
ĠO lymp
al t
ĠA g
2 3
Ġvers ion
Ġp ost
Ġw eb
d om
Ġ 0
Ġserv ice
Ġdesc rib
os p
b o
Ġis s
Ġm ale
Ġinc re
ad y
Ġm ake
land s
ĠIn ternational
ep end
iz e
ug g
ĠDist rict
Ġs ol
ac y
ort hern
19 5
Ġbe g
ra in
al f
Ġo pp
Ġbus iness
ĠE ast
Ġcon c
ĠS ch
Ġv al
Ġh ouse
U n
Ġre port
Ġs old
Ġth ough
w ork
ĠAr t
Ġt urn
e al
Ġst at
re st
Ġstud ents
Ġ ec
Ġcon struct
ener al
Ġev en
art ment
Ġ2 5
u el
ĠP er
Ġa uthor
Ġp at
oy al
ĠCan ada
Ġs ide
Ġex pl
Ġar ch
Ġwh at
Ġm uch
ĠM on
en se
Ġf e
op s
Ġmov ed
ĠCh urch
a el
Ġcount ry
Ġp oss
Ġorig in
ir l
att le
Ġl ed
ap p
pl oy
Ġcol lect
Ġc ult
ec ut
Ġestabl ish
Ġsp e
a ff
or ies
Ġt echn
ĠP res
f ield
Ġh istor
as es
Ġc over
Ġa ff
ad es
form ation
rib ut
il ar
ĠA ward
oci ety
ĠG ro
Ġch ang
Ġpro duced
Ġtit le
om p
Ġw in
' t
Ġm ag
ri pt
ri es
19 3
Ġt em
Ġp ort
Ġc rit
c ast
Ġl ate
Ġth ose
i us
he l
Ġb r
1 1
Ġf act
ĠB o
Ġle vel
Ġs ite
use um
Ġwrit ten
Ġact iv
Ġ201 3
s ite
iv il
us h
av y
er a
Ġinv ol
le x
Ġf ather
ot e
i ber
n ey
Ġep is
A r
Ġsh ip
iv id
Ġ2 4
Ġf ore
Ġb re
ĠSt reet
am a
Ġann ounc
Ġcomm on
Ġc ame
Ġro le
Ġam ong
Ġpop ular
ĠA mer
Ġus ing
Ġtra in
ol ic
am ent
Ġv oc
Ġeng ine
ap e
o f
and er
rid ge
id a
ĠInd ia
ot es
P eople
Ġ et
d e
Ġ201 4
c hed
re m
ĠQ u
ir c
B C
c ed
Ġpro cess
Ġin ternational
ĠO ne
for man
ĠS m
ĠAr my
ĠR oman
an ia
Ġ18 8
v ille
Ġg iven
Ġf re
as tern
Ġpre vious
n ing
Ġs w
o ff
Ġra il
ther n
Ġ199 9
ĠP ort
Ġto tal
ĠRo ad
Ġgener al
om et
k a
Ġbec ome
Ġs it
Ġyou ng
ĠH ol
Ġw ent
ĠÐ ¿
ad o
m ing
Ġpr im
ĠE m
Ġw ay
Ġro ad
ĠD ep
ou thern
ent ion
ag o
Ġa ge
ĠV al
s elf
Ã ¶
Ġne ed
im ent
Ġvar ious
h a
Ġe very
it or
min ist
ad u
Ġv ol
Ġcommun ity
Ġ Ã
Ġf ew
ot s
Ġopen ed
A n
ab or
Ġspec ies
ĠB y
u f
por ts
ĠĠ Ġ
ĠQ ue
Ġdeath s
re am
Ġpro p
anc es
ĠN or
Ġoffic ial
ict ion
ĠR ober
Ġw orks
Ġan t
Ġint ro
ree k
ĠP aul
ĠR ed
Ġn ext
Ġex amp
ar i
Ġstr uct
Ġre ad
ourn al
ur b
Ġt w
Ġ199 0
an ish
Ġh ost
Ġt ake
ĠM or
ĠB el
itt le
Ġv ideo
ĠL ou
Ġ201 5
le ment
ĠRec ords
Ġin it
Ġalbum s
Ġh aving
Ġa ward
Ġstart ed
Ð ´
ĠGeor ge
ĠJ ames
a ur
Ġ âĢ
m en
Ñ ĩ
b or
ĠDav id
ber t
Ñģ ÑĤ
ĠR ich
Ġspec ial
Ġg reat
ĠAmer ica
Ġm illion
Ġp e
Ġs ent
l i
ac hed
Ġ [
Ġ199 8
ĠAustral ian
ĠFran ce
ir on
Ġ201 6
ĠAss ociation
Ġdevelop ment
l o
Ġcre ated
e h
ro te
Ġ18 6
Ġpro duc
Ġcon f
Ġst ory
om m
Ġsong s
ĠPart y
o le
L iving
Ġproduct ion
it z
i Ã³n
Ġ2 3
Ġreturn ed
ĠP al
Ġ2 1
her s
ĠD es
Ġh ig
e an
A s
og n
stit ute
ak en
ra w
ip p
Ġt imes
Ġschool s
Ġst ar
Ġdeb ut
est s
o or
ĠH all
Ġcl aim
Ġco ach
Ġbro ad
Ġm ult
Ġcon n
Ġreg ion
m a
Ġt er
Ġh owever
idd le
Ġgu itar
Ġre al
ĠW hen
il es
ol ution
ĠR ev
Ġcom b
Ġ2 2
ĠA nt
Ġhel p
olog ical
ell ow
ĠM al
our ces
Ġsim ilar
se qu
g y
Ġm ilitary
Ġf ull
Ġse e
Ġbe h
Ġimport ant
= "
Ġf ind
ĠD ivision
Ġin fl
op e
i ol
ic le
Ġg l
ĠB as
Ġset t
Ġ z
ĠC ouncil
at ors
Ġm y
Ġl o
ib r
Ġ198 0
Ġ18 7
Ġcont rol
Ġp ri
wo od
Ġannounc ed
ĠM y
in ation
ĠĠĠĠ ĠĠĠĠ
om as
ĠCl ub
Ġre n
Ġ =
Ġf riend
ĠÐ ²
Ġwith out
A fter
r ack
Ġst yle
ar ly
Ġl im
Ġpr act
m it
r ight
y a
n ow
l ess
y pe
Ġre d
r u
ĠC ath
ĠSt ud
ĠThe se
Ġper forman
ra b
Ġro und
ĠGerman y
ĠUn ion
Ġd i
er b
ĠD uring
Ġd est
ill s
l ic
at ch
Ġch urch
i ers
Ġjoin ed
way s
Ġpolit ical
Ġ201 7
ber g
v iew
ĠEurope an
Ġf em
Ġpos ition
ĠR oyal
Ġapp e
ĠG eneral
ash ington
Ġare as
ell s
Ġm arried
Ġ enc
Ġatt em
umn i
Ġr ight
P ro
Ġp oint
g in
oc r
ĠCan adian
ĠBl ack
st on
Ġw rote
Ġin f
ĠV ir
Ġl anguage
ar ch
ĠKing dom
i j
Ġweb site
Ġbro ther
ĠM usic
ĠComp any
u le
an ies
ain ing
et work
y ear
ĠT ex
Ġg en
Ġ2 6
) :
ri an
Ġind ivid
ic ular
3 0
Ġ199 6
c er
g round
ĠT own
Ġ201 8
I t
w h
ra z
stit ut
Ġ199 7
on a
ĠM art
it her
pl ay
g r
Ġ ident
Ġtr ack
Ġrecord ed
ĠB er
ĠP at
ĠT V
oin ted
Ġconsid ered
ĠP ress
Ġsh ould
ric k
Ġpolit ic
u ce
Ġle ague
Ġcontin ued
Ġeduc ation
ĠM ag
Ġprofess ional
Ġind ust
Ġ2 7
Ġpro ject
at ter
Ġa ut
r ay
Ġg ood
Ġe ast
ro ll
il i
Ġ2 8
Ġappe ared
Ġg et
Ġgroup s
Ġatt ack
end ing
P l
is ing
ĠÐ ¸
oin ts
Ġwork ed
Ġt yp
eb all
Ġpro per
o ks
Ġ /
est ed
ĠR ail
ĠS en
ish ing
Ġc aus
x t
Ġnov el
u ter
Ġ1 00
C A
Ġst ations
re land
Ġro ck
Ġdo es
Ġh uman
Ġl ost
ul ts
fer ence
us ed
Ġof fer
ĠL aw
Ġc ross
ĠPres ident
ĠT ur
Ġ197 0
Ġh alf
v al
ĠM ary
ar l
augh ter
Ġl ive
Ġev ents
unct ion
th let
ĠJ os
Ġexamp le
y ing
Ġdescrib ed
Ġec onom
h an
Ġd ays
n el
ĠS l
Ġd iv
h ib
Ġteam s
Ġh on
ĠM ont
ag ed
g es
ket ball
ĠD on
ap t
ĠF ootball
Ġm id
Ġpr iv
ab ly
Ġfound ed
Ġelect ion
Ġ Ñģ
Ġav ail
Ġcomple ted
Ġdirect or
ĠIs land
ĠW e
y m
ĠB u
Ġ20 19
Ġmat ch
c y
ä ¸
C l
ert ain
b urg
ĠW ith
ĠW ashington
s hip
ĠAng el
Ġt en
ĠAc adem
Ġin s
ap er
em ents
ĠGro up
ĠM o
p ro
od es
Ġcon d
Ġh old
2 5
ĠG reat
Ġserv ices
Ġl ess
Ġf urther
Ġex ist
Ġm iss
Ġs qu
r d
r ated
Ġd er
Ġh ow
Ġan im
ĠTex as
Ġl os
W h
he re
us ical
Ġdevelop ed
Ġinfl u
Ġrel ations
ĠF irst
Ġpres ident
ĠC ourt
Ġv ict
le ar
Ġb ody
Ġm aking
ĠL ist
id ence
ock ey
Ġm ot
Ġr adio
ĠM ount
Ġem ploy
r ish
ĠS ing
Ġm ater
ra p
Ġsp orts
Ġplay ing
at ural
ĠN e
Ġv iew
ĠS erv
ĠS im
k y
Ġ199 5
ĠH en
Ġsign ed
cc ording
Ġsur v
m ost
and ing
Ġs ocial
Ġhim self
ac ing
ĠB ay
t ime
Ġn ever
ĠJ ew
Ġass ist
ĠAr ch
i que
ud d
Ġpart icip
Ġadd ition
ol f
y d
Ġl iter
i os
Ġ199 4
all s
Ġw est
Ã ¤
ĠRober t
ĠS ociety
ĠS al
an i
ol it
um p
ĠM ac
ĠP ri
g er
ĠJapan ese
w are
al ign
Ġc ase
Ġc ast
a ign
Ġ #
Ġs er
Ġmod ern
ĠM ex
um e
Ġform ed
ĠSc ott
ĠCent er
p ec
ĠD em
ĠPro v
Ġother s
Ġt ro
c ol
g o
u ation
Ġpart icular
un t
Ġrele ase
Ġmunicip ality
Ġgro w
it ect
ens ive
ĠItal ian
m ar
il ities
Ġ20 20
F ilm
Ġse lect
it ive
Ġw ife
ĠM ad
it ing
at re
iam ent
ĠLou is
Ġ199 2
o ice
Ġbec om
Ġse par
ĠCath olic
âĢ Ŀ
ĠM iss
Ġf ail
ĠT rans
ï ¼
ĠY ear
Ġinv est
Ġgro und
Ġavail able
ĠS am
ĠG reen
Ġeff ect
Ġ2 9
eth od
ou l
ĠFl or
e ep
Ġw eek
ĠU K
and ed
Ġcomp os
ĠP enn
Ġ( )
as ons
an o
Ġin formation
i en
ĠChrist ian
al a
Ġme et
b e
2 4
Ġind epend
Ġa ver
Ġar r
Ġin st
ic les
Ġr ul
ĠB est
| |
im ately
ĠFran c
ĠC ap
Ġbel ie
it ch
ers hip
ĠÐ ½
Ġf ire
s y
Ġto g
ant ed
ific ation
ĠMich ael
est ival
o res
c raft
p ite
ste ad
Ð ·
ist ic
ar ies
g ed
Ġh ous
ul a
ĠG old
ak er
Ġtog ether
Ġres earch
w est
Ġp oints
Ġmod el
ĠI reland
Ġl ight
ut es
u it
Ġd oc
ur a
ĠW estern
az ine
ĠC he
ect or
u x
h i
ĠCh ina
E ng
ĠC ro
ra el
yl v
ro y
er ry
ĠT or
Ġl ow
v iron
b our
ud e
and s
Ġa way
, "
Ġc e
ot ed
ĠV ol
ver t
ent ial
Ġac ross
Ġwork ing
Ġ ide
Ġph ys
Ðµ Ð½
id ing
Ġf ree
ecut ive
Ġvoc als
ĠM et
Ġal umni
Ġal though
l iament
Ġde v
un k
Ġcont ract
Ġrec ogn
Ġepis ode
Ġm other
Ġon ce
ĠOlymp ics
ĠTh omas
ĠA lex
ĠCent ral
ĠB en
duct ion
ĠM ark
ed y
ĠW il
ict or
ĠC ont
Ġmed al
ĠT o
at ory
Ġm ar
ĠVir gin
id s
4 0
Ġ5 0
Ġcol l
ign ed
eder al
ĠGr and
Ġcomp anies
S h
ĠIn ter
Ġestablish ments
Ġy our
T V
ĠComm un
Ġ196 0
Ġf und
c le
is l
Ġm ust
Ġrev iew
ĠC ong
Ġoff ice
Ġpl an
N ew
Ġ199 3
ĠB ill
ĠAcadem y
Ġconstruct ion
ot a
Ġs ound
ĠChar les
Ġrel ig
Ġsuccess ful
j ects
Ġelect ed
Ġstr ong
Ġb i
re y
ÑĢ Ð°
en a
ĠZ eal
Ġa p
itt ee
g ress
ep h
inc ip
Ġt aken
er r
Ġpro ble
at ives
oy s
k ed
Ġph ot
Ġbl ack
ac hes
Ġac cess
Ġbo oks
Ġmater ial
Ġad minist
b ack
Ġac qu
Ġ199 1
Ġapp ointed
ce ed
Ġorigin ally
Ġinclud es
ĠF rom
av es
ĠP eter
ĠCar ol
ĠZeal and
at ri
ab ility
Ġfeat ures
Ġl ab
em or
Ġgo al
Ġperform ed
act ers
S c
ec e
w rit
he ad
el t
ap s
ĠP et
Ġc our
i qu
Ġc ost
Ġkn ow
om s
ĠFran k
ĠOr der
Ġc he
id ents
z a
ri a
200 6
Ġr ace
on n
ann el
ch ie
ĠDep artment
Ġfollow ed
ish op
ffic ial
Ġimp ro
em s
Ð¾Ð ²
a ut
ough t
ell ing
Ġmon ths
ate g
Ġla un
ĠG od
osp ital
e es
Ġpart y
ines e
Ġdirect ed
ad ium
Ġm ix
Ġk ey
f ic
duc ation
Ġ20 21
ĠAfric an
Ġmark et
Ġreport ed
are n
Ġde g
Ġp ut
h ood
nd er
le b
Ġreg ular
Ġal ign
Ġkill ed
F or
ific ant
ĠG ames
ĠM useum
ĠB ut
Ġass oci
Ġ :
ran ch
Ġe ight
ĠR ock
Ġc irc
as c
Ġd aughter
ĠIn stitute
ĠC amp
Ġgr adu
s erv
ĠL ake
Ġcap t
ĠFlor ida
ĠAfric a
J o
ibr ary
Ġan al
Ġse en
l or
Ġto ur
ar ian
ol k
ĠL os
) ;
ec k
if f
Ġshow s
Ġattem pt
Ġle arn
ĠD ay
ĠG o
Ġb ar
ic ago
ant a
ĠT om
Ġcon duct
m b
i ation
Ġag re
Ġthrough out
Ġfeat ured
Ġp ain
Ġf ight
ylv ania
ĠRuss ian
Ġent ire
Ġt est
enc ed
viron ment
I I
ĠM el
ĠR ob
ĠâĢ ľ
Ġbuild ings
mer c
ã Ģ
Th is
Ġperforman ce
Ġd ata
ĠH am
ĠH ill
r as
er c
in i
ro ad
Ġlarg est
ĠC ast
re l
Ġaver age
Ġevent ually
ĠD an
Ġcamp aign
Ġ Â
ĠD o
k m
Ġt re
Ġe ither
ar ter
F A
A t
Ġ4 0
Ġp ast
ĠL eg
Ġf oc
2 7
ĠP e
ĠRich ard
Ġsign ificant
Ġtrain ing
er ous
air s
Ġcons ist
our ce
ug by
ĠPl ay
ach ing
it es
Ġd am
ĠRep ublic
ĠSp anish
u z
Ġ198 9
Ġg ave
Ġrem ained
Ġw id
Ġv iol
ĠI m
ov iet
ĠA pp
ĠSc ot
ĠWh ite
2 6
Ġs ugg
Ġp ress
Ġrepl aced
Ġse ven
Ġst ri
ĠK ore
Ġin j
m on
overn or
Ġ198 8
.. .
ĠF ilm
Ġfr ont
im ate
ist an
Ġdesign ed
augh t
Ġr ange
Ġ3 1
2 8
k i
av al
ĠS ummer
Ġfor ces
ĠF ore
an ks
ĠSm ith
200 0
s ylvania
Ġm ount
ig an
Ġintro duced
Ñ ħ
Ġhe alth
ĠGeor g
Ġa ud
ar th
Ġs il
ĠSec ond
Ġp ark
ĠW in
Ġab le
Ġfin ished
Ġsc ored
Ġst age
ĠV ictor
Ġ( "
Ġw inn
Ġfootball ers
Ġchar acters
om a
ut ure
ĠH istor
Ġ20 22
ĠIs rael
Ġ ill
ã ģ
uf act
ol a
G e
ĠC ons
o ch
k n
Ġab ove
Ð ¿
cent er
Ġh om
ĠK n
v ing
Ġre b
ĠF in
Ġbo ard
ĠH istory
Ġch ampionship
Ġtrans fer
Ġs em
at in
Ġsub sequ
Ġlead ing
Ġc ivil
Ġro ute
Ġg old
Ġch ange
Ġme an
Ġresp ons
ro s
re ad
mp ire
" )
Ġinvol ved
Ġadd ed
S A
. )
end er
Ġp ur
oo ks
Ġ198 7
Ġus ually
Ġsing er
L ist
Ġtrans l
ç ļ
ut ch
Ð ¹
ord er
ers ey
i res
F L
ĠM us
Ġpriv ate
ĠÐ ¾
Ġt reat
Ġd ou
Ġ18 5
I nd
ag on
med i
ĠS ome
h old
ic y
l am
2 9
id ge
Ġbir th
Ġstud y
Ġ198 6
ĠS aint
ian o
out e
ĠB ur
çļ Ħ
ĠItal y
ĠM il
Ġcl os
ow s
Ġprov ide
d en
ul ated
ĠPenn sylvania
Ġcon v
Ġp ot
Ġr ank
Ġup on
Ġcol lege
Ġcl ose
ar io
i Ä
ĠCh icago
ĠM r
ĠMin ister
Eng lish
R ec
ĠHen ry
ĠVirgin ia
it a
Ġwh ite
ĠM ass
c her
Ġart ists
un s
r ad
merc ial
as ing
f ace
Ġtra vel
Ġt ype
Ġst e
un n
Ġwrit er
l im
Ġr ights
ur ity
Ġes c
in ct
ĠT ra
ĠBro wn
6 0
ĠFor ce
Ġj ournal
ĠD el
l a
raz il
ĠS qu
ĠAngel es
Ġne igh
Ġ198 4
at al
Ã ¨
Ġc ourt
ĠWh ile
ic ated
is es
rough t
ĠÐ º
19 0
Ġs en
Ġmed ia
st ant
ĠD irect
ĠG re
ĠSt ev
Ġc op
Ġsp ace
Ġn ight
Ġo pt
Ġair craft
Ġs aw
Ġqu al
Ġdisc over
Ġprov ided
s el
Ġwrit ers
Ã ±
ĠCh inese
Ġact ress
i as
ĠJ ust
he ast
ar ily
Ġd ram
Ġaward ed
p ly
E arly
Å į
Ġj ud
ĠPar is
Ġf low
ay ing
Ġm ethod
Ġarch itect
Ġle ast
Ġfem ale
at o
ist ics
Ġr iver
op er
w ell
Ġst ates
ĠL ove
Ġinter est
ĠC r
ĠSt ar
Ġcent er
y r
bo ard
Ġchang ed
ĠE v
er o
p ts
uk e
Ġcount ries
Ġar g
Ġv ia
end s
Ġrail way
Ġs ch
B A
as k
ĠSup er
r up
ĠW ales
Ġexp ress
Ġc al
Ġa chie
ri al
Ġ198 5
Ġcurrent ly
Ġc reat
Ġpolitic ian
w w
Ġf av
ist ry
ĠAt l
e ated
Ġf ig
Ġmanag er
he st
Ġcent ral
or ing
Ġpar ts
The re
Ġre ached
Ġpo et
Ðµ ÑĤ
g en
ens us
Ġh it
ĠM a
Ġl ower
ct or
por ary
ĠI ll
ĠTur k
A d
A R
Ġs ection
N otes
Ġst aff
az z
Ġact ion
Ġbas ketball
Ġh ard
ov ers
ĠAn n
Ġs us
Ġ198 3
Ġres ults
eng th
Ġposs ible
ï¼ Į
u ff
Ġpr incip
Ġm usical
Ġan c
omet imes
Ġn etwork
Ġc y
Ġ195 0
Ġqu est
Ġin stead
Ġgo als
Ġresp ect
Ġl oss
Ġout side
ĠSw ed
i ences
Ġse x
Ġcl osed
ed s
Ġprim ary
Ġocc up
ĠO ld
ant ic
h ab
w er
Ġbroad cast
Ġmult ip
Ġun a
ĠAr ts
D e
ent h
i ents
u a
Ġdoc ument
ĠM ur
ĠO h
am s
Ġf all
ĠCol umb
ĠDem ocr
ok e
erv e
c a
t a
ell a
ĠE r
ĠN orthern
sy ch
Ġp ers
kn own
ult ural
ĠP ublic
Ġw ind
Ġrelations hip
Ġh or
stit ution
ĠI rish
ĠMex ico
ĠCong ress
ĠO ther
Ġes pec
Ġproduc er
il s
ong s
ĠS ir
ĠP re
rib ution
et te
Ġp red
ĠCl ass
ĠS oviet
Ġg irl
ens ion
Ġk ing
ĠComm ission
Ġcrit ic
Ã §
Ġs outhern
ĠI ts
Ġ197 9
S p
Ġ198 2
ĠM od
ĠK h
Ġde al
b ur
8 0
Ġ ĠčĊ
Ġpol ice
id er
ĠA v
Ġcompet ition
Ġact or
Ġocc ur
Ġm ur
Ġsystem s
Ġn orthern
Ġc ut
Ġst re
Ġle t
Ġm ass
w a
ĠM ill
Ġfre qu
Ġman ufact
Ġr ather
cl us
b and
Ġdec ided
Ġ18 4
18 9
i ro
Ġw inning
h ire
Ġme as
Ġf ar
Ġl ik
Ð ±
ian a
b ased
st ra
l ike
Ġp urch
y e
r ig
Ġpl aces
le ments
ĠO f
D uring
Ġpl aced
Ġt ax
Ġb ass
Ġappro x
ĠO per
Ġb rought
o id
ĠO b
ĠT wo
Ġwh ose
m ond
ĠJ im
ĠW ood
ĠCarol ina
Ġgr and
Ġfour th
p eople
sh ire
ĠC D
Ġb en
ven ue
Ġn eg
L e
Ġac cept
Ġsing les
ĠP an
ĠJ ersey
Ġal most
T e
Ġto urn
ĠM er
Ġim m
g ent
ĠJ ack
Ġcomple x
Ġrun s
ĠS k
atri ate
200 5
P h
Ġtrans port
Ġ197 6
l ier
Ġits elf
Ġpar a
Ġpl ann
C an
ĠE mpire
Ġv eh
- -
w ith
ĠO ff
Ġb all
Ġre ve
um ents
ĠR h
Ġhig her
Ġart ist
ĠO ut
Ġ198 1
Ġl ook
Ġcap ital
Ġb ank
ec ess
Ġpl ant
Ġcult ure
Ġsc ience
ĠVal ley
ĠServ ice
Ġter rit
Ġf ood
Ġst ated
ript ion
re me
ur t
erg y
ĠH ow
Ġc ou
Ġperson al
at i
ing u
Ġun its
ĠPar liament
Ġf arm
Ġd en
Ġst op
ÃŃ a
Ġprevious ly
Ġ197 4
Ġfor ce
Ġis land
Ġ197 2
Ġcont ribut
ollow ing
ul ations
ult ure
ill a
emb ly
Ġoper ations
u als
Ġstud io
iet y
ĠA rab
Ġbeh ind
ĠS il
n ed
ĠS ur
or por
Ġn atural
Ġdest roy
Ġc red
Ġto o
Ġmunicip al
if t
Ġk eep
ult y
r or
Ġown ed
all ed
f fer
Ġadd itional
Ġe ver
ĠT echn
anc ed
ĠSc ience
Ġme ans
ĠR adio
ĠN avy
p ut
isc o
ĠH on
Ġpr ison
ĠT our
ĠD en
200 7
Ġreg ard
N A
ĠS eries
oun ter
ent al
Ġ197 8
if y
Ġs elf
Ġs um
Ġcomp let
g l
P erson
Ġ i
ell ed
ch ange
Ġb ase
un ior
Ġbre ak
Ñ İ
en ed
as ion
Ġd u
ĠÐ ¼
Ġb ur
Ġallow ed
p os
Ġsup er
Ġbeg inning
Ġr ate
lect ion
ĠF ort
Ġorgan iz
3 5
ĠA ccording
or a
Ġdef eat
Ġmag azine
Ġse asons
Jo hn
Ġso ft
ĠB razil
Ġmin or
C on
ĠO l
ĠR oute
o ir
is ions
Ġatt ended
Ġso on
Ġcom e
Ġstruct ure
ĠB ob
ĠMart in
he t
ĠR os
Ġnew sp
ĠT imes
Ġs ummer
ĠF estival
r uct
Ġl iving
ÑĤ Ð¾
e ff
Ġmov ement
Ġread ing
Ġco ast
Ġte xt
Ġf if
Ä ģ
ĠG reek
Ġwrit ing
Ġb attle
ly ing
are er
Ġend ed
Ġdet erm
ĠM os
Ġed ition
at form
it iz
ĠSp ain
200 4
a o
Ġw ood
Ġindust ry
Ġwh om
Ġc and
Ġdef eated
Ġob serv
Ġsc ient
Ġd ivision
Ġus es
Ġdeg ree
anc ial
ĠH ot
im b
Ġex cept
Ġpre m
ĠB attle
ĠG overnment
ĠB ig
Ġd on
Ġloc ation
Ġ197 7
Ġf uture
ech an
pp ed
O ther
ĠE ducation
iÄ ĩ
C ol
um s
Ġbo x
Ġcom mercial
Ġtrad itional
Ġn ames
Ġcollect ion
Ġl ittle
Ġc ertain
Ġespec ially
in ary
ĠL ine
/ /
ad d
ĠP o
ĠJos eph
Ġindepend ent
ĠF ound
ĠB us
ĠU p
Ġact ive
Ġindivid ual
Ġ197 5
Ġm ention
Ġrem ov
Ġce leb
aw a
ar r
Ġstud ent
un c
Ð¾Ð »
ic ro
k ing
Ġlead er
ĠF re
Ġin sp
as y
Ġlist ed
ĠIn c
ĠS er
i ography
Ġorgan ization
Ġsur round
Ã º
ĠL ife
ĠL and
ĠOh io
Film s
ĠÐ ´
ĠT ro
ut y
ĠSp ec
B l
Ġac adem
Ġn omin
Ġ197 3
ĠNew s
ĠA p
Ġto wards
Ġacc ording
it ors
ĠA wards
Ġun it
Ġ196 8
b ury
et ic
al ed
ĠP ac
ĠChampionship s
Ġmov e
Ġp ay
Ġappear ance
ac iÃ³n
Ġsh ot
or g
ĠProv ince
Ġt aking
A ll
ra v
w in
ret ary
Ġrequ ired
Ġd raw
ĠScot land
Ġph il
ĠM ost
Ġinvest ig
Ġsch ol
Ġg e
Ġrun ning
st ate
Ġsp ent
re ady
are nt
ĠS ub
ĠS a
ĠH aw
Ġcont ains
ib ility
y th
Ġclub s
ĠRail way
Ġstand ard
A m
7 0
Ġ ens
t rack
ri ef
ĠComm ittee
Ġ er
act ion
ĠYou ng
and a
st anding
Ġequ ip
ÑĤ ÑĮ
ĠD ef
Ġ197 1
ÑĢ Ðµ
n ot
Ġcent re
Ġcre ate
amp ion
Ġgener ally
ĠF r
Ġs ometimes
ad el
ir t
Ġd ig
m ark
à ¹
ĠL ong
ĠD ev
b on
Ġprogram s
ĠA re
Ġl ove
ĠRuss ia
Ġsc reen
ĠD ou
Ġh um
Å ¡
Ġm ission
am ily
ĠG ar
Ġdif fic
Ġmon ey
ĠE c
ry ing
Ġth us
Ġhig hest
ir m
Ġr an
ir it
Ġb ig
Ġapp lic
Ġpro f
ĠS o
Ġopen ing
C C
ol s
Ġen vironment
ĠAl though
Ġl ived
Ġfam ous
Ġs om
ĠS outhern
ran g
ĠF red
ĠII I
Ġh ockey
Ġp i
c el
ar ing
Ġconc ern
ÑĤ Ðµ
Ġbet ter
ect ions
ĠCar l
ost on
ĠP ak
Ġiss ues
ĠT er
ĠBro ad
Ġpract ice
Ġapprox imately
Ġab s
Ġem b
ĠIn t
k en
Ġ196 9
ĠH el
Ġind ic
ĠBo ard
Ġear lier
ĠAl b
Ġj ob
ard en
Ġrel ated
Ġw oman
Ġopp os
Ġfore st
ĠL iber
Ġpro b
Ġad op
al i
Ġatt ract
ĠB ook
Ġpri or
Ġe lev
Ġact ors
Ġin str
ĠL ord
Ġs af
ul f
Ġvict ory
ĠBrit ain
n y
Ġar my
ĠI f
ĠB ow
ĠTh at
ĠD i
f ect
200 3
Ġc ust
Ġnew s
or al
Ð ³
Ġex hib
ĠK ent
Ġg ive
Ġs at
ĠO ver
ĠJ ud
Ġchang es
w an
ĠB ul
Ġnum erous
ĠSt e
Ġsus p
Ġtown s
j a
Ġtr acks
ĠH a
Ġoper ated
Ġconsid er
Ġf unction
200 2
ĠThe atre
ĠC ross
ĠJew ish
3 3
ĠEng ine
im a
ĠO x
Ġsc ore
a res
Ġcomple te
u ild
Ġp en
ĠS ol
Ġo p
Ġr ad
Ġrem ains
u an
bur gh
ĠM ain
ĠS un
Ġsu ffer
Ġal tern
ĠSt ep
ro wn
all ery
ĠM ah
p ing
Ġassoci ated
on se
ans as
ĠM iddle
C areer
Ġactiv ities
Ġrelig ious
y an
ĠB re
Ġw estern
ubl ican
ĠT ri
h ouse
Ġappear s
Ġ196 4
Ġcour se
il ed
arri age
k o
i h
Ġ196 7
Ġprom ot
Ġsub ject
Ġd ate
Ġspec ific
Ġ ut
ac her
k ins
Ġt akes
4 5
Ġcomm and
at ers
ric ket
g ar
ĠC ivil
Ġmon th
ple ment
Ġappear ances
ĠSy stem
ĠG en
Ġfoc us
ĠW eb
re ct
Ġcand id
Ġlim ited
Ġs ize
Ġal ready
ĠS ar
c on
M ar
Ġl ength
9 0
A S
Ġw ord
F C
ian t
ĠL ee
Ġinter view
Ġv en
Ġbecom ing
Ġtr ade
ir a
Ġhe re
et ts
ä º
Ġh ot
Ġst ep
ĠGeorg ia
Ġe mer
o e
ĠB ank
Ġar m
Ġthough t
um ber
200 1
att al
Ġrecord ing
ĠCon n
pt ion
Ġfootball er
Ġmat ches
Ġterm s
ĠBl ue
* *
ino is
Ġmur der
d own
it ation
ĠMich igan
ig a
ĠP rem
: //
Ġfeat ure
Ġtourn ament
Ġch ief
Ġl as
ĠJ ones
Ġ196 6
Ġt rib
ab b
Ġd ed
I S
ĠN ot
ak a
Ġm ach
ic ation
Ġmost ly
Ġstat us
es c
ĠPro fess
em porary
Ġproper ty
Ġnot ed
b ers
av a
velop ment
v a
Ġret ired
vent ion
Ġ194 5
ad or
Ġrecord s
ĠC am
ag n
ay a
ee ks
3 7
Ġstud ies
col or
Ġcomm ission
ĠSt r
emor ial
urb an
Ġbas eball
Ġdec l
Ġpl atform
Ġass ociation
Ġincre ased
Ġed itor
Ġse qu
ect ive
Ġ194 0
Ġcaus ed
Ġiss ue
Ġhistor ical
ĠD utch
Ġmultip le
ĠM att
d s
Ġc le
Ġ20 23
Ġ193 0
in als
Ã¡ s
Ã £
Ġ Ñ
ĠPort ug
A ust
Ġsqu ad
Ġc ases
Ð° Ð½
Ġmanag ement
ĠG irl
ĠT ime
R A
3 6
aren ts
Ġ ver
Ġle aving
Ġleg al
3 8
Ġlin es
Ð¾Ð ¼
Ġn orm
Ġ6 0
ad ing
ĠM id
Ġim medi
angu ages
ĠO pen
ys is
Ġdec ision
Ġ196 5
ĠS at
che n
ear s
Ġd om
Ġs ister
ĠMc C
Ġto day
ort un
Ġlong er
r ast
Ġor d
ĠTe am
ĠColumb ia
ĠT im
is her
Ġrepresent ed
ĠM at
el a
is k
Ġex c
ĠM ot
ĠQue en
ĠScott ish
ĠC amb
Ġgo ing
ĠG ood
ĠS ince
Ġqu ick
mit ted
Ġlaun ched
200 8
Ġin stitut
Ġb ridge
r ac
3 4
w ar
ug e
M ed
ĠG al
ĠA venue
ĠT em
is ation
ad ed
Ġant i
ĠJ ul
ĠEd ward
Ġstruct ures
Ġcount y
Ġann ual
Ġl og
le ft
Ġal ways
ab les
ĠCo ast
Ð½ Ñĭ
T rans
C omp
il ly
S e
ĠW ind
Ġfor ced
ĠL ittle
Ġoffic er
ĠPr ince
Ġsen ior
Ġun iversity
p ress
ĠM en
Ġw ide
ail y
Ġl ay
ĠFranc isco
Ġinit ially
18 8
Ġrem ain
n es
ĠB et
ip l
201 0
Ġl ack
Ġcol on
199 0
ach us
ra f
Ġro om
air man
% )
ĠW ild
Ġdet ail
Ġen ergy
Ġint eg
Ġev idence
Ġ +
i y
B S
Ġeconom ic
ĠC reek
ĠCh ief
ph y
Ġsh own
r im
d uce
ĠO k
ob al
t ained
Ġmajor ity
Ġl ic
oc al
Ġdis e
ip s
os oph
ĠUS A
er em
Ġbel ow
Ġm erg
Ġlarg er
Ġacc ount
l anguage
Ġrequ ire
ĠIll inois
ĠE lect
3 9
ĠW omen
Ġserv ing
Ġrefer red
m m
ĠN Y
ig er
Ð» Ð¸
ĠL ab
ĠE arth
Ġm ight
Ġ ess
ĠIs lam
ĠD is
Ð½ Ð¾
ÑĢ Ð¸
d is
Ġmean ing
ric ts
ian ce
ir ing
ist ers
Ġselect ed
Ġp il
Ġse a
ĠE astern
Ġpass ed
in em
ĠM P
ur ies
Ġent ered
ĠT re
Ġe astern
I s
ph ia
Ġc ell
B rit
ic ations
ĠRes earch
Ġmov ie
ĠAs ia
ĠB C
Ġn ine
M usic
art ers
por ation
Ġf ederal
ĠIn f
ĠD ie
oc cer
Ġsepar ate
Ġvar iety
ĠOlymp ic
t ies
r ich
Ġb rief
ĠL uc
ĠW al
Ġm iddle
ran ge
ĠN ight
struct ion
Ġ )
ĠB oston
Ġtechn ology
res p
ant ry
achus etts
S ports
led ge
N ot
Ġthe ory
ĠU nder
Ġb ound
enc ies
Ġplay s
Ġun ion
Ġdisc uss
ãĢ Ĥ
ĠSt ation
Ã¡ n
iz ing
Ġth reat
Ġfore ign
ran ts
ĠSh ow
adel phia
ä »
Ġsubsequ ently
Ġh ours
Ġmin utes
ri z
a is
Ġprov ides
ĠHigh way
sel ves
ed d
Ġthem selves
u ated
N E
Ġm akes
Un ited
ĠB BC
m ission
Ġf le
ĠJ r
erv ation
g u
199 9
ĠH ung
ĠM ore
itt ing
ĠV er
Ġm er
ĠB h
Ġoffer ed
ĠT w
ĠO fficial
Ġw eeks
ĠW ay
ap ers
w ide
ĠCent re
Ġparticular ly
ĠWilliam s
ont o
itz er
os a
W ith
a ult
Ġs ource
on ic
ĠPac ific
am in
ĠB ern
ĠAr gent
7 5
ĠE ll
ĠL ibrary
Ġob ject
Ġc itiz
ĠAl bert
Ġch all
Ġacqu ired
Ġm em
ste in
Ġlab el
ĠT op
Ġcon fl
200 9
Ġform at
Ġbelie ved
Ġun ivers
Ġf oot
ĠB or
nt ario
F rom
h ol
Ġepis odes
Ġ196 3
ĠSt an
Ġadminist r
ess ion
ag er
ĠL atin
M en
Ġform s
ĠK e
Ġ ice
ĠD et
Ġqu arter
in ent
Ġcom edy
Ã£ o
ur rent
av en
Ġad j
A A
ĠOx ford
Ġg ot
ric e
ĠSy d
ĠB and
ĠS ocial
per or
Ġ3 5
ĠI ran
ĠCon ference
Ġfor t
Ġch art
Ġship s
Ġpass eng
Ġbl ock
che stra
Ġhel ped
Ġ19 20
Ġcap ac
S he
enn is
Ġb omb
Ch ar
W hen
Ġstart ing
m as
ĠHe alth
b l
ĠU r
ĠM ajor
Ġtem per
in et
Ġresp onse
Ð¾Ð ³
u is
ĠSe a
ĠChar l
Ġsp l
ĠSp orts
at ively
ĠE nd
Ġmed ical
Ġtro ops
ran ce
ĠAss embly
Ġc ouncil
Ġhous es
n o
le vel
Ġc ities
n am
Ġrem aining
ĠS und
Ġfin ancial
ĠW ater
Ġincre ase
ast ic
3 2
Ġint ers
3 1
u j
he ster
Ġ196 2
ell ig
acks on
ĠThe ir
im um
Ġse at
Ġper cent
ak ers
ĠT am
N ational
ĠD ar
Ġcomp uter
ing er
ĠMass achusetts
Ġindivid uals
ĠB oy
Ġm useum
il ies
ut s
p ose
Ġpre vent
Ġcommun ities
Ġanc ient
ut en
Ġw ords
Brit ish
Ġhe avy
ag ing
Ġpresent ed
Ġv on
Ġs al
ĠS and
Ġt arg
Ġcre w
U S
Ġturn ed
Ġd one
Ġc at
Ġc ode
Ġoffic ers
Ġdiffic ult
Ġfail ed
ĠCh ild
Ġover all
ĠP eople
Ġd ro
Ġproble ms
ent y
Ġperson nel
Ġl atter
ĠPhil ipp
Ġclaim ed
Ġexper ience
Ġassist ant
ĠR am
Ġcoll abor
ĠC ard
ab eth
Ġg overn
Ġsur face
il a
Ġp arents
ic ks
ĠCor ps
stit u
ĠW all
ĠL ater
ĠJohn son
ĠSyd ney
Ġfin ally
Ġdes cent
ĠMus lim
Ġcover ed
Ġmain ly
ĠO ntario
v ement
Ġnear by
Ġin n
ĠJ ournal
gy pt
ĠEn ter
ĠDirect or
Ġar rest
Ġcom ment
Ġm echan
ĠG ame
he w
ill ed
ĠSpec ial
Ġmeet ing
ant e
te en
Ġspe ed
k er
ad s
and o
Ġdram a
th ur
Ñ Ī
lect ed
Ġh ospital
ĠC at
Ġdou ble
Ġorganiz ations
Ġc arried
o z
Ġres idents
Ġpr in
å ı
ron ic
Ġext ended
Ġde ep
Ġo ur
ĠK enn
ĠE st
Ġam b
og rap
Ġdist inct
ĠF ield
el d
ri ed
ous ly
m ore
id ad
ĠRep resent
Ġsupport ed
A T
Ġneigh bor
y ric
it ude
ĠR ay
y t
ĠV an
un a
Ġst ories
Ġ194 4
o h
Ġb ring
Ġren amed
ub e
Ġprov ince
201 1
Ġcon cept
Ð¾Ð ´
attal ion
199 8
oc ks
ro vers
orn ing
uck y
ĠA z
Ġrec ent
Ġl anguages
Ġo il
ĠM any
Ġmention ed
Ġsecond ary
ion e
Ġp it
Ġp age
H L
ĠP ost
ĠP op
Ġcond itions
ĠÐ½ Ð°
ĠB al
Ġoper ation
Ġp sych
e z
ĠH or
ĠF our
Ġstud ied
on ia
ag ement
Ġ Å
sk i
Ġmusic ians
oun ts
Ġpe ak
T rack
A C
ĠU l
ĠPol ish
F urther
Ġprogram ming
Ġhigh way
Ġart icle
Ġm arriage
Ġben ef
I D
ĠK ar
Ġdep art
Ġear ned
Ġst ay
ĠO s
Ġra ised
g et
4 8
ĠM ax
ĠV en
Ġn ecess
Ġleg isl
Ġmiss ing
Ġsh oot
ĠFound ation
Ġnum bers
Ġcons ists
ol is
ĠHistor ic
ĠAnd rew
est abl
g color
ri f
Ġv oice
S w
Ġsol o
% .
im ated
Ġcontin u
Ġcomp osed
ĠU k
ĠPro t
Ġch arg
l ight
ĠBr idge
Ġn ature
Ġk ind
Ġen ough
ul ly
is hes
199 7
4 7
and on
Ġval ue
Ġpol icy
Ġpl ans
c ul
ĠJo e
Ġle ave
Ġ196 1
ĠUn ivers
s en
Ġc ause
ĠÂ £
ĠK ong
ĠJ ac
Ġpo or
ib li
Ð ¶
Ġh ab
Ġc ensus
ow ers
Ġd iss
rup t
ĠWin ter
Ġp aint
Ġ â
M embers
Ġnear ly
it age
Ġn ative
og ue
Ġprop osed
us band
ĠRep ublican
Ġelect ric
ĠG ra
hen s
Ġc hem
im s
Ġfeat uring
Ġe lements
Ġp ath
b re
Ġch annel
Ġlik ely
Ġdes pite
th ing
ĠPhil adelphia
man n
Ġaut om
v is
ĠC orn
bour ne
ĠO tt
ĠH ome
ĠG overnor
eder ation
Ġc ard
Ġs ociety
Ġs ector
5 5
Ġa thlet
b ec
Ġbecom es
ĠB ir
Ġdirect ly
ĠAlex ander
z ech
Ġb order
anc y
ĠB a
M an
ĠH ind
Ġdis p
Ġin hab
Ġde ad
um ed
ĠB udd
ĠL ight
ĠG h
inn es
Ġaff ili
Ġp ick
Ġag ric
ĠM u
ak h
ĠR el
Ġinflu ence
Ġon line
Ġ195 9
ĠVictor ia
Ġd yn
Ġbel ong
t le
D on
Ġprim arily
Ġ195 6
Ġnewsp aper
Ġto ld
ĠL es
form ed
Ġmot or
ĠM ike
ĠB ab
Ġlist ing
O r
ĠJ ean
D em
Ġrespons ible
it ted
ĠJ eff
Ġsil ver
Ġserv e
Ġun c
Ġm aster
Ġup per
9 9
Ġsuc ceed
Ġan g
l av
Ġ194 8
al le
i i
y er
ĠAir port
ĠOff ice
ou ri
innes ota
Ġse g
ĠS ong
Ġ18 0
Ġc lear
ĠF C
Ġsold iers
Ġquest ion
ob ile
Ġsoft ware
Ġg un
ĠBr ig
Ġnov els
Ġal leg
Ġtrad ition
Ġcol or
olog ist
Ġst adium
ĠJ ackson
ec es
ĠS erb
F F
ound s
Ġmanag ed
ĠBer lin
am m
Ġp al
Ġcon ver
Ġexp atriate
ĠAd d
Ġc orn
Ġd omin
ĠB ell
om er
Ġwho le
Ġ8 0
cl ass
Ġsc hed
Ġ era
Ġ195 8
Ġfac ilities
writ er
ĠT od
ĠPro gram
ĠPri ze
Ġc ars
Ġp or
Ġproduct s
Ġfriend s
ict ional
Ġwe ap
Ġf ace
Ġwhe ther
ic ted
Ġterm in
Ġr ule
E l
ĠAr m
Ġpro gress
Ġf unct
Ġpar ish
Ġdel iver
198 0
Ġfe el
ĠGu ard
C omm
Ġconstruct ed
ĠPak istan
Aust ral
amb ig
ĠM ov
Ġtit les
ĠB ra
r ate
ĠF I
ĠS ant
Ġa wards
Ġs ources
Ġcom es
199 6
ĠL ew
Ġre ason
Ġwork ers
orpor ated
ĠCor poration
ĠR od
w orth
Ġlevel s
Ġide a
Ġas ked
ĠWil son
ris on
4 4
' ,
ĠE gypt
ĠR aj
Ġdiscover ed
ĠTh ree
ĠKore a
r in
Ġcontin ue
ĠMed al
re c
ie uten
Ġhe art
Ġcamp us
Ġdiv ided
18 6
Ġc ateg
ĠE s
onom y
ĠR og
olit an
m ir
Ġl ives
d a
as ts
ĠF ar
Ġ ult
Ġtransfer red
ĠV ill
ĠC ub
Ð° Ðº
ri e
Ã© s
ĠP en
Ġ194 2
em an
igh ter
ĠP ubl
201 2
ĠK en
" |
ĠFore st
st one
os h
Ġinit ial
Ġtyp es
und red
a ith
ĠA k
ĠQue ens
ĠDemocr atic
ul pt
ĠA thlet
Ġr ugby
b a
il ation
æ ľ
Ġcontin ues
Ġhon or
Ġab ility
Ġ5 00
ĠReg iment
Ġincre asing
Ġsc ene
ĠBel g
ors hip
ĠAs h
ĠE p
ambig uation
ĠTor onto
Ġcult ural
iz abeth
Ġmet al
Ġapp l
Ġ195 7
em eter
Ġreg ional
w ick
emeter y
4 9
ic ed
ĠBe ach
il ton
m ad
` `
Ġb gcolor
cl es
ig en
O ne
ist ance
Ġw anted
ĠV iet
Ġdem on
ĠÐ ±
Ñ Ĩ
Ġdr ug
Ġprofess or
ĠCast le
enn ess
ĠIs lands
Ġst ore
L a
Ġnot able
ell o
ĠJ es
Ġ195 5
Ġeff ects
Ġiss ued
v in
ĠL im
oc ated
b it
ce an
ĠR ome
O lymp
ĠS anta
Ġhigh ly
H is
ĠStev e
ay lor
Ġ194 7
Ġremov ed
resp ond
ar ry
Ġmod els
Ġquick ly
Ġn uc
Ġ194 6
Ġdis play
Ġl if
Ġmount ain
Ġk m
N o
Ġsmall er
Ġh usband
yd ro
4 6
he im
ĠF air
ĠM ir
Ġam ount
Ġim plement
Ġcapac ity
ĠS pe
Ġy outh
Person al
ether lands
P olit
m et
Ġsh are
Ġadd ress
ĠReg ion
Ġex ecutive
ar p
ĠB ang
Ġalong side
199 5
Ã¼ r
ĠL i
V D
roll ed
dis ambiguation
Ġrul es
B e
ĠHe ad
S P
ĠC as
ĠComm on
Ġfam ilies
ĠC a
Ġth r
ĠA ut
Ġlet ter
Ġpro duce
ã Ĥ
Ġen em
Ġ194 3
ĠBar on
Ġpre c
Ġadminist ration
in ing
Ġb ranch
Ġmedal ists
ĠSqu ad
Ġp an
Ġarr ived
Ġch ap
re al
Ä ±
G erman
qu arters
iz es
eth ing
ĠC y
Ġn ation
ĠSup reme
Ġproble m
g ing
Ġsy mb
Ġth ink
Ġ194 1
Ġin side
ÐµÐ½ Ð¸
Ġg re
Ġt able
ĠC op
ĠMount ain
Ġdirect ion
Can adian
Ġ193 9
ĠJust ice
Ġd ie
ins on
te xt
ĠSt adium
ĠB oth
ĠCh ap
Ġded icated
ieuten ant
im in
Ġun s
ĠPrem ier
9 5
ed om
N ov
B y
Ġwinn ers
or ado
am ber
lement ary
Ġbl ood
Ġsec urity
Ġpot ential
W orld
Ġ195 2
Ġfollow s
Ġwinn er
Ġ7 0
Ġpart n
18 7
Ġbeh av
Ġequip ment
A c
Ġlaw s
ĠP ower
Ġatt end
Ġg reen
if ying
N e
Ġfif th
Ġoffic ially
ot o
it led
ect ing
y o
ang a
S C
im al
Ġp p
ra q
ar row
Ġdestroy ed
it o
ĠBas eball
tern et
hem at
Ġas p
ĠL ady
g s
Ġliter ature
Ġgrow th
id ae
Ġsp ort
Ġacadem ic
A nd
ov ak
ĠInd epend
E d
ĠF ire
Ġf ellow
ĠPol and
ĠBro ther
Ã ¸
ol es
per ial
Ġdr ums
Ġoper ating
Ġdist ricts
Ġbas is
en es
Ġw alk
Ġbeg ins
Ġcommon ly
Ġtyp ically
ĠD er
Ġpro te
Ġoff ers
ĠT al
ĠS ev
G r
Ġs n
ĠHar v
ĠH ospital
ar o
Ġper man
ĠS om
ĠDan iel
ou d
Ġback ground
Ġf iction
ĠM aster
ĠW ork
en ge
ĠM innesota
A ccording
ĠN etwork
Ġra p
u v
ĠH ong
i ary
Ġdep artment
ĠCh ris
Ġsett lement
Ġpro jects
Ġvers ions
n s
Ġ195 4
201 3
ĠDe velopment
Ġopp ortun
Ġimmedi ately
for mer
Ġ4 5
Ġcont rovers
P op
Ġold er
Ġhost ed
Ġconduct ed
Ġphys ical
ay er
Ġserv es
Ġcitiz ens
Ġd ark
Ġpart ies
Ġre ach
ĠD uke
ic ine
an th
ribut ed
ly n
Ġint ended
O S
ĠCon f
ĠSw iss
ĠB ad
Ġy et
ã ĥ
i at
id o
ĠS us
199 4
Ġ x
iv ity
Ġinter p
ĠB ishop
Ġl yric
ĠL o
201 4
E C
or ation
ograph ic
us c
p art
Ġ9 0
Ġterrit ory
in ity
Ġpurch ased
ĠR em
Ġsem i
Ġreve aled
Ġd ance
ĠF e
Ġmanag ers
Ġbe at
itzer land
Ġpolitic ians
r ical
Ġ195 3
rop olitan
Ġprom oted
iv a
ord in
ĠRev olution
ĠH uman
Ġg as
8 8
Ġre pe
igh th
Ġstre ng
Ġneed ed
a ud
ĠH al
Ġs ens
ath an
b ook
Ġr at
ĠSec retary
Ġbl ue
Ġinstitut ions
t ra
ĠN etherlands
ĠF ox
Ġm ax
Ġplann ed
ap ed
ress ion
Ġo vers
iqu es
Ġdist ance
Ġ ÑĤ
Ġt al
Ġp ra
Ġv ote
Ġres ident
Ġcomb ined
Ġ3 6
u i
Ġco aches
Ġs aying
5 00
Ġw ant
ĠH ay
port ation
ĠAs ian
Ġfav or
Ġs low
Ġp aper
0 6
as ka
Ġsit es
ĠN ations
0 7
u y
ans ion
we ight
Ġengine er
ĠS her
Ġdist ribution
Ġn ort
Ġst reet
ons in
ĠR et
ĠAn th
ĠEl izabeth
ĠP ers
ound ed
Ġtreat ment
ak s
ĠL ive
In ternational
ĠAnt on
Olymp ic
Ġg rew
ĠF ederal
ad er
ĠCl ark
isc onsin
b s
Un iversity
L A
Ġtra ffic
ĠMed ia
ac c
us ion
b ed
op her
ag a
Ġill ust
ov a
ĠAt t
Ġmov ing
Ġl ies
eat her
Ġp urs
ag h
Not able
ĠCamb ridge
Ġtarg et
enness ee
Ġprom inent
Ġlead ers
Ġp iano
out heast
M A
Ġ Ñĩ
Ġ urban
Ġc ounter
Ġass igned
P r
M S
Ġtra ins
i ated
Ġ195 1
ĠB all
Ġw a
ĠB ol
Ġ194 9
ĠSim on
ĠB ooks
Ġgradu ated
ĠBar b
Ġinstr ument
ĠL t
ĠJ unior
wh ich
ĠCommun ity
Ġpl ants
oc ese
it ness
z o
Ġqu ality
ĠF ollowing
199 2
ĠF ame
od ies
Ġwid ely
ren ce
w ater
Ġrec over
ist ed
res h
W ill
W e
le m
ĠSen ate
ĠGold en
Y ou
ĠK ir
Ġet c
Y ear
ĠAl so
E n
ĠDes pite
Ġfl ight
l ers
ĠT ok
ĠMar ine
Ġs earch
Ġst ra
Ġown er
Ġchar ge
ĠC E
Ġactiv ity
ĠPr im
Ġrec on
Ġv an
S R
ĠR om
ellig ence
pp er
Ġh op
ĠAb b
se y
Ġelect ions
ĠAr men
Ġschol ars
Ġb ad
ibli ography
B iography
g n
y al
Ġcon stitu
201 5
p resent
es h
Ä į
Ġcor respond
ĠD own
Å Ĥ
on ents
ĠTechn ology
Ġg raph
b ro
Ġent er
ĠJ on
Ġg iving
Ġb ron
ĠKore an
Ġle aves
ix ed
en ing
Ġappro ach
sk y
5 8
Ġact ually
Ġb oy
ĠA h
Ġsy n
Ġrec ently
og s
Ġwith d
ĠPol ice
Ġorder ed
199 3
ĠT ony
ĠC irc
ä ½
or i
Ġdemon str
Ġpe ace
5 6
Ġsc oring
Ġun known
Ġm ess
Ġpres ence
al o
ol n
Ġimp act
Ġar ms
ro om
ol i
197 0
ĠJew s
Ġf irm
Ġut il
Ġemploy ed
k in
Ġet hn
ĠSw itzerland
Ġdig ital
ĠH y
Ġcom ing
ĠA ff
inn er
Ñģ Ðº
ĠBro ok
Ġagre ed
Ġmix ed
Ġadop ted
Ġfig ure
Ġeff orts
on ent
w eg
Ġsit uated
ain e
Ġmunicipal ities
Ġro b
Ġcont ent
Ġf ast
Ġcon cent
1 00
Ġindust rial
Ġ3 2
ĠB at
ĠOr gan
å ħ
Ġclass es
Ġsuffer ed
ak i
ĠSp ring
Ġanal ysis
Ġp ack
Ġrec omm
Ġsp irit
Ge ography
v est
ac ement
Ġp ued
Ġprob ably
ĠG reg
Ġest ate
Ġret ire
ĠAr thur
Ġport ion
Ġth ings
Ġallow s
Ðµ ÑĢ
Ġp et
if orm
R es
Ġtr ue
ol id
am i
Ġhouse hold
ĠS R
Ġpat tern
ac hel
Ġt ells
Ġch ampion
ast y
ol ved
Ġcapt ured
ed ia
Ġfor ward
Ġro les
Ġatt ention
Ġra re
Ġrespect ively
ord ers
Ġf ish
ant on
Te levision
l ah
Ġw ins
Ġm iles
ĠB ec
Ġvar i
Ġcan not
ĠW isconsin
ĠPr ime
Ġdise ase
ĠIndian a
Ġexp anded
ĠT aylor
i ate
Ġc ells
ĠBu ild
ĠK el
riz ona
Ġex ecut
ib ly
ĠStep hen
t i
ul s
Ġengine ering
Ġcomp ared
5 7
ĠI raq
Ġlarg ely
Ġal g
ĠCount ry
C D
Ġcol umn
enn a
Ġn et
9 8
oot h
4 2
4 1
y es
ĠC zech
0 8
Ġpre p
Ġspl it
ann a
ĠL y
ĠRev iew
S outh
Ġclass ical
Ġcompos er
ĠM unicip
inc ial
Ġsurround ing
Ġtem ple
Ġsc ulpt
Ã© e
Ġs ail
Ġvill ages
Ġknow ledge
Ġg ives
ĠM emorial
9 6
Ġar ts
199 1
or ph
ĠMar c
Ġcompet ed
w orks
clud ing
Ġt ree
ĠS ab
ar on
it able
Ġt alk
ĠI v
T A
Ġthere fore
se x
Ġpos itive
ĠE arl
Ġsh op
ĠH ockey
id ers
ĠLew is
Ġthe atre
al so
Ġc oin
E R
ĠM un
Ġsec ret
ĠSwed en
Ġformer ly
ĠT ennessee
Ð¾Ð ¹
ert o
ĠI d
ĠTown ship
Ġs ales
S S
osoph y
ĠSwed ish
ĠH un
Ġab andon
Ġcr ime
C o
ĠStud ies
Ġc erem
ĠReg ister
ĠD am
and y
ĠP it
ur d
Ġagre ement
ĠInd ust
p ur
ell er
Ġfl oor
Ġrest aur
Ġf ell
ĠW alk
ĠPro ject
l aw
are t
Ġdis establ
ĠW ars
Ġe as
Ġgo es
os en
Ġad apt
Ġh undred
Ð» ÑĮ
201 6
ĠN FL
os is
erv ative
C om
Ġs ays
ĠU t
ĠAn other
ig rants
Ġgen us
ĠOr ig
w ing
anc ing
ĠÐ ·
ĠMel bourne
p o
Ġcont emporary
Ã ¢
Ġconn ected
Ġg ained
Ġfound er
ĠNor way
ik a
rest ling
om ot
ĠAl f
ĠN az
ap ore
Ġprincip al
Ġc am
bum s
Ġnew ly
Ġp ict
Ġsp ons
Ġinj ury
Ġsub s
Ġresult ing
ĠMar sh
Ġd ial
Ġ Î
Ġsp read
Ġveh icles
e en
Ġaccept ed
Ar t
Ġsw im
F ootball
Ġj oint
al ing
Ġvoc al
m ph
0 5
ĠCap tain
Ġtw ice
Ġun ique
ĠS av
Ġarchitect ure
Ġro ll
Ġl ibrary
Ġto uch
ain ts
ĠG er
Ġt aught
reg on
Ġ ir
Ã© t
Ġest imated
p ool
Ġgr anted
or ge
Ġst one
Ġtri al
Ġal t
ĠR ang
a ug
ĠF amily
Ġair port
le ase
Ġdecl ared
Ġpress ure
ĠR oss
Ġr acing
ut her
il ing
Ġb ott
S ources
Ġresult ed
g reg
B ack
Ġm om
m es
De ath
Ġlearn ing
Ġbron ze
4 3
m iss
Ġ193 8
Ġsp ring
Ġperforman ces
9 7
ĠY our
Ġw ild
ĠAre a
Ġre duced
ĠC O
Ġsex ual
o is
j i
Ġtit led
ĠProfess or
ĠCol on
Ġ193 6
ĠMiss ouri
ĠD un
ĠBus iness
Ġh ap
D isc
j oy
Ġprov iding
ĠKent ucky
Ġim age
Ġb al
Ġdesign ated
ĠK ansas
Ġc ricket
A F
Ġdam age
ĠE P
tain ment
ĠLe v
Ġrecogn ized
ĠSquad ron
ĠSc iences
ony m
Ġexper iment
Ġwe ight
iv als
ĠU s
c an
Ġl abor
ĠĠĠĠ ĠĠĠ
m outh
Ġs amp
ĠMar ia
Ġfac ility
Ġmain tain
ow a
est ic
Ġfac ulty
ĠM anc
Ġunder st
ĠB i
ĠL ind
ĠCol orado
D es
ĠÐ½ Ðµ
Ġhe av
ĠTurk ey
ues e
Ġconfl ict
Ġte acher
ĠGre ece
ĠH ou
ur ches
el ine
Ġatt acks
ĠF inal
Ġc arri
Ġg ra
Ġfl ag
Ġgre ater
ur er
h r
Ġcont act
ĠHol y
ĠEm peror
Ġst ars
Ġacc omp
um es
un te
ĠFor m
D ef
ĠAtl antic
I A
h ar
lah oma
Ġenc our
Ġcandid ate
Ġhand s
ades h
ÑĤ Ð¸
Ġrefer ence
Ġstr ugg
ro it
an es
le ep
p a
y ard
Ġk ept
Ġw all
ĠBr ad
ro g
W est
ĠMar g
) "
ĠW at
ing ham
Ġp un
Ġmin ister
6 6
Ġmach ine
Austral ian
å ¤
em ic
Ġparticip ated
Ġprop os
Ġconc ert
ol ished
Ġm ill
ĠH art
Ġh ar
k ey
st ic
und er
ost er
Ġsup pl
Ġact ing
ww w
Ġadministr ative
198 9
Ġpur pose
Ġser ious
Ġf ully
ĠDav is
7 7
a ver
orn ey
Ġchar ts
Ġsim ply
re ll
Ġcre ation
ad i
Ġr ac
I C
' m
0 9
ĠSt at
Ġm ut
Ġg overnor
Ġdef in
ĠH an
z y
Ġthem e
Ġ rom
Ġsl ight
ister ed
Ġb att
ra wn
ĠAd minist
Ġoccur red
inc oln
R ail
Ġres ources
ĠG il
hed ral
Ġl ake
Ġallow ing
ĠChrist mas
ĠC ur
Ġh all
Ġth ous
Ġpos itions
Ġcont est
Ġcond ition
Ġsugg est
ĠCon c
Ġr ural
ĠRepresent atives
S ongs
Ġf air
Ġhous ing
ĠB rian
Ġl iber
Ġanim als
ific ations
' .
à ¤
ĠTr ust
ĠE th
Ġlos ing
cl aim
ig ration
f rom
B as
ĠD iv
im inal
ĠMal ays
ate ur
Ñģ Ñı
ir med
Ġte le
Ġrank ed
P S
m un
Ð½ Ð¸
ĠEngine ering
Ġcast le
Ġnot es
Ġneighbor hood
Ġold est
Ġorgan ized
Ġreg ions
ĠHar ry
er ick
Ġcomplet ely
Ġc as
Ġclaim s
U K
8 6
ĠLe on
Ã© n
Â °
Ġcou ple
Ġsom ething
z en
Ġcont ain
Ġan s
Ġjournal ist
k es
ĠCh ampions
ĠP ass
l ife
201 7
Ð¾Ð ½
ĠJ er
c hers
Ġmark ed
ĠW rit
we alth
Ġcap tain
Ġc art
T o
Ġacc ident
0 1
ĠM ilitary
Ġhistor ic
æ Ī
J apan
Ġback ing
ĠB attalion
ou ts
ĠK al
ruct ure
ĠH amp
Ġj ourn
er al
el le
Ġc overs
ash ion
ĠCol l
Ġident ified
M ay
F ran
Ġgrow ing
ed ing
5 2
ĠK han
c ont
Ġchall eng
Ġpass es
Ġyoung er
se e
ast ers
ĠTem ple
Ġcrit ical
Ġlyric s
ĠPhil ip
ĠCh annel
5 9
ĠFranc is
Ġ19 18
F rench
ar ia
Ġofficial s
Ð¾Ð ¶
Ġrece ive
Ġsaf ety
ac ts
198 8
c ow
Ġf elt
ĠF le
P ar
Ġcust om
Ġf ans
ÑĢ Ð¾
ĠC re
Ġeduc ated
ĠA rizona
Ġre form
um a
Ġinhab it
Ġ193 7
Ġse vent
l an
Ġw ing
Ġcomb at
t r
198 7
enn y
ow nt
Ġcon vers
ubl in
H on
Ġoper a
Ġl ot
w estern
Ġto wer
ĠW eek
ĠB os
ĠB alt
g a
ke ep
j e
w ich
Ġre ports
Ġv ot
ĠO regon
Ġmaterial s
ib b
ra ine
Ġcan cer
Ġdocument ary
Ġch airman
ĠD or
ann ing
ĠN ap
ĠSt ock
A ct
Ġvis it
ĠH ard
ag an
Ġexist ing
G eneral
Ġvol ume
in y
Ġh y
Ġveh icle
Ġexp ected
Ġt im
Ġcons um
ĠQue bec
n et
5 1
Ġw ear
Ġsett led
ĠMary land
Ġ. ..
o es
Q u
ord on
Ġeff ort
weg ian
ĠR oy
Ġlead ership
A b
Ġtri ed
ill er
Ġset s
Ġm ind
ill ery
5 4
ĠF ree
Ġf estival
ĠPr in
A wards
Ġp aid
ic ian
ore n
ist a
Ġc ab
Ġrec ip
ian ts
Ġend s
Ġcor rect
ĠEnter tainment
ect ic
I T
ĠK im
ĠB on
5 3
ress ed
Ġform ation
Ġbrother s
B ibliography
Ġb ow
Ġbe aut
p et
Ġfin ish
ly wood
ĠG i
7 6
Ġsim ple
ĠMin istry
ĠR en
ĠD VD
Ġfight ing
Ġ *
ĠT rain
Ġp air
Ġlo an
m ers
ĠH o
ĠS em
ĠM ic
Ġv ess
Ġpolit ics
Ġsup ply
20 18
Ġt ry
Wh at
ro up
Ġmeas ure
Ġbur ied
us es
ĠPol it
Ñ ī
Ġauthor ities
Ġreview s
Ġch o
= #
ĠMill er
ĠBill board
Ġ3 8
198 6
Ġst ream
Ġm ap
å ®
ial s
Ġgirl s
Ġsqu are
Ġsugg ested
Ġ193 5
Ġf olk
G B
ĠS ix
ĠH ur
Ġtr ust
Ġext ra
ĠB ack
ĠTe levision
ĠB urn
ĠF ederation
ĠM as
is a
ĠSt and
Ġtre es
Ġport ray
Ġ3 3
ĠĠĠĠĠĠĠĠ ĠĠĠĠĠĠĠĠ
ĠSp ace
Ġs ides
els h
Ġs ay
im ens
j o
Ġexp ansion
Ġhor se
tt ers
end o
Ġ Ñĥ
198 4
ind er
Ġnorm al
Ġar rang
Ġocc asion
ĠViet nam
Ġse em
Ġpower ful
ĠS in
tt p
Ġnecess ary
Ġval ley
Ġc ert
ĠS ound
ĠT urn
r um
198 3
Ġhe ro
ĠManc hester
C ont
Ġsit uation
Ġauthor ity
Ġm is
le ased
Ġap art
Ġon to
ĠP ier
Ġs ac
Ġb ought
Ġmethod s
ĠCro at
Ġst ock
ĠM oon
Ġfe et
Ġoccup ied
ĠSt ory
Ġres erv
ĠI r
red ited
" ),
Ġy ards
ĠDo ctor
ĠPhilipp ines
Ġme ant
ĠSing apore
Ġad vert
Ġmusic ian
clud ed
ĠA D
Ġcreat ing
ĠV i
Ġmem ory
ĠF ord
ik h
Ġex change
ĠN ic
Ġsucceed ed
ul ed
ĠPl aces
ĠArgent ina
Ġtw enty
ut t
end ment
ĠH ere
qu es
G u
æ ĺ
Ġdr ive
Ġattem pts
Ġag ent
Ġin form
Ġdou b
ĠN ev
b an
Ġrel atively
S ince
Ġfrequ ently
ap h
in ally
ĠMex ican
Ġd aily
Ġro t
Ġshow ed
or f
Ġh arm
ĠAust ria
ĠHam ilton
Ġte aching
0 3
ĠPl an
ec ond
d ale
Ġhead quarters
in ch
Ä ĥ
ĠSh ort
Ġadv anced
ĠHe art
Ġg od
A M
D av
Ġr aces
Ġm icro
or gan
ĠHon or
E uro
Ġm orning
7 8
Ġa ired
ĠT a
Ġdef ined
Ġaltern ative
Ġeffect ive
am ing
Ġneed s
ĠEc onom
ĠT est
Ġsc ript
Ġv irt
ĠP oint
i ot
ov en
ap olis
Ġmult i
ĠSund ay
Ġro yal
20 19
Ġven ues
Ġsp ot
Ġpromot ion
ĠD isc
ĠD ark
Ð¾Ð ±
Ġart icles
Ġreturn ing
ĠI V
ie val
Ġen joy
ĠE ach
ĠR on
ĠRe al
we et
ĠOk lahoma
re es
Ġfig ures
ĠT en
h u
ĠE ric
197 9
ĠOr chestra
Ġsing ers
Ġcomp ut
Ð½ Ð°
c ar
ou red
Ġappl ied
Ġg ar
ĠD ream
ion es
Ġ192 8
0 4
ĠW olf
ĠF M
ĠDes ign
Å «
198 5
Wh ile
ĠH and
ĠA ud
Ġhold s
ectic ut
Ġsy nt
ac hers
Ġfield s
ĠHow ard
Ġbr and
Ġd raft
Ġp od
ever al
Ġv ent
Ġcom o
ĠC emetery
ĠA M
ĠF er
' re
rel ated
ipl om
ĠS u
in th
Ġd a
Ġhap pen
ĠInf antry
Ġcomp l
it ter
ĠB oys
Ġplay off
B uild
ĠL incoln
Ġact ions
Ġent ry
ĠQueens land
Ġ193 3
Ġro w
å Ī
Ġad ult
ĠO d
ĠO p
Ġs ons
Ġscient ific
Ġs urn
ĠP u
ĠH u
f ort
196 0
ĠG all
b ell
aw n
ev in
ĠMos cow
Ġ19 19
Ġs ense
Ġ192 9
ĠT it
ag u
Ġinsp ired
Ġlaun ch
Ġrap id
Ġmerg ed
j an
Ð» Ñı
D ec
ĠDie go
Ġgu est
Ġsubsequ ent
198 2
Ġim pl
Ġcent uries
Ġpart ner
ĠAd vent
Ġch osen
ĠSt one
ens is
Ġconver ted
Ġend ing
rop ri
Ġ3 7
ĠD ig
ag en
Ġd at
Ġaud ience
ur ance
hip s
ĠInd ones
Ġachie ved
Ġpre par
I tal
w ise
ĠL ike
od ox
ĠAmerican s
Ġres c
Ġk il
ic i
Ġ19 14
Ġnomin ated
Ġ Ä
Ġresp ond
Ġfind s
ĠBow l
Ġcon ference
Ġdro pped
ir ty
Ġmet res
6 4
Ġw ays
ĠN ow
ĠT ai
Ġco al
ĠS on
Ġear th
ç Ķ
ĠN ick
Ġwin ter
C ast
l ines
le ts
Ġb urn
Ġa im
ĠT s
Ġretire ment
ĠL in
Ġle tters
P A
ĠTurk ish
Ġref used
Ch rist
Ġproper ties
ent ed
Ġethn ic
eg a
el ve
Ġn arrow
Ġra in
uc cess
app y
Ġcomp ilation
u ing
Ġpass ing
ul ate
ĠBr on
S ome
ĠR un
g est
Will iam
ĠO t
For mer
Ġr h
Ġcomm ander
ab ama
A ss
ĠWh o
Ġre ject
Ġun able
ul es
v o
Ġv s
ĠD ave
Ġinhabit ants
Ġpro ceed
0 2
ĠMed ical
Ġb ul
F M
if ul
N orth
gl as
if ically
ĠA uthor
Ġperform ing
Ġf un
Ġbusiness es
ĠL abor
ug ar
og y
ĠP ict
Ġstar ring
Ġv otes
u ly
ept ion
Ġcont aining
Ġpublic ation
ant asy
ĠA cc
Ġr ang
Ġ193 2
è ¿
ĠBudd h
b ox
iam i
Ġenem y
ene z
Ġ4 9
Ġprot ection
Ð² Ð°
Ġv ac
Ġex clus
ĠCom ics
Ġapplic ation
e k
Ġext ensive
ĠC ape
ĠMod ern
Ġpi ece
198 1
Ġref ers
ĠB eng
ill ing
Ġbas ic
ĠReg ional
O fficial
ĠServ ices
ol as
ĠR ose
ĠMan agement
ownt own
ograp her
V ideo
Ġr isk
F ollowing
ĠD al
ĠK ey
ĠAnd erson
Ġ193 4
st ream
Ġfunct ions
ĠCh ile
8 9
Ġdr iver
it i
Ġarrest ed
ĠWh at
ĠD ublin
ĠL eb
Ġsp ect
o en
ag ues
Ġwrit e
ĠComm and
Ġcy cl
ad ow
Ġcompet itions
leg es
ĠConn ecticut
r un
ĠM ember
ĠJan e
Ġy ellow
an z
Ġgu ard
Ġstra ight
ĠM ach
Ġmay or
Ġhab it
Ġr ival
Ġv ir
ĠFr ont
ud a
Ġnort heast
Ġloc ations
ph as
ĠAll en
Ġbro ke
Ġn ob
ad os
Ġcom ic
ol y
ĠLeg isl
Ġo x
h o
ĠSil ver
ut ies
ffic ient
Ġdist ingu
Ġel imin
Ġim pr
ĠB ah
Ġ19 00
Ġinst all
Ġm el
P ublic
Ġactress es
ol o
Ġcop ies
ĠMag azine
y st
Ġse ats
Ġ192 4
ĠJes us
at us
in er
pr ise
u ilt
m o
Ġbe y
Ġj ur
ĠSen ior
ile y
Ġjud ge
Ġcon stant
ĠWh it
ĠHou ston
Ġcomp ar
ĠA ge
Ġsign al
Ġj azz
ĠC ost
Ġfl ood
ĠAl an
ĠO ffic
S T
Ġattempt ed
or ough
ts burgh
ĠPortug uese
Ġt un
ĠR eb
Ġnuc lear
ian g
ĠO ak
ĠAb d
Ex p
ĠBrig ade
ĠL as
ĠFor ces
Ġsh ared
ĠT rib
ĠWal ter
ĠRec ord
Ġappro ved
' '
Ġav oid
Ġsix th
Ġrelig ion
Ġset ting
ch a
Ġbey ond
Ġinc ident
ist ant
Ġhot el
Ġent itled
Ġdef end
Ġsports people
Ġin struct
c ome
ivers ary
Ġrecord ings
ĠR ugby
Ġ3 4
ab y
Ġcomm ittee
b ar
ĠS um
Ġf ought
Ġ19 17
Ġpil ot
Ġcall s
ĠD ick
Ġpar liament
ym n
ÃŃ n
av ed
Ġroad s
ĠG ard
ĠR a
act ions
Ġbeg in
ĠPat rick
I N
Ġf uel
pl ace
ĠL ow
Ġmat ter
Ġeconom y
Ġperman ent
ĠG allery
se ason
Ġ vert
Ġapp arent
st yle
Ġ192 7
S ing
all as
iam ond
197 8
Ġhe ight
8 5
un ch
ĠR ad
ĠD u
alle l
Ġref lect
Ġob tained
Ġhom es
Ġh yp
Ġconf irmed
ĠK at
ĠAd am
Ġhistor ian
ond er
ac ent
ĠDet roit
f it
h t
pl es
9 2
ĠL at
ĠA C
b urn
Ġl es
h ing
ĠM it
Ġsurv ey
d o
por ter
th odox
Ġult imately
ĠD ur
ip e
level and
Ġqu ant
Ġland s
Ġpro s
o a
h at
Ġr ing
ours es
Ġad ap
Ġoppos ition
Ġ( ),
s et
ug u
ĠB eat
Ġder ived
r ant
Ġ err
ĠD omin
è ¯
ĠLt d
or age
Ġgl obal
Ġ193 1
p osed
Ġattack ed
ĠB an
inem a
Ġtemper ature
f all
ĠP A
ard o
Ġweap ons
enc ia
ĠAl abama
Ġtechn ical
ĠH ills
ĠL iter
Ġh am
ĠIslam ic
g ers
gh an
Ġ19 22
Ġde ploy
ĠSchool s
ri ff
bo ards
Ġt end
Ġshort ly
os lav
20 20
Ġh ydro
n ight
d ie
ĠB ou
Ġeduc ational
ĠN ik
Ġp owers
S chool
ĠChild ren
Pl ot
ry st
R eg
f riend
Ġesc ape
om ing
ĠJ am
Ġopp osed
p ass
Ġdo ctor
ham mad
O R
ĠS el
Ġcomp ris
Ġgl ass
ĠP ot
s er
Ġact s
og en
ĠS ri
or ter
9 3
Ġfound ing
197 4
Ġconn ection
k h
ar ks
f r
Ðµ Ð¼
Ġ19 10
R ep
ĠL u
en z
G A
Ph il
uss ion
Ġhe ard
au x
Ġ192 6
Ġ3 00
els on
ĠBuild ing
Ð» Ð°
Ġdirect ors
ĠW ell
S up
ang er
å Ĳ
ell i
ĠP ope
197 6
lin ed
arg o
iv ate
act ive
Ġs occer
Ġadv ant
ĠJac ob
w here
ĠSt ew
" ).
Ġac id
ud get
Ġcons ecutive
Ġagric ultural
ac he
Ġplann ing
ĠG ram
im ents
d i
Ġoffic es
E FA
ĠT y
Ġdo ing
Ġ19 21
ĠAff airs
ĠF ellow
Ġro ugh
Ġanim al
E ducation
B orn
Ġad vent
ĠE ag
9 4
Ġrec ru
Ġcons ult
ĠCol omb
Ġpasseng er
Ġslight ly
ĠDe ad
ĠLouis iana
Ġtra v
Ġact ual
Ġprot ect
Ġ( ;
Ġvis ited
ĠV is
im ore
197 7
ition ally
Ġident ity
rop ical
Ġband s
Ġconsist ed
Ġb oys
C ar
ĠCommon wealth
L ife
ic ians
rom e
Ġn ick
ĠC ab
Ġex am
Ġpain ting
Ġheav ily
ĠS ky
f e
ĠM and
Ġp ages
ĠÑ į
O ver
E lect
wh ile
Ġ192 3
ĠE lementary
s ch
oy d
ĠSqu are
ig ation
Ġstar ts
M y
ĠMo ore
Ġren ov
Ġcon ce
ĠLab our
Ġste el
ĠN ich
Ġsp ok
Ġturn s
ival ent
Ġ4 8
Ġcrit ics
Ġimpro ve
Ġpoet ry
az ines
cast ing
z z
Ġ iron
Ġabandon ed
ĠG ordon
Ġre in
Ġkill ing
ipp i
ĠN ag
ĠTok yo
ĠFI FA
Ġt rying
Al though
uss ian
ĠT ig
M ilitary
ĠFore ign
ĠEx press
) )
I f
sc ape
ĠStud ios
Ġre asons
ĠMP s
ĠAnth ony
ism s
Ġext rem
d on
Ġdef ense
ĠAl i
ens ity
Ġv o
iss ance
ord an
Ġre ar
sp ec
Ġexper i
Ġmax imum
ĠPh ill
W rit
ĠIn formation
S I
Ã ł
g ency
oc ation
ĠI mp
g al
å Ĵ
P er
inn ers
ful ly
Ġent rance
idd en
Ġh ired
ĠT el
Ġch ampions
Ġexist ence
ĠPortug al
ovak ia
Ġcl imate
Ġpol l
Ġnorth west
w en
ram a
Ġtechn iques
M ajor
Ġag ed
tt ps
Ġsh ape
um in
Ġch oice
or us
ograph ical
az a
Ġbelie ve
ĠTod ay
Ġ19 12
bor ough
ĠF inn
Ġspe ech
rid ges
olog ies
Ġdec re
Ġprogram me
ang el
eg et
197 5
H ar
Ġpi eces
am o
Ġdeterm ined
Ġ192 5
Ġfail ure
8 7
6 7
Ġw alls
ĠDou glas
ec ution
er ts
Ġpl ot
ur ation
ĠF riend
Ġ4 00
d ied
Ġa uth
ĠL ast
ĠSec urity
Ġindepend ence
Ġhold ing
oth ing
Ġst ores
ĠAd v
v ements
p an
m ith
Ġposs ess
en h
Ġstat istics
W omen
Ġcommission ed
Ġneg ot
197 2
ĠBrother s
T r
ĠK a
T C
ĠAm ong
Ġrecogn ition
l ad
ĠS port
Ġt all
Ġprof ile
å ľ
ot ic
-- --
Ġcaus ing
ik i
ĠDe ath
Back ground
ĠD a
ĠC our
ĠB erg
Ġto ward
J an
ris is
ĠSing h
Ġher self
F irst
Ġequ al
Ġgr ad
Ġp up
Ġcontribut ed
d am
ĠB uck
ĠH ans
Ġdec ades
ĠBe fore
stitut ional
Ġ {
Ġs ust
i em
ĠGirl s
ĠI owa
ri ev
ĠG arden
Ġgener ation
is f
Ġem phas
ĠC ow
ig e
Ġf ram
ĠK ings
Ġ( ,
Ġlim it
Rail way
ĠReg ulations
åĴ Į
ig ious
197 3
ĠI l
Ġsc ale
M on
Ġsol id
st an
Ġb ishop
Ġh ill
Ġ19 15
ic ts
Ġdec or
Ġstand ards
Ġord ers
A f
Ġbrief ly
ĠF arm
ĠJo h
r ine
ur i
Ġenvironment al
ĠL yn
igen ous
Ġmom ent
ap es
L eg
Ġdep end
ĠSt aff
Ġext ension
Ġ7 5
Ġrece iving
Ġt u
Ġmag n
Ġcorn er
CA A
H S
n old
ist ol
Ġloc omot
S te
ter y
Al bums
C ities
ra it
% ,
gr ade
Ġrequ est
Ġm Ã¡s
6 5
Ġpol ic
ĠTh rough
ĠMont real
Ġb illion
Ġbehav ior
Ġh its
b ra
Ġqu ite
ĠVill age
Ġliter ary
Ġm ent
Ġsk ills
E c
Build ings
ĠK am
9 1
Ġlic ens
ĠThe n
ĠTh ird
p oint
Ġar ran
Ð¾ ÑĢ
for c
pos es
Ġr ise
li est
Ġd ies
Ġgr ade
Ġapplic ations
Ġcont rast
Ġg uns
olog ists
Ġ4 2
H igh
Ġan th
Ġval ues
l ast
Ġcar ry
ĠO cean
ĠIndepend ent
Ð¼ Ð¸
ann y
Ġex erc
ĠNor wegian
Ġmain tained
Ġexamp les
ĠF al
f ound
ĠIsrael i
Dav id
Ġide as
ĠBec ause
ĠOn ly
iss ippi
Ġfem ales
Ġdis app
ĠK l
Ã ª
Ġstreng th
Ġp le
or ia
Ġre aching
ous es
b r
ĠV in
Ġs ought
ail ed
Ġsub urb
Ġle ct
ĠAnton io
Ġintro duction
E A
a ire
Ġcollect ed
ĠR ick
Ġalleg ed
in cluding
Ġoper ate
h aps
Ġcont ained
D r
A nt
ann ed
Ġs an
Ġhum ans
os ition
own ed
ĠM iami
Ġinst alled
Å Ł
196 8
ĠP ap
ĠâĢ ĺ
Ġinv asion
ĠM icro
Ġsh all
ĠC all
á »
re te
Ġw or
ĠL ang
ĠN aval
Ġind uct
Ġred uce
ran e
Ġget ting
Ġd ivers
Ġex act
os aur
Ġph ase
Ġ ÑĢÐ°
ĠA BC
ĠT ar
I V
ĠRober ts
ĠEr n
ĠB ry
ĠAr k
ot te
ret t
Ġsupport ing
Ġ190 8
å Ĭ
Ġob jects
Ġfact ors
6 8
Ġgreat est
h ard
Ġm us
s ong
Ac adem
re p
Ġregard ing
b ound
Ġp ull
M ost
ĠTam il
Ġal one
Ġbel ief
Ġocc as
Ġ6 4
Ġf ashion
rast ructure
Ġf ile
ĠW orks
og an
ol ly
Ġb an
yth m
as a
Ġse ems
ĠGu ide
ĠW elsh
et a
ĠL anc
Ġa id
R el
Ġs and
ĠMr s
ic ide
f ather
amp ton
ĠSp r
ĠG ab
ou ver
ust er
al ty
Euro pe
B est
æ ĸ
Ġrepresent ing
Ġdr ivers
Ind ian
ob e
ur day
in burgh
Ġe g
R oman
Ġ19 16
Ġin ternal
ov iÄĩ
Ġth row
ĠU N
Ġus er
uc ks
us al
ig o
l ong
Ġre ign
Ġform al
ĠA P
Ġs ale
ĠS eat
Ġl at
Ġwe alth
Ġconsist ing
s pe
Ġinters ection
el and
19 50
Ġro utes
ĠRail road
Exp atriate
Ġsuccessful ly
Ġdevelop ing
Ġprem ier
Ġsymb ol
Ġpain ter
Ġcaus es
Ġop in
Ġd ates
ĠK arl
e qu
Ġsc enes
ĠL et
ĠN a
Ġim ages
ol t
Ġp ed
Ġvis ual
ĠW y
Ġapp eal
ĠJu an
os m
Ġs outheast
ĠD C
hemat ics
Ġp rice
ĠMatt hew
ĠAf ghan
ĠIm perial
Ġc row
ĠK er
Ġcomm it
ĠJ ay
Ġobserv ed
Sc ott
Ġch urches
Ġd iplom
Ġlead s
Ġf ranch
Ġw atch
Ġentire ly
ĠBelg ium
Ġfin ishing
Ġpat ients
ograph ics
achel or
197 1
Ġe lement
ĠHar ris
oc a
ĠD eb
Ġdyn asty
Ġinvol ving
ĠRog er
Ġch ain
Ġdesc ription
el er
ent ially
Ġh air
Ñ ĸ
Ġv ice
ÑĨ Ð¸
ĠN A
Ġh a
Ġf aith
ĠA st
ĠV o
II I
Ġdom estic
R ober
ter m
d r
ird s
M ich
Ġre ally
Ġh our
Ġk ick
Ġm ist
ĠF all
che ll
Ġcross ing
D A
Ġtransl ation
Ġb odies
Ġst orm
Ġfoc used
Ġin aug
Ġis lands
ars h
ĠBu ff
Ġwh y
a fter
ĠE arly
Ġcop y
ag g
ĠZ h
ĠHot el
ay an
ĠB illy
ĠE ven
Ġanim ated
erv ed
ĠOtt oman
ĠAn ne
Ġinterp ret
Sports people
ĠUk raine
adu ate
ÑĢ Ñĥ
c ell
c ount
ink ing
Ġpr int
ĠMet ropolitan
Ġ19 11
ish ment
Ġpre fer
Ġapp oint
Rec eption
Ġm art
Ġchampionship s
Ġinflu enced
Ġselect ion
L C
Ġstri ke
Ġprov ed
ult an
Ġocc urs
Ġit ems
Ġclos ely
Ġrepresent ative
Ġcle an
l ock
ĠMalays ia
H er
clus ion
ĠIn n
ĠOr thodox
Japan ese
Ġestablish ment
Ġn arr
omp son
i ac
Ġtra ined
il k
Ġpur poses
Ġres istance
Ġadj acent
Ġj ump
Ġprom ote
Ġrail road
ĠK az
st ar
ĠPal ace
Ġadap ted
c ussion
ann els
ic as
rain ian
Ġprofess ion
ĠPubl ishing
Ġ ;
he astern
r ations
Ġed ge
Ġeas ily
ĠPri x
as ure
ob a
ĠPit tsburgh
Ġj unior
Ġpartn ership
duc ing
emb le
Ġm arg
ter ed
ĠHol lywood
ĠR ol
ĠI ron
ĠStew art
Ġspec ifically
Ġsubs id
Ġneg ative
Ġinc orporated
iver pool
C ent
S an
it als
Ġ19 13
ä¸ Ģ
am ic
is er
Ġregard ed
Ġt or
Ġstr ateg
i op
ĠAdminist ration
Ġpasseng ers
Ġf aced
196 9
Ġw arn
Ġreturn s
ĠIn ternet
O rig
Ġexpress ed
le ton
Ġfund ing
ĠS n
Ġlaw yer
H istor
Ġsom ew
ish ops
Ã Ł
Ġsy nd
r m
ab ase
Ġimport ance
if er
Ġw eather
Ġinc ome
Ġhe at
h ost
g ow
t hen
Ġcr iminal
Ġfle et
r at
Ġf ictional
omm od
Ġup d
Ġleg end
20 21
ĠF ac
Ġtra il
Ġtransl ated
ug oslav
Ġla id
Ġinvestig ation
Ġeng aged
ĠM em
Ġfact ory
Ġrul ed
in ter
ĠLaw rence
Ġv ide
Ġm and
Ġw aters
Ġsequ ence
Ġtw elve
Ġc ourses
Ġres ear
Ġc atal
Ġworld wide
ĠBr uce
Ġdetail s
Ġon es
Ġdescrib es
Cl ub
et ry
Ġs ections
ĠOper a
ĠP ur
Ġhead s
is d
ent e
Ġg ain
Ġbir ds
ĠCo oper
id el
Ġa x
ĠA le
Ġnick n
ĠH ig
Ġpar allel
ĠP ear
Ġres igned
anc ouver
Ġbo at
Ġt ail
ĠK y
St ar
ĠDis ney
ĠR abb
ĠN ob
ĠT un
Ġco ordin
ĠKn ight
Ġchem ical
Ġro oms
b i
Ġ4 7
ĠS ac
Ġass ess
ĠK evin
Ġro of
c i
Ġsup erv
O N
Ġsur g
Ġcomb ination
ĠAthlet ic
u its
ĠV ar
Ðº Ð°
Ġb ill
b ridge
Ġent ertain
ĠC leveland
Ġstand s
Ġcompos ers
n ia
d es
ĠCro wn
ĠS oc
I nt
ä ¹
Ġdiv isions
ming ham
ĠR ound
8 3
ot hes
Ġdo or
Ġfound ation
Bl ack
ĠHistor ical
ĠPu erto
ĠH orn
Ġs ell
ãĢ ģ
ĠLa ure
Ġ3 9
enez uel
6 2
or ig
Ġeng ines
Ġemploy ees
ĠR oc
Ġresident ial
ĠPh ys
ĠP a
Ġbro ken
ĠR ey
Ġint elligence
Ġquest ions
Ġrele g
ĠMiss issippi
È Ļ
Ġf resh
Ġprote in
ĠG a
ic it
ĠEd inburgh
ĠAm b
Ġpers ons
r ong
ĠP ed
Ġimpro ved
Ã ´
Ġbott om
Ġs ave
Ġed ited
ĠH ell
ĠD ance
ĠR ights
an ch
p re
ĠC ook
ĠTer rit
196 7
Ġmer ch
ĠN ort
Ġadv ance
ĠBas ketball
ĠAtl anta
om y
Ġlook ing
ĠMc G
Ġfl u
ĠS ee
Ġview s
Ġv oted
ĠGl as
v ant
r Ã©
ĠPl ace
à¸ ²
Ġsk i
Ġopportun ity
ĠT reat
ĠM ission
Ġcon qu
ĠMc K
l en
Ġa str
ĠW he
Ġposs ibly
Ġcerem ony
Med al
ĠR ain
us hed
ĠPlay er
Ġproduc ing
ĠMount ains
Ġcon sequ
uk i
Ġfund s
Ġcont rolled
r ons
Ġc ore
ĠBroad way
196 4
ĠP C
Ġinj ured
ou stic
A thlet
Ġvol unte
Ġs oci
ĠB ull
Ġp ione
Ġexp ed
ud i
Ġtri es
cl op
on i
8 4
ĠFred erick
Ġear liest
Ġjoin ing
Ġrepl ace
ĠV ers
Ġdef ensive
rop s
Person nel
Ġ ille
Ð¾Ð³ Ð¾
Ġsh ut
Ġg ets
Ð¾Ð» ÑĮ
ĠPrin cess
ĠP as
ĠHaw ai
em en
y ers
P ort
Ġre ality
ĠE ver
Ġground s
Pop ulated
Ġd og
Ġguitar ist
D P
ĠAg ain
Ġgood s
Ġret ail
ĠRep ort
Ġoper ates
b ishop
ĠN ord
Ġcompet e
T reat
ak ed
ro c
Ġsched uled
ner gy
aval ry
Ã ¥
Ġliter acy
S ch
y les
ĠHer itage
ĠCl in
ĠWeb site
7 2
Ġlin k
ĠG ran
ĠHarv ard
Ġdev ice
Ġsing ing
Ġanc est
w all
m ont
Ġneigh bour
Ġstr ing
Ġviol ence
ĠSur v
196 6
GB T
ĠH om
Ġfl at
Ġcon vent
P art
M P
Ġte en
Ġ ri
ĠD ak
Ġinv ited
P ol
Pl ay
ĠKenn edy
ĠH op
Ġso le
6 1
b ach
ol ph
ĠDe an
Ġem ot
ĠÃ ī
Ġregular ly
h op
Ġsepar ated
ĠC ru
Ġtyp ical
Ġpri est
iv o
Ġb orders
ĠF und
Ð¾ ÑĤ
Ġacc ommod
Ġus ers
ish ments
ĠV ic
ĠRuss ell
ace ae
ant ly
Ġrepe ated
f ile
ĠF urther
t own
ĠB ox
Ġelect ronic
Ġv ary
ĠF il
Ġb rain
ĠW ing
Ġinter ests
ĠD ue
ĠR yan
R C
Ġtermin us
ĠD allas
att an
n i
Ġ4 4
m illion
ic op
Ġoppos ite
Ġacc ur
Ar ch
Ġcal c
ten ance
Ġw orth
Ġphil osophy
ĠK o
ins ula
ĠA qu
ĠBalt imore
ĠY outh
Ġunder standing
Ġequ ivalent
duc ational
Ġun iform
Ġarg ued
go ing
Ġco oper
Ġm ole
ĠYear s
es ter
cept ion
ĠF A
Ġcateg ory
Ġb ond
7 4
Ġcor por
Ġcl imb
ĠAg ency
Ġens ure
æĺ ¯
8 2
act or
c ious
B I
or row
ĠA I
Ġpro ced
