{
  "version": "1.0",
  "truncation": null,
  "padding": null,
  "added_tokens": [
    {
      "id": 0,
      "content": "<pad>",
      "single_word": false,
      "lstrip": false,
      "rstrip": false,
      "normalized": false,
      "special": true
    },
    {
      "id": 1,
      "content": "<eos>",
      "single_word": false,
      "lstrip": false,
      "rstrip": false,
      "normalized": false,
      "special": true
    },
    {
      "id": 2,
      "content": "<bos>",
      "single_word": false,
      "lstrip": false,
      "rstrip": false,
      "normalized": false,
      "special": true
    },
    {
      "id": 3,
      "content": "<unk>",
      "single_word": false,
      "lstrip": false,
      "rstrip": false,
      "normalized": false,
      "special": true
    },
    {
      "id": 4,
      "content": "<sep>",
      "single_word": false,
      "lstrip": false,
      "rstrip": false,
      "normalized": false,
      "special": true
    }
  ],
  "normalizer": null,
  "pre_tokenizer": {
    "type": "ByteLevel",
    "add_prefix_space": false,
    "trim_offsets": true,
    "use_regex": true
  },
  "post_processor": {
    "type": "ByteLevel",
    "add_prefix_space": true,
    "trim_offsets": false,
    "use_regex": true
  },
  "decoder": {
    "type": "ByteLevel",
    "add_prefix_space": true,
    "trim_offsets": true,
    "use_regex": true
  },
  "model": {
    "type": "BPE",
    "dropout": null,
    "unk_token": null,
    "continuing_subword_prefix": null,
    "end_of_word_suffix": null,
    "fuse_unk": false,
    "byte_fallback": false,
    "ignore_merges": false,
    "vocab": {
      "<pad>": 0,
      "<eos>": 1,
      "<bos>": 2,
      "<unk>": 3,
      "<sep>": 4,
      "!": 5,
      "\"": 6,
      "#": 7,
      "$": 8,
      "%": 9,
      "&": 10,
      "'": 11,
      "(": 12,
      ")": 13,
      "*": 14,
      "+": 15,
      ",": 16,
      "-": 17,
      ".": 18,
      "/": 19,
      "0": 20,
      "1": 21,
      "2": 22,
      "3": 23,
      "4": 24,
      "5": 25,
      "6": 26,
      "7": 27,
      "8": 28,
      "9": 29,
      ":": 30,
      ";": 31,
      "<": 32,
      "=": 33,
      ">": 34,
      "?": 35,
      "@": 36,
      "A": 37,
      "B": 38,
      "C": 39,
      "D": 40,
      "E": 41,
      "F": 42,
      "G": 43,
      "H": 44,
      "I": 45,
      "J": 46,
      "K": 47,
      "L": 48,
      "M": 49,
      "N": 50,
      "O": 51,
      "P": 52,
      "Q": 53,
      "R": 54,
      "S": 55,
      "T": 56,
      "U": 57,
      "V": 58,
      "W": 59,
      "X": 60,
      "Y": 61,
      "Z": 62,
      "[": 63,
      "\\": 64,
      "]": 65,
      "^": 66,
      "_": 67,
      "`": 68,
      "a": 69,
      "b": 70,
      "c": 71,
      "d": 72,
      "e": 73,
      "f": 74,
      "g": 75,
      "h": 76,
      "i": 77,
      "j": 78,
      "k": 79,
      "l": 80,
      "m": 81,
      "n": 82,
      "o": 83,
      "p": 84,
      "q": 85,
      "r": 86,
      "s": 87,
      "t": 88,
      "u": 89,
      "v": 90,
      "w": 91,
      "x": 92,
      "y": 93,
      "z": 94,
      "{": 95,
      "|": 96,
      "}": 97,
      "~": 98,
      "¡": 99,
      "¢": 100,
      "£": 101,
      "¤": 102,
      "¥": 103,
      "¦": 104,
      "§": 105,
      "¨": 106,
      "©": 107,
      "ª": 108,
      "«": 109,
      "¬": 110,
      "®": 111,
      "¯": 112,
      "°": 113,
      "±": 114,
      "²": 115,
      "³": 116,
      "´": 117,
      "µ": 118,
      "¶": 119,
      "·": 120,
      "¸": 121,
      "¹": 122,
      "º": 123,
      "»": 124,
      "¼": 125,
      "½": 126,
      "¾": 127,
      "¿": 128,
      "À": 129,
      "Á": 130,
      "Â": 131,
      "Ã": 132,
      "Ä": 133,
      "Å": 134,
      "Æ": 135,
      "Ç": 136,
      "È": 137,
      "É": 138,
      "Ê": 139,
      "Ë": 140,
      "Ì": 141,
      "Í": 142,
      "Î": 143,
      "Ï": 144,
      "Ð": 145,
      "Ñ": 146,
      "Ò": 147,
      "Ó": 148,
      "Ô": 149,
      "Õ": 150,
      "Ö": 151,
      "×": 152,
      "Ø": 153,
      "Ù": 154,
      "Ú": 155,
      "Û": 156,
      "Ü": 157,
      "Ý": 158,
      "Þ": 159,
      "ß": 160,
      "à": 161,
      "á": 162,
      "â": 163,
      "ã": 164,
      "ä": 165,
      "å": 166,
      "æ": 167,
      "ç": 168,
      "è": 169,
      "é": 170,
      "ê": 171,
      "ë": 172,
      "ì": 173,
      "í": 174,
      "î": 175,
      "ï": 176,
      "ð": 177,
      "ñ": 178,
      "ò": 179,
      "ó": 180,
      "ô": 181,
      "õ": 182,
      "ö": 183,
      "÷": 184,
      "ø": 185,
      "ù": 186,
      "ú": 187,
      "û": 188,
      "ü": 189,
      "ý": 190,
      "þ": 191,
      "ÿ": 192,
      "Ā": 193,
      "ā": 194,
      "Ă": 195,
      "ă": 196,
      "Ą": 197,
      "ą": 198,
      "Ć": 199,
      "ć": 200,
      "Ĉ": 201,
      "ĉ": 202,
      "Ċ": 203,
      "ċ": 204,
      "Č": 205,
      "č": 206,
      "Ď": 207,
      "ď": 208,
      "Đ": 209,
      "đ": 210,
      "Ē": 211,
      "ē": 212,
      "Ĕ": 213,
      "ĕ": 214,
      "Ė": 215,
      "ė": 216,
      "Ę": 217,
      "ę": 218,
      "Ě": 219,
      "ě": 220,
      "Ĝ": 221,
      "ĝ": 222,
      "Ğ": 223,
      "ğ": 224,
      "Ġ": 225,
      "ġ": 226,
      "Ģ": 227,
      "ģ": 228,
      "Ĥ": 229,
      "ĥ": 230,
      "Ħ": 231,
      "ħ": 232,
      "Ĩ": 233,
      "ĩ": 234,
      "Ī": 235,
      "ī": 236,
      "Ĭ": 237,
      "ĭ": 238,
      "Į": 239,
      "į": 240,
      "İ": 241,
      "ı": 242,
      "Ĳ": 243,
      "ĳ": 244,
      "Ĵ": 245,
      "ĵ": 246,
      "Ķ": 247,
      "ķ": 248,
      "ĸ": 249,
      "Ĺ": 250,
      "ĺ": 251,
      "Ļ": 252,
      "ļ": 253,
      "Ľ": 254,
      "ľ": 255,
      "Ŀ": 256,
      "ŀ": 257,
      "Ł": 258,
      "ł": 259,
      "Ń": 260,
      "Ġt": 261,
      "he": 262,
      "Ġa": 263,
      "in": 264,
      "čĊ": 265,
      "er": 266,
      "on": 267,
      "Ġthe": 268,
      "re": 269,
      "an": 270,
      "or": 271,
      "en": 272,
      "at": 273,
      "Ġs": 274,
      "Ġo": 275,
      "ed": 276,
      "is": 277,
      "es": 278,
      "al": 279,
      "Ġw": 280,
      "ar": 281,
      "it": 282,
      "Ġof": 283,
      "nd": 284,
      "Ġc": 285,
      "Ġin": 286,
      "Ġf": 287,
      "Ġb": 288,
      "Ġp": 289,
      "ic": 290,
      "as": 291,
      "ing": 292,
      "Ġand": 293,
      "ion": 294,
      "ro": 295,
      "le": 296,
      "ĠS": 297,
      "Ġto": 298,
      "Ġm": 299,
      "Ġd": 300,
      "ou": 301,
      "ĠC": 302,
      "ĠA": 303,
      "il": 304,
      "Ġh": 305,
      "ent": 306,
      "ĠT": 307,
      "Ġ1": 308,
      "am": 309,
      "st": 310,
      "el": 311,
      "ĠM": 312,
      "om": 313,
      "ol": 314,
      "Ġ(": 315,
      "Ġre": 316,
      "Ġl": 317,
      "ac": 318,
      "ĠB": 319,
      "ad": 320,
      "ur": 321,
      "ĠP": 322,
      "et": 323,
      "ec": 324,
      "Ġn": 325,
      "iv": 326,
      "ers": 327,
      "ation": 328,
      "ĠH": 329,
      "ig": 330,
      "Ġth": 331,
      "ĠI": 332,
      "Ġ2": 333,
      "id": 334,
      "Ġwas": 335,
      "ir": 336,
      "ot": 337,
      "us": 338,
      "Ġe": 339,
      "ĠR": 340,
      "ay": 341,
      "im": 342,
      "Ġfor": 343,
      "ly": 344,
      "Ġon": 345,
      "ter": 346,
      "Ġ19": 347,
      "ĠD": 348,
      "ĠL": 349,
      "os": 350,
      "Ġg": 351,
      "ch": 352,
      "Ġis": 353,
      "ut": 354,
      "un": 355,
      "ĠF": 356,
      "ow": 357,
      "em": 358,
      "Ġas": 359,
      "ist": 360,
      "ĠG": 361,
      "ĠThe": 362,
      "ith": 363,
      "ĠN": 364,
      "ĠW": 365,
      "th": 366,
      "Ġst": 367,
      "00": 368,
      "her": 369,
      "and": 370,
      "ct": 371,
      "ul": 372,
      "ag": 373,
      "ce": 374,
      "Ġwith": 375,
      "âĢ": 376,
      "Ġal": 377,
      "ĠE": 378,
      "Ġby": 379,
      "um": 380,
      "ĠJ": 381,
      "'s": 382,
      "ra": 383,
      "ver": 384,
      "rom": 385,
      "Ġbe": 386,
      "op": 387,
      "est": 388,
      "Ġat": 389,
      "Ġwh": 390,
      "Ġan": 391,
      "ri": 392,
      "Ġcon": 393,
      "âĢĵ": 394,
      "ĠO": 395,
      "oc": 396,
      "Ġhe": 397,
      "Ġv": 398,
      "Ġfrom": 399,
      "od": 400,
      "Ġ\"": 401,
      "Ġthat": 402,
      "ain": 403,
      "all": 404,
      "ab": 405,
      "ian": 406,
      "ĠK": 407,
      "av": 408,
      "Ġcom": 409,
      "ity": 410,
      "res": 411,
      "ts": 412,
      "Ġde": 413,
      "Ġpro": 414,
      "ies": 415,
      "if": 416,
      "ate": 417,
      "ia": 418,
      "ĠU": 419,
      "ew": 420,
      "ill": 421,
      "up": 422,
      "ber": 423,
      "Ġit": 424,
      "ud": 425,
      "ard": 426,
      "art": 427,
      "ĠSt": 428,
      "19": 429,
      "igh": 430,
      "ak": 431,
      "Ġpl": 432,
      "qu": 433,
      "ub": 434,
      "ip": 435,
      "ap": 436,
      "Ġor": 437,
      "Ġhis": 438,
      "ort": 439,
      "ear": 440,
      "ore": 441,
      "ich": 442,
      "Ġr": 443,
      "ĠčĊ": 444,
      "ld": 445,
      "ess": 446,
      "Ġ200": 447,
      "ov": 448,
      "The": 449,
      "ated": 450,
      "Ġare": 451,
      "ĠIn": 452,
      "Ġ20": 453,
      "our": 454,
      "ish": 455,
      "ary": 456,
      "ment": 457,
      "ug": 458,
      "mer": 459,
      "ive": 460,
      "ong": 461,
      "Ġch": 462,
      "ĠCh": 463,
      "end": 464,
      "nt": 465,
      "ial": 466,
      "og": 467,
      "Ġex": 468,
      "ant": 469,
      "ĠV": 470,
      "ge": 471,
      "Ġse": 472,
      "se": 473,
      "ast": 474,
      "ks": 475,
      "ine": 476,
      "ell": 477,
      "und": 478,
      "ere": 479,
      "Ġy": 480,
      "ust": 481,
      "ame": 482,
      "fer": 483,
      "ord": 484,
      "uc": 485,
      "ran": 486,
      "so": 487,
      "ep": 488,
      "ect": 489,
      "ure": 490,
      "ire": 491,
      "ost": 492,
      "),": 493,
      "Ġle": 494,
      "Ġwere": 495,
      "ue": 496,
      "ions": 497,
      "ical": 498,
      "enc": 499,
      "ĠâĢĵ": 500,
      "Ġsp": 501,
      "Ġwhich": 502,
      "ack": 503,
      "tern": 504,
      "ie": 505,
      "Ġalso": 506,
      "ther": 507,
      "Ġcomp": 508,
      "Ġsh": 509,
      "Ġun": 510,
      "are": 511,
      "ĠHe": 512,
      "ĠUn": 513,
      "Ġk": 514,
      "rit": 515,
      "age": 516,
      "Ġplay": 517,
      "pp": 518,
      "ry": 519,
      "ign": 520,
      "ff": 521,
      "ass": 522,
      "Ġ201": 523,
      "ric": 524,
      "ight": 525,
      "cl": 526,
      "ous": 527,
      "irst": 528,
      "ĠĠ": 529,
      "ide": 530,
      "man": 531,
      "Ġcl": 532,
      "iz": 533,
      "ork": 534,
      "ond": 535,
      "eos": 536,
      "Ġnot": 537,
      "ĠY": 538,
      "Ġar": 539,
      "per": 540,
      "ave": 541,
      "ations": 542,
      "land": 543,
      "ory": 544,
      "erv": 545,
      "Ġ3": 546,
      "Ġus": 547,
      "hed": 548,
      "Ġhad": 549,
      "Ġhas": 550,
      "ang": 551,
      "ok": 552,
      "own": 553,
      "ount": 554,
      "Ġ199": 555,
      "Ġ18": 556,
      "ome": 557,
      "ational": 558,
      "ng": 559,
      "Ġwhe": 560,
      "amp": 561,
      "ool": 562,
      "Ġfirst": 563,
      "act": 564,
      "Ġro": 565,
      "Ġcont": 566,
      "Ġres": 567,
      "ican": 568,
      "fter": 569,
      "ice": 570,
      "Ġint": 571,
      "ach": 572,
      "ey": 573,
      "orn": 574,
      "ater": 575,
      "ember": 576,
      "ĠIt": 577,
      "ib": 578,
      "out": 579,
      "ĠTh": 580,
      "ĠÐ": 581,
      "wo": 582,
      "ĠAl": 583,
      "Ġad": 584,
      "In": 585,
      "Ġte": 586,
      "uct": 587,
      "ition": 588,
      "ult": 589,
      "ime": 590,
      "ph": 591,
      "Ġj": 592,
      "Ġtheir": 593,
      "Ġits": 594,
      "ens": 595,
      "Ġab": 596,
      "ence": 597,
      "ree": 598,
      "pl": 599,
      "ee": 600,
      "ates": 601,
      "Ġwho": 602,
      "ited": 603,
      "port": 604,
      "ik": 605,
      "chool": 606,
      "lect": 607,
      "ace": 608,
      "20": 609,
      "ences": 610,
      ").": 611,
      "Ġbut": 612,
      "ound": 613,
      "aw": 614,
      "ĠAr": 615,
      "ath": 616,
      "ark": 617,
      "low": 618,
      "merican": 619,
      "Ġac": 620,
      "Ġone": 621,
      "Ġapp": 622,
      "Ġpart": 623,
      "Ġ-": 624,
      "eg": 625,
      "Ġyear": 626,
      "ugh": 627,
      "clud": 628,
      "Ġman": 629,
      "ubl": 630,
      "pt": 631,
      "ite": 632,
      "ould": 633,
      "Ġrec": 634,
      "ally": 635,
      "ild": 636,
      "ors": 637,
      "ile": 638,
      "Ð¾": 639,
      "eop": 640,
      "ilm": 641,
      "over": 642,
      "for": 643,
      "Ġher": 644,
      "iss": 645,
      "wn": 646,
      "ents": 647,
      "Ġper": 648,
      "ivers": 649,
      "les": 650,
      "Ġag": 651,
      "Ġhave": 652,
      "eb": 653,
      "ĠNew": 654,
      "Ġthis": 655,
      "Re": 656,
      "ress": 657,
      "io": 658,
      "ade": 659,
      "eople": 660,
      "hn": 661,
      "oy": 662,
      "Ġ4": 663,
      "Ġbec": 664,
      "uring": 665,
      "Ġen": 666,
      "Ġsc": 667,
      "Ġ198": 668,
      "old": 669,
      "Ġinclud": 670,
      "Ġtwo": 671,
      "ferences": 672,
      "ob": 673,
      "ased": 674,
      "ons": 675,
      "te": 676,
      "ind": 677,
      "oot": 678,
      "Ġ|": 679,
      "ĠMar": 680,
      "vel": 681,
      "oin": 682,
      "Ġother": 683,
      "urn": 684,
      "uch": 685,
      "gh": 686,
      "ail": 687,
      "Ġdes": 688,
      "ward": 689,
      "als": 690,
      "Ġim": 691,
      "hip": 692,
      "able": 693,
      "References": 694,
      "ings": 695,
      "ied": 696,
      "ss": 697,
      "Ġdis": 698,
      "Ġbeen": 699,
      "ĠCom": 700,
      "Ðµ": 701,
      "Ġcomm": 702,
      "Ġafter": 703,
      "way": 704,
      "Ġact": 705,
      "ely": 706,
      "we": 707,
      "ball": 708,
      "ted": 709,
      "ics": 710,
      "Ġup": 711,
      "ood": 712,
      "Ġ5": 713,
      "Ġ197": 714,
      "ton": 715,
      "red": 716,
      "Ġcan": 717,
      "Ġpr": 718,
      "200": 719,
      "ury": 720,
      "ished": 721,
      "outh": 722,
      "Ġlin": 723,
      "Ġnew": 724,
      "Ġ||": 725,
      "Ġoff": 726,
      "ance": 727,
      "Ġover": 728,
      "ft": 729,
      "Ġout": 730,
      "orld": 731,
      "ram": 732,
      "ral": 733,
      "ren": 734,
      "ex": 735,
      "Âł": 736,
      "ase": 737,
      "ont": 738,
      "Ġthey": 739,
      "one": 740,
      "Ġfilm": 741,
      "Ð°": 742,
      "Ġinto": 743,
      "pe": 744,
      "Ġqu": 745,
      "ĠAmerican": 746,
      "gan": 747,
      "ah": 748,
      "ough": 749,
      "ision": 750,
      "Ġtr": 751,
      "ĠLe": 752,
      "Ġev": 753,
      "ans": 754,
      "Ġund": 755,
      "ÑĤ": 756,
      "Ġserv": 757,
      "Ġall": 758,
      "Ġloc": 759,
      "ames": 760,
      "Ã©": 761,
      "Ġpre": 762,
      "Ex": 763,
      "orth": 764,
      "ake": 765,
      "inal": 766,
      "duc": 767,
      "ĠSh": 768,
      "rans": 769,
      "ock": 770,
      "Ġgro": 771,
      "iversity": 772,
      "olog": 773,
      "rough": 774,
      "Ð¸": 775,
      "Ġatt": 776,
      "ick": 777,
      "Ġcol": 778,
      "Ġtime": 779,
      "ict": 780,
      "ale": 781,
      "anc": 782,
      "Ġ196": 783,
      "ose": 784,
      "Ġwork": 785,
      "Ġkn": 786,
      "form": 787,
      "18": 788,
      "ternal": 789,
      "ever": 790,
      "cess": 791,
      "Ġpeople": 792,
      "ĠCol": 793,
      "Ġhim": 794,
      "ason": 795,
      "Ġsec": 796,
      "ĠUnited": 797,
      "ious": 798,
      "Ġest": 799,
      "ĠSp": 800,
      "rib": 801,
      "ists": 802,
      "ix": 803,
      "ities": 804,
      "iel": 805,
      "ener": 806,
      "az": 807,
      "Ġbu": 808,
      "ne": 809,
      "ll": 810,
      "Ġbet": 811,
      "Ġcons": 812,
      "reat": 813,
      "ins": 814,
      "Ġshe": 815,
      "cent": 816,
      "Ġunder": 817,
      "Ġwhen": 818,
      "ev": 819,
      "eat": 820,
      "ootball": 821,
      "Ġ6": 822,
      "oun": 823,
      "Ġreg": 824,
      "aj": 825,
      "Ġlinks": 826,
      "ince": 827,
      "Ġmore": 828,
      "ĠJo": 829,
      "Ġco": 830,
      "bum": 831,
      "Ġind": 832,
      "ier": 833,
      "inn": 834,
      "ann": 835,
      "ollow": 836,
      "Ġcent": 837,
      "che": 838,
      "uary": 839,
      "Ġwould": 840,
      "External": 841,
      "ife": 842,
      "ween": 843,
      "ular": 844,
      "ĠInd": 845,
      "Ġpubl": 846,
      "att": 847,
      "oth": 848,
      "ual": 849,
      "Ġpol": 850,
      "ĠZ": 851,
      "Ġform": 852,
      "Ġyears": 853,
      "Ġret": 854,
      "use": 855,
      "Ġteam": 856,
      "usic": 857,
      "Ġass": 858,
      "oci": 859,
      "Ġbo": 860,
      "ĠPro": 861,
      "abl": 862,
      "Ġstud": 863,
      "Ġonly": 864,
      "ily": 865,
      "str": 866,
      "der": 867,
      "irect": 868,
      "Ġagain": 869,
      "ident": 870,
      "Ġabout": 871,
      "Ġschool": 872,
      "Ġmost": 873,
      "ĠUniversity": 874,
      "ĠSc": 875,
      "Ġwhere": 876,
      "Ġduring": 877,
      "Ġsup": 878,
      "ĠCl": 879,
      "Ð¾Ð": 880,
      "emb": 881,
      "Ġsub": 882,
      "ĠEng": 883,
      "eries": 884,
      "Ġrel": 885,
      "any": 886,
      "Ġbetween": 887,
      "Ġsy": 888,
      "Ġplayers": 889,
      "ley": 890,
      "Ġme": 891,
      "Ġ7": 892,
      "raph": 893,
      "air": 894,
      "Ġused": 895,
      "enn": 896,
      "ĠAn": 897,
      "duct": 898,
      "Ġpop": 899,
      "Ñģ": 900,
      "Ġinter": 901,
      "ional": 902,
      "Ġalbum": 903,
      "ement": 904,
      "Ġdec": 905,
      "Ġear": 906,
      "ague": 907,
      "istory": 908,
      "Ġthrough": 909,
      "ative": 910,
      "Ġrele": 911,
      "round": 912,
      "resent": 913,
      "Ġdist": 914,
      "ific": 915,
      "Ġrem": 916,
      "ĠStates": 917,
      "fore": 918,
      "Ġthere": 919,
      "Ġ194": 920,
      "Ġ195": 921,
      "pr": 922,
      "Ġthree": 923,
      "ars": 924,
      "Ġso": 925,
      "Ġtra": 926,
      "ĠThis": 927,
      "ash": 928,
      "Ġnum": 929,
      "ina": 930,
      "overn": 931,
      "hen": 932,
      "Ġed": 933,
      "Ð½": 934,
      "Ġfound": 935,
      "Ġfollow": 936,
      "ouse": 937,
      "Ġthem": 938,
      "ober": 939,
      "ten": 940,
      "ield": 941,
      "erm": 942,
      "erson": 943,
      "Ġsing": 944,
      "199": 945,
      "por": 946,
      "Ġthen": 947,
      "ÑĢ": 948,
      "Ġend": 949,
      "Ġlater": 950,
      "ĠBr": 951,
      "iver": 952,
      "Ġra": 953,
      "pen": 954,
      "ating": 955,
      "Ġmov": 956,
      "\",": 957,
      "Ġrecord": 958,
      "Ġwrit": 959,
      "\".": 960,
      "arg": 961,
      "ĠSchool": 962,
      "Ġent": 963,
      "Ġtrans": 964,
      "ĠIs": 965,
      "Ġsuch": 966,
      "iam": 967,
      "Ġmade": 968,
      "ern": 969,
      "ert": 970,
      "Ġam": 971,
      "Ġ8": 972,
      "Ġprov": 973,
      "els": 974,
      "Ġsecond": 975,
      "oss": 976,
      "Ġsome": 977,
      "erman": 978,
      "Ġspec": 979,
      "Ġthan": 980,
      "ĠĠĠĠ": 981,
      "Ġknown": 982,
      "cc": 983,
      "Ġset": 984,
      "ank": 985,
      "ĠCount": 986,
      "ures": 987,
      "ve": 988,
      "Ġseason": 989,
      "velop": 990,
      "Ġart": 991,
      "ike": 992,
      ".\"": 993,
      "ism": 994,
      "lev": 995,
      "ĠAs": 996,
      "ograph": 997,
      "Ġinv": 998,
      "its": 999,
      "Ġdef": 1000,
      "ower": 1001,
      "Ġdo": 1002,
      "ĠJohn": 1003,
      "ĠAust": 1004,
      "ĠBl": 1005,
      "Ġelect": 1006,
      "ept": 1007,
      "Ġfootball": 1008,
      "rict": 1009,
      "ĠWar": 1010,
      "ĠWorld": 1011,
      "Ġbecame": 1012,
      "Ġestabl": 1013,
      "mp": 1014,
      "itt": 1015,
      "ments": 1016,
      "Ġsong": 1017,
      "ived": 1018,
      "Ġ17": 1019,
      "Ġbeing": 1020,
      "ĠQ": 1021,
      "ines": 1022,
      "Ġdirect": 1023,
      "Ġ9": 1024,
      "Ġexp": 1025,
      "ĠCar": 1026,
      "iew": 1027,
      "Ġpar": 1028,
      "Ġ&": 1029,
      "other": 1030,
      "une": 1031,
      "Ġcall": 1032,
      "ĠFran": 1033,
      "Ġla": 1034,
      "Ġfl": 1035,
      "Ġ10": 1036,
      "âĢĶ": 1037,
      "Ġstr": 1038,
      "uss": 1039,
      "ĠCon": 1040,
      "let": 1041,
      "Ġbl": 1042,
      "Ġwell": 1043,
      "ĠCan": 1044,
      "ise": 1045,
      "Ġfam": 1046,
      "iving": 1047,
      "Ġph": 1048,
      "ays": 1049,
      "ute": 1050,
      "Ġmon": 1051,
      "uro": 1052,
      "urch": 1053,
      "Ġchar": 1054,
      "ces": 1055,
      "stem": 1056,
      "stit": 1057,
      "ron": 1058,
      "son": 1059,
      "ĠPh": 1060,
      "ĠShe": 1061,
      "ax": 1062,
      "ĠComm": 1063,
      "Ġfour": 1064,
      "ĠBrit": 1065,
      "very": 1066,
      "Ġseries": 1067,
      "Ġmed": 1068,
      "ient": 1069,
      "ounc": 1070,
      "Ġgr": 1071,
      "Ġno": 1072,
      "Ġacc": 1073,
      "ef": 1074,
      "Ġhigh": 1075,
      "ull": 1076,
      "Ġmod": 1077,
      "Ġincluding": 1078,
      "til": 1079,
      "ĠYork": 1080,
      "by": 1081,
      "Ġinc": 1082,
      "ĠNational": 1083,
      "Ġyou": 1084,
      "ĠOr": 1085,
      "icip": 1086,
      "owever": 1087,
      "Ġwhile": 1088,
      "ths": 1089,
      "Ġadd": 1090,
      "Ġgo": 1091,
      "Ġbir": 1092,
      "Ġmany": 1093,
      "Ġlead": 1094,
      "Ġgroup": 1095,
      "Ġorig": 1096,
      "Ġoper": 1097,
      "ty": 1098,
      "Ġsign": 1099,
      "Ġmay": 1100,
      "elf": 1101,
      "Ġbefore": 1102,
      "ai": 1103,
      "Ã¡": 1104,
      "ternational": 1105,
      "ues": 1106,
      "ĠAd": 1107,
      "ĠAt": 1108,
      "Ġ193": 1109,
      "gram": 1110,
      "ĠFor": 1111,
      "ired": 1112,
      "ural": 1113,
      "ather": 1114,
      "ĠPr": 1115,
      "000": 1116,
      "Ġbro": 1117,
      "Ġ15": 1118,
      "Ġagainst": 1119,
      "ĠPl": 1120,
      "Ġown": 1121,
      "ĠOn": 1122,
      "Ġsur": 1123,
      "ĠCounty": 1124,
      "amed": 1125,
      "ĠMay": 1126,
      "ulation": 1127,
      "eth": 1128,
      "ĠJan": 1129,
      "Ġcount": 1130,
      "Ġshow": 1131,
      "Ġname": 1132,
      "Ġgu": 1133,
      "Ġback": 1134,
      "ica": 1135,
      "201": 1136,
      "21": 1137,
      "Ġuntil": 1138,
      "ians": 1139,
      "Ġem": 1140,
      "Ġmain": 1141,
      "ject": 1142,
      "Ġ16": 1143,
      "ution": 1144,
      "ives": 1145,
      "my": 1146,
      "ĠSouth": 1147,
      "Ġ2006": 1148,
      "eng": 1149,
      "arri": 1150,
      "Ġnumber": 1151,
      "Ġdevelop": 1152,
      "uk": 1153,
      "Ġcap": 1154,
      "ampions": 1155,
      "Ġdif": 1156,
      "Ġfin": 1157,
      "198": 1158,
      "Ġboth": 1159,
      "Ġcre": 1160,
      "ium": 1161,
      "ys": 1162,
      "Ġcare": 1163,
      "Ġarea": 1164,
      "rist": 1165,
      "ets": 1166,
      "Ġmusic": 1167,
      "lish": 1168,
      "ĠGerman": 1169,
      "Ã³": 1170,
      "Ġmin": 1171,
      "ott": 1172,
      "Ġdr": 1173,
      "Ġgener": 1174,
      "Ġformer": 1175,
      "born": 1176,
      "ĠAustral": 1177,
      "Ġdeath": 1178,
      "Ġ12": 1179,
      "Ġoffic": 1180,
      "uth": 1181,
      "Ġ.": 1182,
      "Ġne": 1183,
      "Ġrep": 1184,
      "ology": 1185,
      "Ġsever": 1186,
      "ross": 1187,
      "lege": 1188,
      "Ġbuild": 1189,
      "ĠWh": 1190,
      "yl": 1191,
      "Ġplayed": 1192,
      "ized": 1193,
      "ĠJu": 1194,
      "Ġvar": 1195,
      "sp": 1196,
      "hes": 1197,
      "Ġrece": 1198,
      "ually": 1199,
      "imes": 1200,
      "ages": 1201,
      "Ġgame": 1202,
      "ajor": 1203,
      "ister": 1204,
      "Ġopen": 1205,
      "Ġsm": 1206,
      "ugust": 1207,
      "ĠCent": 1208,
      "Ġfeat": 1209,
      "embers": 1210,
      "oman": 1211,
      "duced": 1212,
      "ior": 1213,
      "Ġext": 1214,
      "ple": 1215,
      "overnment": 1216,
      "ĠNov": 1217,
      "ĠCity": 1218,
      "ved": 1219,
      "ĠPar": 1220,
      "Ġrun": 1221,
      "ered": 1222,
      "led": 1223,
      "ove": 1224,
      "Ġsystem": 1225,
      "Ġdesign": 1226,
      "ada": 1227,
      "Ġreleased": 1228,
      "inc": 1229,
      "ared": 1230,
      "omen": 1231,
      "Ġob": 1232,
      "ĠLeague": 1233,
      "ained": 1234,
      "iet": 1235,
      "isc": 1236,
      "Ġstate": 1237,
      "ause": 1238,
      "ĠDec": 1239,
      "ĠBro": 1240,
      "St": 1241,
      "ĠGe": 1242,
      "fess": 1243,
      "ued": 1244,
      "eptember": 1245,
      "ook": 1246,
      "ĠNorth": 1247,
      "Ġ'": 1248,
      "Ch": 1249,
      "ĠBritish": 1250,
      "aid": 1251,
      "osed": 1252,
      "Ġwill": 1253,
      "Ġwon": 1254,
      "ission": 1255,
      "sh": 1256,
      "Ġprogram": 1257,
      "ret": 1258,
      "Ġlong": 1259,
      "ird": 1260,
      "levision": 1261,
      "Ġtown": 1262,
      "amb": 1263,
      "rid": 1264,
      "ible": 1265,
      "ital": 1266,
      "Ġreturn": 1267,
      "eter": 1268,
      "ÃŃ": 1269,
      "ĠCal": 1270,
      "ĠDe": 1271,
      "197": 1272,
      "Ġcalled": 1273,
      "ange": 1274,
      "vent": 1275,
      "Ġstation": 1276,
      "arm": 1277,
      "rent": 1278,
      "ctober": 1279,
      "istor": 1280,
      "ven": 1281,
      "ĠAugust": 1282,
      "Ġdep": 1283,
      "Ġpolit": 1284,
      "ĠGu": 1285,
      "Ġsame": 1286,
      "ilt": 1287,
      "Ġcontin": 1288,
      "Ġann": 1289,
      "ĠEd": 1290,
      "See": 1291,
      "Ġseveral": 1292,
      "ality": 1293,
      "Ġorgan": 1294,
      "ility": 1295,
      "ful": 1296,
      "Ġlife": 1297,
      "Ġair": 1298,
      "Ġmat": 1299,
      "aking": 1300,
      "Ġclub": 1301,
      "wards": 1302,
      "ĠBar": 1303,
      "ĠAll": 1304,
      "American": 1305,
      "ĠKing": 1306,
      "struct": 1307,
      "ham": 1308,
      "ĠSeptember": 1309,
      "ĠAss": 1310,
      "au": 1311,
      "Ġsuc": 1312,
      "ner": 1313,
      "Ġfollowing": 1314,
      "ris": 1315,
      "ĠMarch": 1316,
      "Ġbas": 1317,
      "ĠEuro": 1318,
      "Ġany": 1319,
      "ĠII": 1320,
      "Ġpublic": 1321,
      "af": 1322,
      "ĠMan": 1323,
      "pril": 1324,
      "ony": 1325,
      "ampionship": 1326,
      "Ġ13": 1327,
      "10": 1328,
      "oint": 1329,
      "ĠBe": 1330,
      "ring": 1331,
      "Ġuse": 1332,
      "ography": 1333,
      "Ġthese": 1334,
      "ially": 1335,
      "Ġcur": 1336,
      "Ġstart": 1337,
      "ĠJune": 1338,
      "Ġel": 1339,
      "fl": 1340,
      "Ġearly": 1341,
      "century": 1342,
      "à¸": 1343,
      "ains": 1344,
      "Ġnear": 1345,
      "angu": 1346,
      "ĠGr": 1347,
      "17": 1348,
      "ung": 1349,
      "ĠOctober": 1350,
      "ured": 1351,
      "Ġdisc": 1352,
      "ĠJanuary": 1353,
      "ales": 1354,
      "ices": 1355,
      "Ġclass": 1356,
      "ĠAm": 1357,
      "ĠJuly": 1358,
      "apan": 1359,
      "Ġbel": 1360,
      "Ġband": 1361,
      "Ð»": 1362,
      "ĠHigh": 1363,
      "Ġcommun": 1364,
      "ster": 1365,
      "ĠCo": 1366,
      "the": 1367,
      "ebr": 1368,
      "ling": 1369,
      "ĠUS": 1370,
      "Ġresp": 1371,
      "Ġwe": 1372,
      "ĠState": 1373,
      "Ġcareer": 1374,
      "Ġ14": 1375,
      "Ġpass": 1376,
      "Ġchild": 1377,
      "reen": 1378,
      "Ġfamily": 1379,
      "ilit": 1380,
      "com": 1381,
      "Ġcomple": 1382,
      "Ġhead": 1383,
      "ided": 1384,
      "ience": 1385,
      "ke": 1386,
      "cept": 1387,
      "On": 1388,
      "echn": 1389,
      "rop": 1390,
      "ĠRe": 1391,
      "Ġsim": 1392,
      "Ġpopulation": 1393,
      "ĠThey": 1394,
      "Ġcity": 1395,
      "ĠWill": 1396,
      "min": 1397,
      "ator": 1398,
      "ĠFl": 1399,
      "ode": 1400,
      "ants": 1401,
      "ese": 1402,
      "ĠApril": 1403,
      "Ġ2007": 1404,
      "ane": 1405,
      "ĠPol": 1406,
      "Ġpres": 1407,
      "Ġsince": 1408,
      "ĠReg": 1409,
      "yn": 1410,
      "Ġeff": 1411,
      "ically": 1412,
      "orks": 1413,
      "Ġvers": 1414,
      "Ġlist": 1415,
      "..": 1416,
      "Ġtit": 1417,
      "orts": 1418,
      "to": 1419,
      "Ġbased": 1420,
      "ck": 1421,
      "Ġalong": 1422,
      "ille": 1423,
      "Ġgames": 1424,
      "Ġappear": 1425,
      "Ġ11": 1426,
      "ended": 1427,
      "ĠRep": 1428,
      "Ġmen": 1429,
      "Ġes": 1430,
      "ĠDecember": 1431,
      "Ġland": 1432,
      "ised": 1433,
      "ĠNovember": 1434,
      "ects": 1435,
      "ĠTr": 1436,
      "onom": 1437,
      "ĠSw": 1438,
      "orm": 1439,
      "ox": 1440,
      "ection": 1441,
      "ĠWest": 1442,
      "22": 1443,
      "ĠâĢĶ": 1444,
      "Ġsmall": 1445,
      "ĠHar": 1446,
      "ĠEnglish": 1447,
      "ords": 1448,
      "Ġestablished": 1449,
      "aced": 1450,
      "Ġnamed": 1451,
      "Ġproduct": 1452,
      "aster": 1453,
      "ĠChrist": 1454,
      "Ġlocated": 1455,
      "Ġeach": 1456,
      "uck": 1457,
      "Ġimp": 1458,
      "ĠEx": 1459,
      "Ġperson": 1460,
      "Ġdesc": 1461,
      "Ġmembers": 1462,
      "Ġprom": 1463,
      "acks": 1464,
      "ival": 1465,
      "Ġbegan": 1466,
      "ights": 1467,
      "unicip": 1468,
      "Ġeng": 1469,
      "Ġvill": 1470,
      "iness": 1471,
      "ĠAfter": 1472,
      "que": 1473,
      "ech": 1474,
      "ble": 1475,
      "Ġdid": 1476,
      "ĠAf": 1477,
      "ĠEurope": 1478,
      "ĠRec": 1479,
      "ata": 1480,
      "aving": 1481,
      "Ġbirths": 1482,
      "196": 1483,
      "erg": 1484,
      "Ġhel": 1485,
      "Ġbus": 1486,
      "Ġocc": 1487,
      "ĠRo": 1488,
      "ats": 1489,
      "ebruary": 1490,
      "Ġcar": 1491,
      "ĠMc": 1492,
      "Ġmanag": 1493,
      "Ġsupport": 1494,
      "Ġmet": 1495,
      "ĠHis": 1496,
      "ford": 1497,
      "ae": 1498,
      "row": 1499,
      "augh": 1500,
      "ĠAnd": 1501,
      "ĠGeor": 1502,
      "Ġcentury": 1503,
      "ored": 1504,
      "me": 1505,
      "ene": 1506,
      "rench": 1507,
      "ting": 1508,
      "ards": 1509,
      "Ġ2005": 1510,
      "ract": 1511,
      "Ġplace": 1512,
      "Ñĥ": 1513,
      "side": 1514,
      "Ġmajor": 1515,
      "Ġcould": 1516,
      "Ġdiffer": 1517,
      "ino": 1518,
      "Ġhome": 1519,
      "ĠJapan": 1520,
      "Ġrev": 1521,
      "Ġworld": 1522,
      "Ġcompet": 1523,
      "Ġterm": 1524,
      "Ġfilms": 1525,
      "urg": 1526,
      "itions": 1527,
      "Ġ2008": 1528,
      "Ġsingle": 1529,
      "arn": 1530,
      "arge": 1531,
      "Ðº": 1532,
      "lin": 1533,
      "alth": 1534,
      "ourn": 1535,
      "ĠCollege": 1536,
      "ĠNo": 1537,
      "adem": 1538,
      "Ġlaw": 1539,
      "yp": 1540,
      "Ġnow": 1541,
      "rew": 1542,
      "Ġsuccess": 1543,
      "ides": 1544,
      "aces": 1545,
      "Ġpo": 1546,
      "ĠEl": 1547,
      "rol": 1548,
      "Ġnational": 1549,
      "ery": 1550,
      "Ġgovernment": 1551,
      "Ġlocal": 1552,
      "ĠCup": 1553,
      "Ġtelevision": 1554,
      "16": 1555,
      "15": 1556,
      "Ġaround": 1557,
      "ĠFebruary": 1558,
      "aul": 1559,
      "ĠPark": 1560,
      "Ġpos": 1561,
      "ald": 1562,
      "ĠAb": 1563,
      "earch": 1564,
      "Th": 1565,
      "ondon": 1566,
      "ivision": 1567,
      "ety": 1568,
      "unct": 1569,
      "ĠAir": 1570,
      "ĠHowever": 1571,
      "ket": 1572,
      "ffic": 1573,
      "ĠComp": 1574,
      "Ġline": 1575,
      "Ġcompany": 1576,
      "He": 1577,
      "lymp": 1578,
      "med": 1579,
      "Ġmember": 1580,
      "Ġbuilt": 1581,
      "Ġold": 1582,
      "idd": 1583,
      "oo": 1584,
      "ĠMin": 1585,
      "ature": 1586,
      "ĠSe": 1587,
      "Al": 1588,
      "atic": 1589,
      "12": 1590,
      "Ġlast": 1591,
      "Ġrest": 1592,
      "Ġleg": 1593,
      "ana": 1594,
      "Ġref": 1595,
      "Ġcr": 1596,
      "ps": 1597,
      "Ġplayer": 1598,
      "reet": 1599,
      "acter": 1600,
      "akes": 1601,
      "ately": 1602,
      "tt": 1603,
      "Ġ2004": 1604,
      "estern": 1605,
      "sc": 1606,
      "Ġdue": 1607,
      "ublic": 1608,
      "uthor": 1609,
      "ociation": 1610,
      "Ġpublished": 1611,
      "adio": 1612,
      "Ġnorth": 1613,
      "Ġtook": 1614,
      "ourt": 1615,
      "Ġheld": 1616,
      "ĠX": 1617,
      "ara": 1618,
      "Ġleft": 1619,
      "Ġ2010": 1620,
      "illion": 1621,
      "ext": 1622,
      "Ġep": 1623,
      "Ġsu": 1624,
      "ĠSy": 1625,
      "ches": 1626,
      "yle": 1627,
      "ently": 1628,
      "Ġ192": 1629,
      "Ġ2009": 1630,
      "ison": 1631,
      "int": 1632,
      "Ġfinal": 1633,
      "aus": 1634,
      "Ġdet": 1635,
      "Ġrequ": 1636,
      "ĠTe": 1637,
      "iter": 1638,
      "ĠLondon": 1639,
      "âĢĻ": 1640,
      "Ġjoin": 1641,
      "Ġeduc": 1642,
      "Ġdown": 1643,
      "ideo": 1644,
      "Ġserved": 1645,
      "ĠMed": 1646,
      "ĠItal": 1647,
      "ington": 1648,
      "eder": 1649,
      "anguage": 1650,
      "ified": 1651,
      "ĠDist": 1652,
      "iven": 1653,
      "Ġevent": 1654,
      "ĠDav": 1655,
      "Ġrefer": 1656,
      "Ġcamp": 1657,
      "co": 1658,
      "Ġconsid": 1659,
      "alk": 1660,
      "ĠHer": 1661,
      "Ġav": 1662,
      "day": 1663,
      "ĠPart": 1664,
      "Ġprofess": 1665,
      "ilitary": 1666,
      "ped": 1667,
      "Ġbecause": 1668,
      "though": 1669,
      "ĠChar": 1670,
      "Ġif": 1671,
      "Ġdeb": 1672,
      "Ġ2011": 1673,
      "Ġinclude": 1674,
      "Ġ2000": 1675,
      "iod": 1676,
      "Ġhistory": 1677,
      "Ġshort": 1678,
      "Ġpresent": 1679,
      "ĠWilliam": 1680,
      "ĠAng": 1681,
      "ief": 1682,
      "ration": 1683,
      "ink": 1684,
      "aim": 1685,
      "ency": 1686,
      "Ġlike": 1687,
      "Ñı": 1688,
      "Ġdel": 1689,
      "Ġ190": 1690,
      "Ġson": 1691,
      "Ġ,": 1692,
      "ody": 1693,
      "omin": 1694,
      "50": 1695,
      "ined": 1696,
      "Ġday": 1697,
      "History": 1698,
      "umb": 1699,
      "Ġlarge": 1700,
      "ected": 1701,
      "ording": 1702,
      "Ġsix": 1703,
      "Ñĭ": 1704,
      "Ġallow": 1705,
      "ĠLa": 1706,
      "par": 1707,
      "Ġtri": 1708,
      "ument": 1709,
      "ization": 1710,
      "urs": 1711,
      "Ġappro": 1712,
      "ĠAfric": 1713,
      "vers": 1714,
      "Ġborn": 1715,
      "ĠCor": 1716,
      "Ġpower": 1717,
      "ones": 1718,
      "ĠSec": 1719,
      "Ġjust": 1720,
      "ĠFrench": 1721,
      "Ġorder": 1722,
      "Ġfive": 1723,
      "Ã¼": 1724,
      "uman": 1725,
      "|-": 1726,
      "ĠThere": 1727,
      "iforn": 1728,
      "ĠRuss": 1729,
      "ĠDr": 1730,
      "ĠSup": 1731,
      "raft": 1732,
      "line": 1733,
      "Ġsl": 1734,
      "ler": 1735,
      "Ġdifferent": 1736,
      "tal": 1737,
      "14": 1738,
      "ĠEn": 1739,
      "ze": 1740,
      "umn": 1741,
      "riend": 1742,
      "ĠPhil": 1743,
      "13": 1744,
      "Ġresult": 1745,
      "Ã³n": 1746,
      "Ġoriginal": 1747,
      "ifornia": 1748,
      "Ġlarg": 1749,
      "Ġmark": 1750,
      "ĠChampionship": 1751,
      "ummer": 1752,
      "Ġincluded": 1753,
      "omb": 1754,
      "ĠYou": 1755,
      "Ġfr": 1756,
      "Ġwomen": 1757,
      "inning": 1758,
      "Ð¼": 1759,
      "itar": 1760,
      "reg": 1761,
      "Ġsk": 1762,
      "ively": 1763,
      "ouncil": 1764,
      "Ġwithin": 1765,
      "Ġdem": 1766,
      "leg": 1767,
      "Ġreceived": 1768,
      "urther": 1769,
      "aint": 1770,
      "Ġrepl": 1771,
      "Ġanother": 1772,
      "arried": 1773,
      "Ġstand": 1774,
      "ĠRiver": 1775,
      "ste": 1776,
      "Ġtop": 1777,
      "sk": 1778,
      "ves": 1779,
      "tain": 1780,
      "Ġ2003": 1781,
      "ness": 1782,
      "ĠMe": 1783,
      "Ġbook": 1784,
      "ĠHouse": 1785,
      "Ġvillage": 1786,
      "ÑĮ": 1787,
      "Ġdied": 1788,
      "ĠEngland": 1789,
      "Ġstill": 1790,
      "Ġsouth": 1791,
      "Ġsaid": 1792,
      "Ġcor": 1793,
      "ĠSan": 1794,
      "hem": 1795,
      "Ġprot": 1796,
      "Ġ$": 1797,
      "ether": 1798,
      "ĠAustralia": 1799,
      "Ġdistrict": 1800,
      "Ġthird": 1801,
      "ico": 1802,
      "itional": 1803,
      "Ġnon": 1804,
      "na": 1805,
      "Ġcurrent": 1806,
      "Ġ30": 1807,
      "Ġadv": 1808,
      "ĠGl": 1809,
      "ĠCalifornia": 1810,
      "eek": 1811,
      "ours": 1812,
      "Ġperform": 1813,
      "Ġmunicip": 1814,
      "adian": 1815,
      "vious": 1816,
      "ocial": 1817,
      "hern": 1818,
      ".,": 1819,
      "ĠMich": 1820,
      "oph": 1821,
      "Ġwater": 1822,
      "oon": 1823,
      "Ġcharacter": 1824,
      "Ġchildren": 1825,
      "Ġvery": 1826,
      "Ġequ": 1827,
      "Ġbuilding": 1828,
      "Ġfac": 1829,
      "ering": 1830,
      "Ġque": 1831,
      "ĠIndian": 1832,
      "Ġwar": 1833,
      "Ġimport": 1834,
      "Ġvis": 1835,
      "Ġnov": 1836,
      "Ġhand": 1837,
      "Ġbest": 1838,
      "ĠAct": 1839,
      "Ġ2002": 1840,
      "Ġfield": 1841,
      "194": 1842,
      "Ġkill": 1843,
      "Ġ2001": 1844,
      "ĠRes": 1845,
      "Ġtrad": 1846,
      "Ġ189": 1847,
      "Ġrepresent": 1848,
      "oll": 1849,
      "Ð²": 1850,
      "ett": 1851,
      "Ġ2012": 1852,
      "Ġoften": 1853,
      "ĠAc": 1854,
      "ms": 1855,
      "Ġexper": 1856,
      "Ġperiod": 1857,
      "ĠOlymp": 1858,
      "alt": 1859,
      "ĠAg": 1860,
      "23": 1861,
      "Ġversion": 1862,
      "Ġpost": 1863,
      "Ġweb": 1864,
      "dom": 1865,
      "Ġ0": 1866,
      "Ġservice": 1867,
      "Ġdescrib": 1868,
      "osp": 1869,
      "bo": 1870,
      "Ġiss": 1871,
      "Ġmale": 1872,
      "Ġincre": 1873,
      "ady": 1874,
      "Ġmake": 1875,
      "lands": 1876,
      "ĠInternational": 1877,
      "epend": 1878,
      "ize": 1879,
      "ugg": 1880,
      "ĠDistrict": 1881,
      "Ġsol": 1882,
      "acy": 1883,
      "orthern": 1884,
      "195": 1885,
      "Ġbeg": 1886,
      "rain": 1887,
      "alf": 1888,
      "Ġopp": 1889,
      "Ġbusiness": 1890,
      "ĠEast": 1891,
      "Ġconc": 1892,
      "ĠSch": 1893,
      "Ġval": 1894,
      "Ġhouse": 1895,
      "Un": 1896,
      "Ġreport": 1897,
      "Ġsold": 1898,
      "Ġthough": 1899,
      "work": 1900,
      "ĠArt": 1901,
      "Ġturn": 1902,
      "eal": 1903,
      "Ġstat": 1904,
      "rest": 1905,
      "Ġstudents": 1906,
      "Ġec": 1907,
      "Ġconstruct": 1908,
      "eneral": 1909,
      "Ġeven": 1910,
      "artment": 1911,
      "Ġ25": 1912,
      "uel": 1913,
      "ĠPer": 1914,
      "Ġauthor": 1915,
      "Ġpat": 1916,
      "oyal": 1917,
      "ĠCanada": 1918,
      "Ġside": 1919,
      "Ġexpl": 1920,
      "Ġarch": 1921,
      "Ġwhat": 1922,
      "Ġmuch": 1923,
      "ĠMon": 1924,
      "ense": 1925,
      "Ġfe": 1926,
      "ops": 1927,
      "Ġmoved": 1928,
      "ĠChurch": 1929,
      "ael": 1930,
      "Ġcountry": 1931,
      "Ġposs": 1932,
      "Ġorigin": 1933,
      "irl": 1934,
      "attle": 1935,
      "Ġled": 1936,
      "app": 1937,
      "ploy": 1938,
      "Ġcollect": 1939,
      "Ġcult": 1940,
      "ecut": 1941,
      "Ġestablish": 1942,
      "Ġspe": 1943,
      "aff": 1944,
      "ories": 1945,
      "Ġtechn": 1946,
      "ĠPres": 1947,
      "field": 1948,
      "Ġhistor": 1949,
      "ases": 1950,
      "Ġcover": 1951,
      "Ġaff": 1952,
      "ades": 1953,
      "formation": 1954,
      "ribut": 1955,
      "ilar": 1956,
      "ĠAward": 1957,
      "ociety": 1958,
      "ĠGro": 1959,
      "Ġchang": 1960,
      "Ġproduced": 1961,
      "Ġtitle": 1962,
      "omp": 1963,
      "Ġwin": 1964,
      "'t": 1965,
      "Ġmag": 1966,
      "ript": 1967,
      "ries": 1968,
      "193": 1969,
      "Ġtem": 1970,
      "Ġport": 1971,
      "Ġcrit": 1972,
      "cast": 1973,
      "Ġlate": 1974,
      "Ġthose": 1975,
      "ius": 1976,
      "hel": 1977,
      "Ġbr": 1978,
      "11": 1979,
      "Ġfact": 1980,
      "ĠBo": 1981,
      "Ġlevel": 1982,
      "Ġsite": 1983,
      "useum": 1984,
      "Ġwritten": 1985,
      "Ġactiv": 1986,
      "Ġ2013": 1987,
      "site": 1988,
      "ivil": 1989,
      "ush": 1990,
      "avy": 1991,
      "era": 1992,
      "Ġinvol": 1993,
      "lex": 1994,
      "Ġfather": 1995,
      "ote": 1996,
      "iber": 1997,
      "ney": 1998,
      "Ġepis": 1999,
      "Ar": 2000,
      "Ġship": 2001,
      "ivid": 2002,
      "Ġ24": 2003,
      "Ġfore": 2004,
      "Ġbre": 2005,
      "ĠStreet": 2006,
      "ama": 2007,
      "Ġannounc": 2008,
      "Ġcommon": 2009,
      "Ġcame": 2010,
      "Ġrole": 2011,
      "Ġamong": 2012,
      "Ġpopular": 2013,
      "ĠAmer": 2014,
      "Ġusing": 2015,
      "Ġtrain": 2016,
      "olic": 2017,
      "ament": 2018,
      "Ġvoc": 2019,
      "Ġengine": 2020,
      "ape": 2021,
      "of": 2022,
      "ander": 2023,
      "ridge": 2024,
      "ida": 2025,
      "ĠIndia": 2026,
      "otes": 2027,
      "People": 2028,
      "Ġet": 2029,
      "de": 2030,
      "Ġ2014": 2031,
      "ched": 2032,
      "rem": 2033,
      "ĠQu": 2034,
      "irc": 2035,
      "BC": 2036,
      "ced": 2037,
      "Ġprocess": 2038,
      "Ġinternational": 2039,
      "ĠOne": 2040,
      "forman": 2041,
      "ĠSm": 2042,
      "ĠArmy": 2043,
      "ĠRoman": 2044,
      "ania": 2045,
      "Ġ188": 2046,
      "ville": 2047,
      "Ġgiven": 2048,
      "Ġfre": 2049,
      "astern": 2050,
      "Ġprevious": 2051,
      "ning": 2052,
      "Ġsw": 2053,
      "off": 2054,
      "Ġrail": 2055,
      "thern": 2056,
      "Ġ1999": 2057,
      "ĠPort": 2058,
      "Ġtotal": 2059,
      "ĠRoad": 2060,
      "Ġgeneral": 2061,
      "omet": 2062,
      "ka": 2063,
      "Ġbecome": 2064,
      "Ġsit": 2065,
      "Ġyoung": 2066,
      "ĠHol": 2067,
      "Ġwent": 2068,
      "ĠÐ¿": 2069,
      "ado": 2070,
      "ming": 2071,
      "Ġprim": 2072,
      "ĠEm": 2073,
      "Ġway": 2074,
      "Ġroad": 2075,
      "ĠDep": 2076,
      "outhern": 2077,
      "ention": 2078,
      "ago": 2079,
      "Ġage": 2080,
      "ĠVal": 2081,
      "self": 2082,
      "Ã¶": 2083,
      "Ġneed": 2084,
      "iment": 2085,
      "Ġvarious": 2086,
      "ha": 2087,
      "Ġevery": 2088,
      "itor": 2089,
      "minist": 2090,
      "adu": 2091,
      "Ġvol": 2092,
      "Ġcommunity": 2093,
      "ĠÃ": 2094,
      "Ġfew": 2095,
      "ots": 2096,
      "Ġopened": 2097,
      "An": 2098,
      "abor": 2099,
      "Ġspecies": 2100,
      "ĠBy": 2101,
      "uf": 2102,
      "ports": 2103,
      "ĠĠĠ": 2104,
      "ĠQue": 2105,
      "Ġdeaths": 2106,
      "ream": 2107,
      "Ġprop": 2108,
      "ances": 2109,
      "ĠNor": 2110,
      "Ġofficial": 2111,
      "iction": 2112,
      "ĠRober": 2113,
      "Ġworks": 2114,
      "Ġant": 2115,
      "Ġintro": 2116,
      "reek": 2117,
      "ĠPaul": 2118,
      "ĠRed": 2119,
      "Ġnext": 2120,
      "Ġexamp": 2121,
      "ari": 2122,
      "Ġstruct": 2123,
      "Ġread": 2124,
      "ournal": 2125,
      "urb": 2126,
      "Ġtw": 2127,
      "Ġ1990": 2128,
      "anish": 2129,
      "Ġhost": 2130,
      "Ġtake": 2131,
      "ĠMor": 2132,
      "ĠBel": 2133,
      "ittle": 2134,
      "Ġvideo": 2135,
      "ĠLou": 2136,
      "Ġ2015": 2137,
      "lement": 2138,
      "ĠRecords": 2139,
      "Ġinit": 2140,
      "Ġalbums": 2141,
      "Ġhaving": 2142,
      "Ġaward": 2143,
      "Ġstarted": 2144,
      "Ð´": 2145,
      "ĠGeorge": 2146,
      "ĠJames": 2147,
      "aur": 2148,
      "ĠâĢ": 2149,
      "men": 2150,
      "Ñĩ": 2151,
      "bor": 2152,
      "ĠDavid": 2153,
      "bert": 2154,
      "ÑģÑĤ": 2155,
      "ĠRich": 2156,
      "Ġspecial": 2157,
      "Ġgreat": 2158,
      "ĠAmerica": 2159,
      "Ġmillion": 2160,
      "Ġpe": 2161,
      "Ġsent": 2162,
      "li": 2163,
      "ached": 2164,
      "Ġ[": 2165,
      "Ġ1998": 2166,
      "ĠAustralian": 2167,
      "ĠFrance": 2168,
      "iron": 2169,
      "Ġ2016": 2170,
      "ĠAssociation": 2171,
      "Ġdevelopment": 2172,
      "lo": 2173,
      "Ġcreated": 2174,
      "eh": 2175,
      "rote": 2176,
      "Ġ186": 2177,
      "Ġproduc": 2178,
      "Ġconf": 2179,
      "Ġstory": 2180,
      "omm": 2181,
      "Ġsongs": 2182,
      "ĠParty": 2183,
      "ole": 2184,
      "Living": 2185,
      "Ġproduction": 2186,
      "itz": 2187,
      "iÃ³n": 2188,
      "Ġ23": 2189,
      "Ġreturned": 2190,
      "ĠPal": 2191,
      "Ġ21": 2192,
      "hers": 2193,
      "ĠDes": 2194,
      "Ġhig": 2195,
      "ean": 2196,
      "As": 2197,
      "ogn": 2198,
      "stitute": 2199,
      "aken": 2200,
      "raw": 2201,
      "ipp": 2202,
      "Ġtimes": 2203,
      "Ġschools": 2204,
      "Ġstar": 2205,
      "Ġdebut": 2206,
      "ests": 2207,
      "oor": 2208,
      "ĠHall": 2209,
      "Ġclaim": 2210,
      "Ġcoach": 2211,
      "Ġbroad": 2212,
      "Ġmult": 2213,
      "Ġconn": 2214,
      "Ġregion": 2215,
      "ma": 2216,
      "Ġter": 2217,
      "Ġhowever": 2218,
      "iddle": 2219,
      "Ġguitar": 2220,
      "Ġreal": 2221,
      "ĠWhen": 2222,
      "iles": 2223,
      "olution": 2224,
      "ĠRev": 2225,
      "Ġcomb": 2226,
      "Ġ22": 2227,
      "ĠAnt": 2228,
      "Ġhelp": 2229,
      "ological": 2230,
      "ellow": 2231,
      "ĠMal": 2232,
      "ources": 2233,
      "Ġsimilar": 2234,
      "sequ": 2235,
      "gy": 2236,
      "Ġmilitary": 2237,
      "Ġfull": 2238,
      "Ġsee": 2239,
      "Ġbeh": 2240,
      "Ġimportant": 2241,
      "=\"": 2242,
      "Ġfind": 2243,
      "ĠDivision": 2244,
      "Ġinfl": 2245,
      "ope": 2246,
      "iol": 2247,
      "icle": 2248,
      "Ġgl": 2249,
      "ĠBas": 2250,
      "Ġsett": 2251,
      "Ġz": 2252,
      "ĠCouncil": 2253,
      "ators": 2254,
      "Ġmy": 2255,
      "Ġlo": 2256,
      "ibr": 2257,
      "Ġ1980": 2258,
      "Ġ187": 2259,
      "Ġcontrol": 2260,
      "Ġpri": 2261,
      "wood": 2262,
      "Ġannounced": 2263,
      "ĠMy": 2264,
      "ination": 2265,
      "ĠĠĠĠĠĠĠĠ": 2266,
      "omas": 2267,
      "ĠClub": 2268,
      "Ġren": 2269,
      "Ġ=": 2270,
      "Ġfriend": 2271,
      "ĠÐ²": 2272,
      "Ġwithout": 2273,
      "After": 2274,
      "rack": 2275,
      "Ġstyle": 2276,
      "arly": 2277,
      "Ġlim": 2278,
      "Ġpract": 2279,
      "mit": 2280,
      "right": 2281,
      "ya": 2282,
      "now": 2283,
      "less": 2284,
      "ype": 2285,
      "Ġred": 2286,
      "ru": 2287,
      "ĠCath": 2288,
      "ĠStud": 2289,
      "ĠThese": 2290,
      "Ġperforman": 2291,
      "rab": 2292,
      "Ġround": 2293,
      "ĠGermany": 2294,
      "ĠUnion": 2295,
      "Ġdi": 2296,
      "erb": 2297,
      "ĠDuring": 2298,
      "Ġdest": 2299,
      "ills": 2300,
      "lic": 2301,
      "atch": 2302,
      "Ġchurch": 2303,
      "iers": 2304,
      "Ġjoined": 2305,
      "ways": 2306,
      "Ġpolitical": 2307,
      "Ġ2017": 2308,
      "berg": 2309,
      "view": 2310,
      "ĠEuropean": 2311,
      "Ġfem": 2312,
      "Ġposition": 2313,
      "ĠRoyal": 2314,
      "Ġappe": 2315,
      "ĠGeneral": 2316,
      "ashington": 2317,
      "Ġareas": 2318,
      "ells": 2319,
      "Ġmarried": 2320,
      "Ġenc": 2321,
      "Ġattem": 2322,
      "umni": 2323,
      "Ġright": 2324,
      "Pro": 2325,
      "Ġpoint": 2326,
      "gin": 2327,
      "ocr": 2328,
      "ĠCanadian": 2329,
      "ĠBlack": 2330,
      "ston": 2331,
      "Ġwrote": 2332,
      "Ġinf": 2333,
      "ĠVir": 2334,
      "Ġlanguage": 2335,
      "arch": 2336,
      "ĠKingdom": 2337,
      "ij": 2338,
      "Ġwebsite": 2339,
      "Ġbrother": 2340,
      "ĠMusic": 2341,
      "ĠCompany": 2342,
      "ule": 2343,
      "anies": 2344,
      "aining": 2345,
      "etwork": 2346,
      "year": 2347,
      "ĠTex": 2348,
      "Ġgen": 2349,
      "Ġ26": 2350,
      "):": 2351,
      "rian": 2352,
      "Ġindivid": 2353,
      "icular": 2354,
      "30": 2355,
      "Ġ1996": 2356,
      "cer": 2357,
      "ground": 2358,
      "ĠTown": 2359,
      "Ġ2018": 2360,
      "It": 2361,
      "wh": 2362,
      "raz": 2363,
      "stitut": 2364,
      "Ġ1997": 2365,
      "ona": 2366,
      "ĠMart": 2367,
      "ither": 2368,
      "play": 2369,
      "gr": 2370,
      "Ġident": 2371,
      "Ġtrack": 2372,
      "Ġrecorded": 2373,
      "ĠBer": 2374,
      "ĠPat": 2375,
      "ĠTV": 2376,
      "ointed": 2377,
      "Ġconsidered": 2378,
      "ĠPress": 2379,
      "Ġshould": 2380,
      "rick": 2381,
      "Ġpolitic": 2382,
      "uce": 2383,
      "Ġleague": 2384,
      "Ġcontinued": 2385,
      "Ġeducation": 2386,
      "ĠMag": 2387,
      "Ġprofessional": 2388,
      "Ġindust": 2389,
      "Ġ27": 2390,
      "Ġproject": 2391,
      "atter": 2392,
      "Ġaut": 2393,
      "ray": 2394,
      "Ġgood": 2395,
      "Ġeast": 2396,
      "roll": 2397,
      "ili": 2398,
      "Ġ28": 2399,
      "Ġappeared": 2400,
      "Ġget": 2401,
      "Ġgroups": 2402,
      "Ġattack": 2403,
      "ending": 2404,
      "Pl": 2405,
      "ising": 2406,
      "ĠÐ¸": 2407,
      "oints": 2408,
      "Ġworked": 2409,
      "Ġtyp": 2410,
      "eball": 2411,
      "Ġproper": 2412,
      "oks": 2413,
      "Ġ/": 2414,
      "ested": 2415,
      "ĠRail": 2416,
      "ĠSen": 2417,
      "ishing": 2418,
      "Ġcaus": 2419,
      "xt": 2420,
      "Ġnovel": 2421,
      "uter": 2422,
      "Ġ100": 2423,
      "CA": 2424,
      "Ġstations": 2425,
      "reland": 2426,
      "Ġrock": 2427,
      "Ġdoes": 2428,
      "Ġhuman": 2429,
      "Ġlost": 2430,
      "ults": 2431,
      "ference": 2432,
      "used": 2433,
      "Ġoffer": 2434,
      "ĠLaw": 2435,
      "Ġcross": 2436,
      "ĠPresident": 2437,
      "ĠTur": 2438,
      "Ġ1970": 2439,
      "Ġhalf": 2440,
      "val": 2441,
      "ĠMary": 2442,
      "arl": 2443,
      "aughter": 2444,
      "Ġlive": 2445,
      "Ġevents": 2446,
      "unction": 2447,
      "thlet": 2448,
      "ĠJos": 2449,
      "Ġexample": 2450,
      "ying": 2451,
      "Ġdescribed": 2452,
      "Ġeconom": 2453,
      "han": 2454,
      "Ġdays": 2455,
      "nel": 2456,
      "ĠSl": 2457,
      "Ġdiv": 2458,
      "hib": 2459,
      "Ġteams": 2460,
      "Ġhon": 2461,
      "ĠMont": 2462,
      "aged": 2463,
      "ges": 2464,
      "ketball": 2465,
      "ĠDon": 2466,
      "apt": 2467,
      "ĠFootball": 2468,
      "Ġmid": 2469,
      "Ġpriv": 2470,
      "ably": 2471,
      "Ġfounded": 2472,
      "Ġelection": 2473,
      "ĠÑģ": 2474,
      "Ġavail": 2475,
      "Ġcompleted": 2476,
      "Ġdirector": 2477,
      "ĠIsland": 2478,
      "ĠWe": 2479,
      "ym": 2480,
      "ĠBu": 2481,
      "Ġ2019": 2482,
      "Ġmatch": 2483,
      "cy": 2484,
      "ä¸": 2485,
      "Cl": 2486,
      "ertain": 2487,
      "burg": 2488,
      "ĠWith": 2489,
      "ĠWashington": 2490,
      "ship": 2491,
      "ĠAngel": 2492,
      "Ġten": 2493,
      "ĠAcadem": 2494,
      "Ġins": 2495,
      "aper": 2496,
      "ements": 2497,
      "ĠGroup": 2498,
      "ĠMo": 2499,
      "pro": 2500,
      "odes": 2501,
      "Ġcond": 2502,
      "Ġhold": 2503,
      "25": 2504,
      "ĠGreat": 2505,
      "Ġservices": 2506,
      "Ġless": 2507,
      "Ġfurther": 2508,
      "Ġexist": 2509,
      "Ġmiss": 2510,
      "Ġsqu": 2511,
      "rd": 2512,
      "rated": 2513,
      "Ġder": 2514,
      "Ġhow": 2515,
      "Ġanim": 2516,
      "ĠTexas": 2517,
      "Ġlos": 2518,
      "Wh": 2519,
      "here": 2520,
      "usical": 2521,
      "Ġdeveloped": 2522,
      "Ġinflu": 2523,
      "Ġrelations": 2524,
      "ĠFirst": 2525,
      "Ġpresident": 2526,
      "ĠCourt": 2527,
      "Ġvict": 2528,
      "lear": 2529,
      "Ġbody": 2530,
      "Ġmaking": 2531,
      "ĠList": 2532,
      "idence": 2533,
      "ockey": 2534,
      "Ġmot": 2535,
      "Ġradio": 2536,
      "ĠMount": 2537,
      "Ġemploy": 2538,
      "rish": 2539,
      "ĠSing": 2540,
      "Ġmater": 2541,
      "rap": 2542,
      "Ġsports": 2543,
      "Ġplaying": 2544,
      "atural": 2545,
      "ĠNe": 2546,
      "Ġview": 2547,
      "ĠServ": 2548,
      "ĠSim": 2549,
      "ky": 2550,
      "Ġ1995": 2551,
      "ĠHen": 2552,
      "Ġsigned": 2553,
      "ccording": 2554,
      "Ġsurv": 2555,
      "most": 2556,
      "anding": 2557,
      "Ġsocial": 2558,
      "Ġhimself": 2559,
      "acing": 2560,
      "ĠBay": 2561,
      "time": 2562,
      "Ġnever": 2563,
      "ĠJew": 2564,
      "Ġassist": 2565,
      "ĠArch": 2566,
      "ique": 2567,
      "udd": 2568,
      "Ġparticip": 2569,
      "Ġaddition": 2570,
      "olf": 2571,
      "yd": 2572,
      "Ġliter": 2573,
      "ios": 2574,
      "Ġ1994": 2575,
      "alls": 2576,
      "Ġwest": 2577,
      "Ã¤": 2578,
      "ĠRobert": 2579,
      "ĠSociety": 2580,
      "ĠSal": 2581,
      "ani": 2582,
      "olit": 2583,
      "ump": 2584,
      "ĠMac": 2585,
      "ĠPri": 2586,
      "ger": 2587,
      "ĠJapanese": 2588,
      "ware": 2589,
      "align": 2590,
      "Ġcase": 2591,
      "Ġcast": 2592,
      "aign": 2593,
      "Ġ#": 2594,
      "Ġser": 2595,
      "Ġmodern": 2596,
      "ĠMex": 2597,
      "ume": 2598,
      "Ġformed": 2599,
      "ĠScott": 2600,
      "ĠCenter": 2601,
      "pec": 2602,
      "ĠDem": 2603,
      "ĠProv": 2604,
      "Ġothers": 2605,
      "Ġtro": 2606,
      "col": 2607,
      "go": 2608,
      "uation": 2609,
      "Ġparticular": 2610,
      "unt": 2611,
      "Ġrelease": 2612,
      "Ġmunicipality": 2613,
      "Ġgrow": 2614,
      "itect": 2615,
      "ensive": 2616,
      "ĠItalian": 2617,
      "mar": 2618,
      "ilities": 2619,
      "Ġ2020": 2620,
      "Film": 2621,
      "Ġselect": 2622,
      "itive": 2623,
      "Ġwife": 2624,
      "ĠMad": 2625,
      "iting": 2626,
      "atre": 2627,
      "iament": 2628,
      "ĠLouis": 2629,
      "Ġ1992": 2630,
      "oice": 2631,
      "Ġbecom": 2632,
      "Ġsepar": 2633,
      "ĠCatholic": 2634,
      "âĢĿ": 2635,
      "ĠMiss": 2636,
      "Ġfail": 2637,
      "ĠTrans": 2638,
      "ï¼": 2639,
      "ĠYear": 2640,
      "Ġinvest": 2641,
      "Ġground": 2642,
      "Ġavailable": 2643,
      "ĠSam": 2644,
      "ĠGreen": 2645,
      "Ġeffect": 2646,
      "Ġ29": 2647,
      "ethod": 2648,
      "oul": 2649,
      "ĠFlor": 2650,
      "eep": 2651,
      "Ġweek": 2652,
      "ĠUK": 2653,
      "anded": 2654,
      "Ġcompos": 2655,
      "ĠPenn": 2656,
      "Ġ()": 2657,
      "asons": 2658,
      "ano": 2659,
      "Ġinformation": 2660,
      "ien": 2661,
      "ĠChristian": 2662,
      "ala": 2663,
      "Ġmeet": 2664,
      "be": 2665,
      "24": 2666,
      "Ġindepend": 2667,
      "Ġaver": 2668,
      "Ġarr": 2669,
      "Ġinst": 2670,
      "icles": 2671,
      "Ġrul": 2672,
      "ĠBest": 2673,
      "||": 2674,
      "imately": 2675,
      "ĠFranc": 2676,
      "ĠCap": 2677,
      "Ġbelie": 2678,
      "itch": 2679,
      "ership": 2680,
      "ĠÐ½": 2681,
      "Ġfire": 2682,
      "sy": 2683,
      "Ġtog": 2684,
      "anted": 2685,
      "ification": 2686,
      "ĠMichael": 2687,
      "estival": 2688,
      "ores": 2689,
      "craft": 2690,
      "pite": 2691,
      "stead": 2692,
      "Ð·": 2693,
      "istic": 2694,
      "aries": 2695,
      "ged": 2696,
      "Ġhous": 2697,
      "ula": 2698,
      "ĠGold": 2699,
      "aker": 2700,
      "Ġtogether": 2701,
      "Ġresearch": 2702,
      "west": 2703,
      "Ġpoints": 2704,
      "Ġmodel": 2705,
      "ĠIreland": 2706,
      "Ġlight": 2707,
      "utes": 2708,
      "uit": 2709,
      "Ġdoc": 2710,
      "ura": 2711,
      "ĠWestern": 2712,
      "azine": 2713,
      "ĠChe": 2714,
      "ector": 2715,
      "ux": 2716,
      "hi": 2717,
      "ĠChina": 2718,
      "Eng": 2719,
      "ĠCro": 2720,
      "rael": 2721,
      "ylv": 2722,
      "roy": 2723,
      "erry": 2724,
      "ĠTor": 2725,
      "Ġlow": 2726,
      "viron": 2727,
      "bour": 2728,
      "ude": 2729,
      "ands": 2730,
      "Ġaway": 2731,
      ",\"": 2732,
      "Ġce": 2733,
      "oted": 2734,
      "ĠVol": 2735,
      "vert": 2736,
      "ential": 2737,
      "Ġacross": 2738,
      "Ġworking": 2739,
      "Ġide": 2740,
      "Ġphys": 2741,
      "ÐµÐ½": 2742,
      "iding": 2743,
      "Ġfree": 2744,
      "ecutive": 2745,
      "Ġvocals": 2746,
      "ĠMet": 2747,
      "Ġalumni": 2748,
      "Ġalthough": 2749,
      "liament": 2750,
      "Ġdev": 2751,
      "unk": 2752,
      "Ġcontract": 2753,
      "Ġrecogn": 2754,
      "Ġepisode": 2755,
      "Ġmother": 2756,
      "Ġonce": 2757,
      "ĠOlympics": 2758,
      "ĠThomas": 2759,
      "ĠAlex": 2760,
      "ĠCentral": 2761,
      "ĠBen": 2762,
      "duction": 2763,
      "ĠMark": 2764,
      "edy": 2765,
      "ĠWil": 2766,
      "ictor": 2767,
      "ĠCont": 2768,
      "Ġmedal": 2769,
      "ĠTo": 2770,
      "atory": 2771,
      "Ġmar": 2772,
      "ĠVirgin": 2773,
      "ids": 2774,
      "40": 2775,
      "Ġ50": 2776,
      "Ġcoll": 2777,
      "igned": 2778,
      "ederal": 2779,
      "ĠGrand": 2780,
      "Ġcompanies": 2781,
      "Sh": 2782,
      "ĠInter": 2783,
      "Ġestablishments": 2784,
      "Ġyour": 2785,
      "TV": 2786,
      "ĠCommun": 2787,
      "Ġ1960": 2788,
      "Ġfund": 2789,
      "cle": 2790,
      "isl": 2791,
      "Ġmust": 2792,
      "Ġreview": 2793,
      "ĠCong": 2794,
      "Ġoffice": 2795,
      "Ġplan": 2796,
      "New": 2797,
      "Ġ1993": 2798,
      "ĠBill": 2799,
      "ĠAcademy": 2800,
      "Ġconstruction": 2801,
      "ota": 2802,
      "Ġsound": 2803,
      "ĠCharles": 2804,
      "Ġrelig": 2805,
      "Ġsuccessful": 2806,
      "jects": 2807,
      "Ġelected": 2808,
      "Ġstrong": 2809,
      "Ġbi": 2810,
      "rey": 2811,
      "ÑĢÐ°": 2812,
      "ena": 2813,
      "ĠZeal": 2814,
      "Ġap": 2815,
      "ittee": 2816,
      "gress": 2817,
      "eph": 2818,
      "incip": 2819,
      "Ġtaken": 2820,
      "err": 2821,
      "Ġproble": 2822,
      "atives": 2823,
      "oys": 2824,
      "ked": 2825,
      "Ġphot": 2826,
      "Ġblack": 2827,
      "aches": 2828,
      "Ġaccess": 2829,
      "Ġbooks": 2830,
      "Ġmaterial": 2831,
      "Ġadminist": 2832,
      "back": 2833,
      "Ġacqu": 2834,
      "Ġ1991": 2835,
      "Ġappointed": 2836,
      "ceed": 2837,
      "Ġoriginally": 2838,
      "Ġincludes": 2839,
      "ĠFrom": 2840,
      "aves": 2841,
      "ĠPeter": 2842,
      "ĠCarol": 2843,
      "ĠZealand": 2844,
      "atri": 2845,
      "ability": 2846,
      "Ġfeatures": 2847,
      "Ġlab": 2848,
      "emor": 2849,
      "Ġgoal": 2850,
      "Ġperformed": 2851,
      "acters": 2852,
      "Sc": 2853,
      "ece": 2854,
      "writ": 2855,
      "head": 2856,
      "elt": 2857,
      "aps": 2858,
      "ĠPet": 2859,
      "Ġcour": 2860,
      "iqu": 2861,
      "Ġcost": 2862,
      "Ġknow": 2863,
      "oms": 2864,
      "ĠFrank": 2865,
      "ĠOrder": 2866,
      "Ġche": 2867,
      "idents": 2868,
      "za": 2869,
      "ria": 2870,
      "2006": 2871,
      "Ġrace": 2872,
      "onn": 2873,
      "annel": 2874,
      "chie": 2875,
      "ĠDepartment": 2876,
      "Ġfollowed": 2877,
      "ishop": 2878,
      "fficial": 2879,
      "Ġimpro": 2880,
      "ems": 2881,
      "Ð¾Ð²": 2882,
      "aut": 2883,
      "ought": 2884,
      "elling": 2885,
      "Ġmonths": 2886,
      "ateg": 2887,
      "Ġlaun": 2888,
      "ĠGod": 2889,
      "ospital": 2890,
      "ees": 2891,
      "Ġparty": 2892,
      "inese": 2893,
      "Ġdirected": 2894,
      "adium": 2895,
      "Ġmix": 2896,
      "Ġkey": 2897,
      "fic": 2898,
      "ducation": 2899,
      "Ġ2021": 2900,
      "ĠAfrican": 2901,
      "Ġmarket": 2902,
      "Ġreported": 2903,
      "aren": 2904,
      "Ġdeg": 2905,
      "Ġput": 2906,
      "hood": 2907,
      "nder": 2908,
      "leb": 2909,
      "Ġregular": 2910,
      "Ġalign": 2911,
      "Ġkilled": 2912,
      "For": 2913,
      "ificant": 2914,
      "ĠGames": 2915,
      "ĠMuseum": 2916,
      "ĠBut": 2917,
      "Ġassoci": 2918,
      "Ġ:": 2919,
      "ranch": 2920,
      "Ġeight": 2921,
      "ĠRock": 2922,
      "Ġcirc": 2923,
      "asc": 2924,
      "Ġdaughter": 2925,
      "ĠInstitute": 2926,
      "ĠCamp": 2927,
      "Ġgradu": 2928,
      "serv": 2929,
      "ĠLake": 2930,
      "Ġcapt": 2931,
      "ĠFlorida": 2932,
      "ĠAfrica": 2933,
      "Jo": 2934,
      "ibrary": 2935,
      "Ġanal": 2936,
      "Ġseen": 2937,
      "lor": 2938,
      "Ġtour": 2939,
      "arian": 2940,
      "olk": 2941,
      "ĠLos": 2942,
      ");": 2943,
      "eck": 2944,
      "iff": 2945,
      "Ġshows": 2946,
      "Ġattempt": 2947,
      "Ġlearn": 2948,
      "ĠDay": 2949,
      "ĠGo": 2950,
      "Ġbar": 2951,
      "icago": 2952,
      "anta": 2953,
      "ĠTom": 2954,
      "Ġconduct": 2955,
      "mb": 2956,
      "iation": 2957,
      "Ġagre": 2958,
      "Ġthroughout": 2959,
      "Ġfeatured": 2960,
      "Ġpain": 2961,
      "Ġfight": 2962,
      "ylvania": 2963,
      "ĠRussian": 2964,
      "Ġentire": 2965,
      "Ġtest": 2966,
      "enced": 2967,
      "vironment": 2968,
      "II": 2969,
      "ĠMel": 2970,
      "ĠRob": 2971,
      "ĠâĢľ": 2972,
      "Ġbuildings": 2973,
      "merc": 2974,
      "ãĢ": 2975,
      "This": 2976,
      "Ġperformance": 2977,
      "Ġdata": 2978,
      "ĠHam": 2979,
      "ĠHill": 2980,
      "ras": 2981,
      "erc": 2982,
      "ini": 2983,
      "road": 2984,
      "Ġlargest": 2985,
      "ĠCast": 2986,
      "rel": 2987,
      "Ġaverage": 2988,
      "Ġeventually": 2989,
      "ĠDan": 2990,
      "Ġcampaign": 2991,
      "ĠÂ": 2992,
      "ĠDo": 2993,
      "km": 2994,
      "Ġtre": 2995,
      "Ġeither": 2996,
      "arter": 2997,
      "FA": 2998,
      "At": 2999,
      "Ġ40": 3000,
      "Ġpast": 3001,
      "ĠLeg": 3002,
      "Ġfoc": 3003,
      "27": 3004,
      "ĠPe": 3005,
      "ĠRichard": 3006,
      "Ġsignificant": 3007,
      "Ġtraining": 3008,
      "erous": 3009,
      "airs": 3010,
      "Ġconsist": 3011,
      "ource": 3012,
      "ugby": 3013,
      "ĠPlay": 3014,
      "aching": 3015,
      "ites": 3016,
      "Ġdam": 3017,
      "ĠRepublic": 3018,
      "ĠSpanish": 3019,
      "uz": 3020,
      "Ġ1989": 3021,
      "Ġgave": 3022,
      "Ġremained": 3023,
      "Ġwid": 3024,
      "Ġviol": 3025,
      "ĠIm": 3026,
      "oviet": 3027,
      "ĠApp": 3028,
      "ĠScot": 3029,
      "ĠWhite": 3030,
      "26": 3031,
      "Ġsugg": 3032,
      "Ġpress": 3033,
      "Ġreplaced": 3034,
      "Ġseven": 3035,
      "Ġstri": 3036,
      "ĠKore": 3037,
      "Ġinj": 3038,
      "mon": 3039,
      "overnor": 3040,
      "Ġ1988": 3041,
      "...": 3042,
      "ĠFilm": 3043,
      "Ġfront": 3044,
      "imate": 3045,
      "istan": 3046,
      "Ġdesigned": 3047,
      "aught": 3048,
      "Ġrange": 3049,
      "Ġ31": 3050,
      "28": 3051,
      "ki": 3052,
      "aval": 3053,
      "ĠSummer": 3054,
      "Ġforces": 3055,
      "ĠFore": 3056,
      "anks": 3057,
      "ĠSmith": 3058,
      "2000": 3059,
      "sylvania": 3060,
      "Ġmount": 3061,
      "igan": 3062,
      "Ġintroduced": 3063,
      "Ñħ": 3064,
      "Ġhealth": 3065,
      "ĠGeorg": 3066,
      "Ġaud": 3067,
      "arth": 3068,
      "Ġsil": 3069,
      "ĠSecond": 3070,
      "Ġpark": 3071,
      "ĠWin": 3072,
      "Ġable": 3073,
      "Ġfinished": 3074,
      "Ġscored": 3075,
      "Ġstage": 3076,
      "ĠVictor": 3077,
      "Ġ(\"": 3078,
      "Ġwinn": 3079,
      "Ġfootballers": 3080,
      "Ġcharacters": 3081,
      "oma": 3082,
      "uture": 3083,
      "ĠHistor": 3084,
      "Ġ2022": 3085,
      "ĠIsrael": 3086,
      "Ġill": 3087,
      "ãģ": 3088,
      "ufact": 3089,
      "ola": 3090,
      "Ge": 3091,
      "ĠCons": 3092,
      "och": 3093,
      "kn": 3094,
      "Ġabove": 3095,
      "Ð¿": 3096,
      "center": 3097,
      "Ġhom": 3098,
      "ĠKn": 3099,
      "ving": 3100,
      "Ġreb": 3101,
      "ĠFin": 3102,
      "Ġboard": 3103,
      "ĠHistory": 3104,
      "Ġchampionship": 3105,
      "Ġtransfer": 3106,
      "Ġsem": 3107,
      "atin": 3108,
      "Ġsubsequ": 3109,
      "Ġleading": 3110,
      "Ġcivil": 3111,
      "Ġroute": 3112,
      "Ġgold": 3113,
      "Ġchange": 3114,
      "Ġmean": 3115,
      "Ġrespons": 3116,
      "ros": 3117,
      "read": 3118,
      "mpire": 3119,
      "\")": 3120,
      "Ġinvolved": 3121,
      "Ġadded": 3122,
      "SA": 3123,
      ".)": 3124,
      "ender": 3125,
      "Ġpur": 3126,
      "ooks": 3127,
      "Ġ1987": 3128,
      "Ġusually": 3129,
      "Ġsinger": 3130,
      "List": 3131,
      "Ġtransl": 3132,
      "çļ": 3133,
      "utch": 3134,
      "Ð¹": 3135,
      "order": 3136,
      "ersey": 3137,
      "ires": 3138,
      "FL": 3139,
      "ĠMus": 3140,
      "Ġprivate": 3141,
      "ĠÐ¾": 3142,
      "Ġtreat": 3143,
      "Ġdou": 3144,
      "Ġ185": 3145,
      "Ind": 3146,
      "agon": 3147,
      "medi": 3148,
      "ĠSome": 3149,
      "hold": 3150,
      "icy": 3151,
      "lam": 3152,
      "29": 3153,
      "idge": 3154,
      "Ġbirth": 3155,
      "Ġstudy": 3156,
      "Ġ1986": 3157,
      "ĠSaint": 3158,
      "iano": 3159,
      "oute": 3160,
      "ĠBur": 3161,
      "çļĦ": 3162,
      "ĠItaly": 3163,
      "ĠMil": 3164,
      "Ġclos": 3165,
      "ows": 3166,
      "Ġprovide": 3167,
      "den": 3168,
      "ulated": 3169,
      "ĠPennsylvania": 3170,
      "Ġconv": 3171,
      "Ġpot": 3172,
      "Ġrank": 3173,
      "Ġupon": 3174,
      "Ġcollege": 3175,
      "Ġclose": 3176,
      "ario": 3177,
      "iÄ": 3178,
      "ĠChicago": 3179,
      "ĠMr": 3180,
      "ĠMinister": 3181,
      "English": 3182,
      "Rec": 3183,
      "ĠHenry": 3184,
      "ĠVirginia": 3185,
      "ita": 3186,
      "Ġwhite": 3187,
      "ĠMass": 3188,
      "cher": 3189,
      "Ġartists": 3190,
      "uns": 3191,
      "rad": 3192,
      "mercial": 3193,
      "asing": 3194,
      "face": 3195,
      "Ġtravel": 3196,
      "Ġtype": 3197,
      "Ġste": 3198,
      "unn": 3199,
      "Ġwriter": 3200,
      "lim": 3201,
      "Ġrights": 3202,
      "urity": 3203,
      "Ġesc": 3204,
      "inct": 3205,
      "ĠTra": 3206,
      "ĠBrown": 3207,
      "60": 3208,
      "ĠForce": 3209,
      "Ġjournal": 3210,
      "ĠDel": 3211,
      "la": 3212,
      "razil": 3213,
      "ĠSqu": 3214,
      "ĠAngeles": 3215,
      "Ġneigh": 3216,
      "Ġ1984": 3217,
      "atal": 3218,
      "Ã¨": 3219,
      "Ġcourt": 3220,
      "ĠWhile": 3221,
      "icated": 3222,
      "ises": 3223,
      "rought": 3224,
      "ĠÐº": 3225,
      "190": 3226,
      "Ġsen": 3227,
      "Ġmedia": 3228,
      "stant": 3229,
      "ĠDirect": 3230,
      "ĠGre": 3231,
      "ĠStev": 3232,
      "Ġcop": 3233,
      "Ġspace": 3234,
      "Ġnight": 3235,
      "Ġopt": 3236,
      "Ġaircraft": 3237,
      "Ġsaw": 3238,
      "Ġqual": 3239,
      "Ġdiscover": 3240,
      "Ġprovided": 3241,
      "sel": 3242,
      "Ġwriters": 3243,
      "Ã±": 3244,
      "ĠChinese": 3245,
      "Ġactress": 3246,
      "ias": 3247,
      "ĠJust": 3248,
      "heast": 3249,
      "arily": 3250,
      "Ġdram": 3251,
      "Ġawarded": 3252,
      "ply": 3253,
      "Early": 3254,
      "Åį": 3255,
      "Ġjud": 3256,
      "ĠParis": 3257,
      "Ġflow": 3258,
      "aying": 3259,
      "Ġmethod": 3260,
      "Ġarchitect": 3261,
      "Ġleast": 3262,
      "Ġfemale": 3263,
      "ato": 3264,
      "istics": 3265,
      "Ġriver": 3266,
      "oper": 3267,
      "well": 3268,
      "Ġstates": 3269,
      "ĠLove": 3270,
      "Ġinterest": 3271,
      "ĠCr": 3272,
      "ĠStar": 3273,
      "Ġcenter": 3274,
      "yr": 3275,
      "board": 3276,
      "Ġchanged": 3277,
      "ĠEv": 3278,
      "ero": 3279,
      "pts": 3280,
      "uke": 3281,
      "Ġcountries": 3282,
      "Ġarg": 3283,
      "Ġvia": 3284,
      "ends": 3285,
      "Ġrailway": 3286,
      "Ġsch": 3287,
      "BA": 3288,
      "ask": 3289,
      "ĠSuper": 3290,
      "rup": 3291,
      "ĠWales": 3292,
      "Ġexpress": 3293,
      "Ġcal": 3294,
      "Ġachie": 3295,
      "rial": 3296,
      "Ġ1985": 3297,
      "Ġcurrently": 3298,
      "Ġcreat": 3299,
      "Ġpolitician": 3300,
      "ww": 3301,
      "Ġfav": 3302,
      "istry": 3303,
      "ĠAtl": 3304,
      "eated": 3305,
      "Ġfig": 3306,
      "Ġmanager": 3307,
      "hest": 3308,
      "Ġcentral": 3309,
      "oring": 3310,
      "Ġparts": 3311,
      "There": 3312,
      "Ġreached": 3313,
      "Ġpoet": 3314,
      "ÐµÑĤ": 3315,
      "gen": 3316,
      "ensus": 3317,
      "Ġhit": 3318,
      "ĠMa": 3319,
      "Ġlower": 3320,
      "ctor": 3321,
      "porary": 3322,
      "ĠIll": 3323,
      "ĠTurk": 3324,
      "Ad": 3325,
      "AR": 3326,
      "Ġsection": 3327,
      "Notes": 3328,
      "Ġstaff": 3329,
      "azz": 3330,
      "Ġaction": 3331,
      "Ġbasketball": 3332,
      "Ġhard": 3333,
      "overs": 3334,
      "ĠAnn": 3335,
      "Ġsus": 3336,
      "Ġ1983": 3337,
      "Ġresults": 3338,
      "ength": 3339,
      "Ġpossible": 3340,
      "ï¼Į": 3341,
      "uff": 3342,
      "Ġprincip": 3343,
      "Ġmusical": 3344,
      "Ġanc": 3345,
      "ometimes": 3346,
      "Ġnetwork": 3347,
      "Ġcy": 3348,
      "Ġ1950": 3349,
      "Ġquest": 3350,
      "Ġinstead": 3351,
      "Ġgoals": 3352,
      "Ġrespect": 3353,
      "Ġloss": 3354,
      "Ġoutside": 3355,
      "ĠSwed": 3356,
      "iences": 3357,
      "Ġsex": 3358,
      "Ġclosed": 3359,
      "eds": 3360,
      "Ġprimary": 3361,
      "Ġoccup": 3362,
      "ĠOld": 3363,
      "antic": 3364,
      "hab": 3365,
      "wer": 3366,
      "Ġbroadcast": 3367,
      "Ġmultip": 3368,
      "Ġuna": 3369,
      "ĠArts": 3370,
      "De": 3371,
      "enth": 3372,
      "ients": 3373,
      "ua": 3374,
      "Ġdocument": 3375,
      "ĠMur": 3376,
      "ĠOh": 3377,
      "ams": 3378,
      "Ġfall": 3379,
      "ĠColumb": 3380,
      "ĠDemocr": 3381,
      "oke": 3382,
      "erve": 3383,
      "ca": 3384,
      "ta": 3385,
      "ella": 3386,
      "ĠEr": 3387,
      "ĠNorthern": 3388,
      "sych": 3389,
      "Ġpers": 3390,
      "known": 3391,
      "ultural": 3392,
      "ĠPublic": 3393,
      "Ġwind": 3394,
      "Ġrelationship": 3395,
      "Ġhor": 3396,
      "stitution": 3397,
      "ĠIrish": 3398,
      "ĠMexico": 3399,
      "ĠCongress": 3400,
      "ĠOther": 3401,
      "Ġespec": 3402,
      "Ġproducer": 3403,
      "ils": 3404,
      "ongs": 3405,
      "ĠSir": 3406,
      "ĠPre": 3407,
      "ribution": 3408,
      "ette": 3409,
      "Ġpred": 3410,
      "ĠClass": 3411,
      "ĠSoviet": 3412,
      "Ġgirl": 3413,
      "ension": 3414,
      "Ġking": 3415,
      "ĠCommission": 3416,
      "Ġcritic": 3417,
      "Ã§": 3418,
      "Ġsouthern": 3419,
      "ĠIts": 3420,
      "Ġ1979": 3421,
      "Sp": 3422,
      "Ġ1982": 3423,
      "ĠMod": 3424,
      "ĠKh": 3425,
      "Ġdeal": 3426,
      "bur": 3427,
      "80": 3428,
      "ĠĠčĊ": 3429,
      "Ġpolice": 3430,
      "ider": 3431,
      "ĠAv": 3432,
      "Ġcompetition": 3433,
      "Ġactor": 3434,
      "Ġoccur": 3435,
      "Ġmur": 3436,
      "Ġsystems": 3437,
      "Ġnorthern": 3438,
      "Ġcut": 3439,
      "Ġstre": 3440,
      "Ġlet": 3441,
      "Ġmass": 3442,
      "wa": 3443,
      "ĠMill": 3444,
      "Ġfrequ": 3445,
      "Ġmanufact": 3446,
      "Ġrather": 3447,
      "clus": 3448,
      "band": 3449,
      "Ġdecided": 3450,
      "Ġ184": 3451,
      "189": 3452,
      "iro": 3453,
      "Ġwinning": 3454,
      "hire": 3455,
      "Ġmeas": 3456,
      "Ġfar": 3457,
      "Ġlik": 3458,
      "Ð±": 3459,
      "iana": 3460,
      "based": 3461,
      "stra": 3462,
      "like": 3463,
      "Ġpurch": 3464,
      "ye": 3465,
      "rig": 3466,
      "Ġplaces": 3467,
      "lements": 3468,
      "ĠOf": 3469,
      "During": 3470,
      "Ġplaced": 3471,
      "Ġtax": 3472,
      "Ġbass": 3473,
      "Ġapprox": 3474,
      "ĠOper": 3475,
      "Ġbrought": 3476,
      "oid": 3477,
      "ĠOb": 3478,
      "ĠTwo": 3479,
      "Ġwhose": 3480,
      "mond": 3481,
      "ĠJim": 3482,
      "ĠWood": 3483,
      "ĠCarolina": 3484,
      "Ġgrand": 3485,
      "Ġfourth": 3486,
      "people": 3487,
      "shire": 3488,
      "ĠCD": 3489,
      "Ġben": 3490,
      "venue": 3491,
      "Ġneg": 3492,
      "Le": 3493,
      "Ġaccept": 3494,
      "Ġsingles": 3495,
      "ĠPan": 3496,
      "ĠJersey": 3497,
      "Ġalmost": 3498,
      "Te": 3499,
      "Ġtourn": 3500,
      "ĠMer": 3501,
      "Ġimm": 3502,
      "gent": 3503,
      "ĠJack": 3504,
      "Ġcomplex": 3505,
      "Ġruns": 3506,
      "ĠSk": 3507,
      "atriate": 3508,
      "2005": 3509,
      "Ph": 3510,
      "Ġtransport": 3511,
      "Ġ1976": 3512,
      "lier": 3513,
      "Ġitself": 3514,
      "Ġpara": 3515,
      "Ġplann": 3516,
      "Can": 3517,
      "ĠEmpire": 3518,
      "Ġveh": 3519,
      "--": 3520,
      "with": 3521,
      "ĠOff": 3522,
      "Ġball": 3523,
      "Ġreve": 3524,
      "uments": 3525,
      "ĠRh": 3526,
      "Ġhigher": 3527,
      "Ġartist": 3528,
      "ĠOut": 3529,
      "Ġ1981": 3530,
      "Ġlook": 3531,
      "Ġcapital": 3532,
      "Ġbank": 3533,
      "ecess": 3534,
      "Ġplant": 3535,
      "Ġculture": 3536,
      "Ġscience": 3537,
      "ĠValley": 3538,
      "ĠService": 3539,
      "Ġterrit": 3540,
      "Ġfood": 3541,
      "Ġstated": 3542,
      "ription": 3543,
      "reme": 3544,
      "urt": 3545,
      "ergy": 3546,
      "ĠHow": 3547,
      "Ġcou": 3548,
      "Ġpersonal": 3549,
      "ati": 3550,
      "ingu": 3551,
      "Ġunits": 3552,
      "ĠParliament": 3553,
      "Ġfarm": 3554,
      "Ġden": 3555,
      "Ġstop": 3556,
      "ÃŃa": 3557,
      "Ġpreviously": 3558,
      "Ġ1974": 3559,
      "Ġforce": 3560,
      "Ġisland": 3561,
      "Ġ1972": 3562,
      "Ġcontribut": 3563,
      "ollowing": 3564,
      "ulations": 3565,
      "ulture": 3566,
      "illa": 3567,
      "embly": 3568,
      "Ġoperations": 3569,
      "uals": 3570,
      "Ġstudio": 3571,
      "iety": 3572,
      "ĠArab": 3573,
      "Ġbehind": 3574,
      "ĠSil": 3575,
      "ned": 3576,
      "ĠSur": 3577,
      "orpor": 3578,
      "Ġnatural": 3579,
      "Ġdestroy": 3580,
      "Ġcred": 3581,
      "Ġtoo": 3582,
      "Ġmunicipal": 3583,
      "ift": 3584,
      "Ġkeep": 3585,
      "ulty": 3586,
      "ror": 3587,
      "Ġowned": 3588,
      "alled": 3589,
      "ffer": 3590,
      "Ġadditional": 3591,
      "Ġever": 3592,
      "ĠTechn": 3593,
      "anced": 3594,
      "ĠScience": 3595,
      "Ġmeans": 3596,
      "ĠRadio": 3597,
      "ĠNavy": 3598,
      "put": 3599,
      "isco": 3600,
      "ĠHon": 3601,
      "Ġprison": 3602,
      "ĠTour": 3603,
      "ĠDen": 3604,
      "2007": 3605,
      "Ġregard": 3606,
      "NA": 3607,
      "ĠSeries": 3608,
      "ounter": 3609,
      "ental": 3610,
      "Ġ1978": 3611,
      "ify": 3612,
      "Ġself": 3613,
      "Ġsum": 3614,
      "Ġcomplet": 3615,
      "gl": 3616,
      "Person": 3617,
      "Ġi": 3618,
      "elled": 3619,
      "change": 3620,
      "Ġbase": 3621,
      "unior": 3622,
      "Ġbreak": 3623,
      "Ñİ": 3624,
      "ened": 3625,
      "asion": 3626,
      "Ġdu": 3627,
      "ĠÐ¼": 3628,
      "Ġbur": 3629,
      "Ġallowed": 3630,
      "pos": 3631,
      "Ġsuper": 3632,
      "Ġbeginning": 3633,
      "Ġrate": 3634,
      "lection": 3635,
      "ĠFort": 3636,
      "Ġorganiz": 3637,
      "35": 3638,
      "ĠAccording": 3639,
      "ora": 3640,
      "Ġdefeat": 3641,
      "Ġmagazine": 3642,
      "Ġseasons": 3643,
      "John": 3644,
      "Ġsoft": 3645,
      "ĠBrazil": 3646,
      "Ġminor": 3647,
      "Con": 3648,
      "ĠOl": 3649,
      "ĠRoute": 3650,
      "oir": 3651,
      "isions": 3652,
      "Ġattended": 3653,
      "Ġsoon": 3654,
      "Ġcome": 3655,
      "Ġstructure": 3656,
      "ĠBob": 3657,
      "ĠMartin": 3658,
      "het": 3659,
      "ĠRos": 3660,
      "Ġnewsp": 3661,
      "ĠTimes": 3662,
      "Ġsummer": 3663,
      "ĠFestival": 3664,
      "ruct": 3665,
      "Ġliving": 3666,
      "ÑĤÐ¾": 3667,
      "eff": 3668,
      "Ġmovement": 3669,
      "Ġreading": 3670,
      "Ġcoast": 3671,
      "Ġtext": 3672,
      "Ġfif": 3673,
      "Äģ": 3674,
      "ĠGreek": 3675,
      "Ġwriting": 3676,
      "Ġbattle": 3677,
      "lying": 3678,
      "areer": 3679,
      "Ġended": 3680,
      "Ġdeterm": 3681,
      "ĠMos": 3682,
      "Ġedition": 3683,
      "atform": 3684,
      "itiz": 3685,
      "ĠSpain": 3686,
      "2004": 3687,
      "ao": 3688,
      "Ġwood": 3689,
      "Ġindustry": 3690,
      "Ġwhom": 3691,
      "Ġcand": 3692,
      "Ġdefeated": 3693,
      "Ġobserv": 3694,
      "Ġscient": 3695,
      "Ġdivision": 3696,
      "Ġuses": 3697,
      "Ġdegree": 3698,
      "ancial": 3699,
      "ĠHot": 3700,
      "imb": 3701,
      "Ġexcept": 3702,
      "Ġprem": 3703,
      "ĠBattle": 3704,
      "ĠGovernment": 3705,
      "ĠBig": 3706,
      "Ġdon": 3707,
      "Ġlocation": 3708,
      "Ġ1977": 3709,
      "Ġfuture": 3710,
      "echan": 3711,
      "pped": 3712,
      "Other": 3713,
      "ĠEducation": 3714,
      "iÄĩ": 3715,
      "Col": 3716,
      "ums": 3717,
      "Ġbox": 3718,
      "Ġcommercial": 3719,
      "Ġtraditional": 3720,
      "Ġnames": 3721,
      "Ġcollection": 3722,
      "Ġlittle": 3723,
      "Ġcertain": 3724,
      "Ġespecially": 3725,
      "inary": 3726,
      "ĠLine": 3727,
      "//": 3728,
      "add": 3729,
      "ĠPo": 3730,
      "ĠJoseph": 3731,
      "Ġindependent": 3732,
      "ĠFound": 3733,
      "ĠBus": 3734,
      "ĠUp": 3735,
      "Ġactive": 3736,
      "Ġindividual": 3737,
      "Ġ1975": 3738,
      "Ġmention": 3739,
      "Ġremov": 3740,
      "Ġceleb": 3741,
      "awa": 3742,
      "arr": 3743,
      "Ġstudent": 3744,
      "unc": 3745,
      "Ð¾Ð»": 3746,
      "icro": 3747,
      "king": 3748,
      "Ġleader": 3749,
      "ĠFre": 3750,
      "Ġinsp": 3751,
      "asy": 3752,
      "Ġlisted": 3753,
      "ĠInc": 3754,
      "ĠSer": 3755,
      "iography": 3756,
      "Ġorganization": 3757,
      "Ġsurround": 3758,
      "Ãº": 3759,
      "ĠLife": 3760,
      "ĠLand": 3761,
      "ĠOhio": 3762,
      "Films": 3763,
      "ĠÐ´": 3764,
      "ĠTro": 3765,
      "uty": 3766,
      "ĠSpec": 3767,
      "Bl": 3768,
      "Ġacadem": 3769,
      "Ġnomin": 3770,
      "Ġ1973": 3771,
      "ĠNews": 3772,
      "ĠAp": 3773,
      "Ġtowards": 3774,
      "Ġaccording": 3775,
      "itors": 3776,
      "ĠAwards": 3777,
      "Ġunit": 3778,
      "Ġ1968": 3779,
      "bury": 3780,
      "etic": 3781,
      "aled": 3782,
      "ĠPac": 3783,
      "ĠChampionships": 3784,
      "Ġmove": 3785,
      "Ġpay": 3786,
      "Ġappearance": 3787,
      "aciÃ³n": 3788,
      "Ġshot": 3789,
      "org": 3790,
      "ĠProvince": 3791,
      "Ġtaking": 3792,
      "All": 3793,
      "rav": 3794,
      "win": 3795,
      "retary": 3796,
      "Ġrequired": 3797,
      "Ġdraw": 3798,
      "ĠScotland": 3799,
      "Ġphil": 3800,
      "ĠMost": 3801,
      "Ġinvestig": 3802,
      "Ġschol": 3803,
      "Ġge": 3804,
      "Ġrunning": 3805,
      "state": 3806,
      "Ġspent": 3807,
      "ready": 3808,
      "arent": 3809,
      "ĠSub": 3810,
      "ĠSa": 3811,
      "ĠHaw": 3812,
      "Ġcontains": 3813,
      "ibility": 3814,
      "yth": 3815,
      "Ġclubs": 3816,
      "ĠRailway": 3817,
      "Ġstandard": 3818,
      "Am": 3819,
      "70": 3820,
      "Ġens": 3821,
      "track": 3822,
      "rief": 3823,
      "ĠCommittee": 3824,
      "Ġer": 3825,
      "action": 3826,
      "ĠYoung": 3827,
      "anda": 3828,
      "standing": 3829,
      "Ġequip": 3830,
      "ÑĤÑĮ": 3831,
      "ĠDef": 3832,
      "Ġ1971": 3833,
      "ÑĢÐµ": 3834,
      "not": 3835,
      "Ġcentre": 3836,
      "Ġcreate": 3837,
      "ampion": 3838,
      "Ġgenerally": 3839,
      "ĠFr": 3840,
      "Ġsometimes": 3841,
      "adel": 3842,
      "irt": 3843,
      "Ġdig": 3844,
      "mark": 3845,
      "à¹": 3846,
      "ĠLong": 3847,
      "ĠDev": 3848,
      "bon": 3849,
      "Ġprograms": 3850,
      "ĠAre": 3851,
      "Ġlove": 3852,
      "ĠRussia": 3853,
      "Ġscreen": 3854,
      "ĠDou": 3855,
      "Ġhum": 3856,
      "Å¡": 3857,
      "Ġmission": 3858,
      "amily": 3859,
      "ĠGar": 3860,
      "Ġdiffic": 3861,
      "Ġmoney": 3862,
      "ĠEc": 3863,
      "rying": 3864,
      "Ġthus": 3865,
      "Ġhighest": 3866,
      "irm": 3867,
      "Ġran": 3868,
      "irit": 3869,
      "Ġbig": 3870,
      "Ġapplic": 3871,
      "Ġprof": 3872,
      "ĠSo": 3873,
      "Ġopening": 3874,
      "CC": 3875,
      "ols": 3876,
      "Ġenvironment": 3877,
      "ĠAlthough": 3878,
      "Ġlived": 3879,
      "Ġfamous": 3880,
      "Ġsom": 3881,
      "ĠSouthern": 3882,
      "rang": 3883,
      "ĠFred": 3884,
      "ĠIII": 3885,
      "Ġhockey": 3886,
      "Ġpi": 3887,
      "cel": 3888,
      "aring": 3889,
      "Ġconcern": 3890,
      "ÑĤÐµ": 3891,
      "Ġbetter": 3892,
      "ections": 3893,
      "ĠCarl": 3894,
      "oston": 3895,
      "ĠPak": 3896,
      "Ġissues": 3897,
      "ĠTer": 3898,
      "ĠBroad": 3899,
      "Ġpractice": 3900,
      "Ġapproximately": 3901,
      "Ġabs": 3902,
      "Ġemb": 3903,
      "ĠInt": 3904,
      "ken": 3905,
      "Ġ1969": 3906,
      "ĠHel": 3907,
      "Ġindic": 3908,
      "ĠBoard": 3909,
      "Ġearlier": 3910,
      "ĠAlb": 3911,
      "Ġjob": 3912,
      "arden": 3913,
      "Ġrelated": 3914,
      "Ġwoman": 3915,
      "Ġoppos": 3916,
      "Ġforest": 3917,
      "ĠLiber": 3918,
      "Ġprob": 3919,
      "Ġadop": 3920,
      "ali": 3921,
      "Ġattract": 3922,
      "ĠBook": 3923,
      "Ġprior": 3924,
      "Ġelev": 3925,
      "Ġactors": 3926,
      "Ġinstr": 3927,
      "ĠLord": 3928,
      "Ġsaf": 3929,
      "ulf": 3930,
      "Ġvictory": 3931,
      "ĠBritain": 3932,
      "ny": 3933,
      "Ġarmy": 3934,
      "ĠIf": 3935,
      "ĠBow": 3936,
      "ĠThat": 3937,
      "ĠDi": 3938,
      "fect": 3939,
      "2003": 3940,
      "Ġcust": 3941,
      "Ġnews": 3942,
      "oral": 3943,
      "Ð³": 3944,
      "Ġexhib": 3945,
      "ĠKent": 3946,
      "Ġgive": 3947,
      "Ġsat": 3948,
      "ĠOver": 3949,
      "ĠJud": 3950,
      "Ġchanges": 3951,
      "wan": 3952,
      "ĠBul": 3953,
      "Ġnumerous": 3954,
      "ĠSte": 3955,
      "Ġsusp": 3956,
      "Ġtowns": 3957,
      "ja": 3958,
      "Ġtracks": 3959,
      "ĠHa": 3960,
      "Ġoperated": 3961,
      "Ġconsider": 3962,
      "Ġfunction": 3963,
      "2002": 3964,
      "ĠTheatre": 3965,
      "ĠCross": 3966,
      "ĠJewish": 3967,
      "33": 3968,
      "ĠEngine": 3969,
      "ima": 3970,
      "ĠOx": 3971,
      "Ġscore": 3972,
      "ares": 3973,
      "Ġcomplete": 3974,
      "uild": 3975,
      "Ġpen": 3976,
      "ĠSol": 3977,
      "Ġop": 3978,
      "Ġrad": 3979,
      "Ġremains": 3980,
      "uan": 3981,
      "burgh": 3982,
      "ĠMain": 3983,
      "ĠSun": 3984,
      "Ġsuffer": 3985,
      "Ġaltern": 3986,
      "ĠStep": 3987,
      "rown": 3988,
      "allery": 3989,
      "ĠMah": 3990,
      "ping": 3991,
      "Ġassociated": 3992,
      "onse": 3993,
      "ansas": 3994,
      "ĠMiddle": 3995,
      "Career": 3996,
      "Ġactivities": 3997,
      "Ġreligious": 3998,
      "yan": 3999,
      "ĠBre": 4000,
      "Ġwestern": 4001,
      "ublican": 4002,
      "ĠTri": 4003,
      "house": 4004,
      "Ġappears": 4005,
      "Ġ1964": 4006,
      "Ġcourse": 4007,
      "iled": 4008,
      "arriage": 4009,
      "ko": 4010,
      "ih": 4011,
      "Ġ1967": 4012,
      "Ġpromot": 4013,
      "Ġsubject": 4014,
      "Ġdate": 4015,
      "Ġspecific": 4016,
      "Ġut": 4017,
      "acher": 4018,
      "kins": 4019,
      "Ġtakes": 4020,
      "45": 4021,
      "Ġcommand": 4022,
      "aters": 4023,
      "ricket": 4024,
      "gar": 4025,
      "ĠCivil": 4026,
      "Ġmonth": 4027,
      "plement": 4028,
      "Ġappearances": 4029,
      "ĠSystem": 4030,
      "ĠGen": 4031,
      "Ġfocus": 4032,
      "ĠWeb": 4033,
      "rect": 4034,
      "Ġcandid": 4035,
      "Ġlimited": 4036,
      "Ġsize": 4037,
      "Ġalready": 4038,
      "ĠSar": 4039,
      "con": 4040,
      "Mar": 4041,
      "Ġlength": 4042,
      "90": 4043,
      "AS": 4044,
      "Ġword": 4045,
      "FC": 4046,
      "iant": 4047,
      "ĠLee": 4048,
      "Ġinterview": 4049,
      "Ġven": 4050,
      "Ġbecoming": 4051,
      "Ġtrade": 4052,
      "ira": 4053,
      "Ġhere": 4054,
      "etts": 4055,
      "äº": 4056,
      "Ġhot": 4057,
      "Ġstep": 4058,
      "ĠGeorgia": 4059,
      "Ġemer": 4060,
      "oe": 4061,
      "ĠBank": 4062,
      "Ġarm": 4063,
      "Ġthought": 4064,
      "umber": 4065,
      "2001": 4066,
      "attal": 4067,
      "Ġrecording": 4068,
      "ĠConn": 4069,
      "ption": 4070,
      "Ġfootballer": 4071,
      "Ġmatches": 4072,
      "Ġterms": 4073,
      "ĠBlue": 4074,
      "**": 4075,
      "inois": 4076,
      "Ġmurder": 4077,
      "down": 4078,
      "itation": 4079,
      "ĠMichigan": 4080,
      "iga": 4081,
      "ĠPrem": 4082,
      "://": 4083,
      "Ġfeature": 4084,
      "Ġtournament": 4085,
      "Ġchief": 4086,
      "Ġlas": 4087,
      "ĠJones": 4088,
      "Ġ1966": 4089,
      "Ġtrib": 4090,
      "abb": 4091,
      "Ġded": 4092,
      "IS": 4093,
      "ĠNot": 4094,
      "aka": 4095,
      "Ġmach": 4096,
      "ication": 4097,
      "Ġmostly": 4098,
      "Ġstatus": 4099,
      "esc": 4100,
      "ĠProfess": 4101,
      "emporary": 4102,
      "Ġproperty": 4103,
      "Ġnoted": 4104,
      "bers": 4105,
      "ava": 4106,
      "velopment": 4107,
      "va": 4108,
      "Ġretired": 4109,
      "vention": 4110,
      "Ġ1945": 4111,
      "ador": 4112,
      "Ġrecords": 4113,
      "ĠCam": 4114,
      "agn": 4115,
      "aya": 4116,
      "eeks": 4117,
      "37": 4118,
      "Ġstudies": 4119,
      "color": 4120,
      "Ġcommission": 4121,
      "ĠStr": 4122,
      "emorial": 4123,
      "urban": 4124,
      "Ġbaseball": 4125,
      "Ġdecl": 4126,
      "Ġplatform": 4127,
      "Ġassociation": 4128,
      "Ġincreased": 4129,
      "Ġeditor": 4130,
      "Ġsequ": 4131,
      "ective": 4132,
      "Ġ1940": 4133,
      "Ġcaused": 4134,
      "Ġissue": 4135,
      "Ġhistorical": 4136,
      "ĠDutch": 4137,
      "Ġmultiple": 4138,
      "ĠMatt": 4139,
      "ds": 4140,
      "Ġcle": 4141,
      "Ġ2023": 4142,
      "Ġ1930": 4143,
      "inals": 4144,
      "Ã¡s": 4145,
      "Ã£": 4146,
      "ĠÑ": 4147,
      "ĠPortug": 4148,
      "Aust": 4149,
      "Ġsquad": 4150,
      "Ġcases": 4151,
      "Ð°Ð½": 4152,
      "Ġmanagement": 4153,
      "ĠGirl": 4154,
      "ĠTime": 4155,
      "RA": 4156,
      "36": 4157,
      "arents": 4158,
      "Ġver": 4159,
      "Ġleaving": 4160,
      "Ġlegal": 4161,
      "38": 4162,
      "Ġlines": 4163,
      "Ð¾Ð¼": 4164,
      "Ġnorm": 4165,
      "Ġ60": 4166,
      "ading": 4167,
      "ĠMid": 4168,
      "Ġimmedi": 4169,
      "anguages": 4170,
      "ĠOpen": 4171,
      "ysis": 4172,
      "Ġdecision": 4173,
      "Ġ1965": 4174,
      "ĠSat": 4175,
      "chen": 4176,
      "ears": 4177,
      "Ġdom": 4178,
      "Ġsister": 4179,
      "ĠMcC": 4180,
      "Ġtoday": 4181,
      "ortun": 4182,
      "Ġlonger": 4183,
      "rast": 4184,
      "Ġord": 4185,
      "ĠTeam": 4186,
      "ĠColumbia": 4187,
      "ĠTim": 4188,
      "isher": 4189,
      "Ġrepresented": 4190,
      "ĠMat": 4191,
      "ela": 4192,
      "isk": 4193,
      "Ġexc": 4194,
      "ĠMot": 4195,
      "ĠQueen": 4196,
      "ĠScottish": 4197,
      "ĠCamb": 4198,
      "Ġgoing": 4199,
      "ĠGood": 4200,
      "ĠSince": 4201,
      "Ġquick": 4202,
      "mitted": 4203,
      "Ġlaunched": 4204,
      "2008": 4205,
      "Ġinstitut": 4206,
      "Ġbridge": 4207,
      "rac": 4208,
      "34": 4209,
      "war": 4210,
      "uge": 4211,
      "Med": 4212,
      "ĠGal": 4213,
      "ĠAvenue": 4214,
      "ĠTem": 4215,
      "isation": 4216,
      "aded": 4217,
      "Ġanti": 4218,
      "ĠJul": 4219,
      "ĠEdward": 4220,
      "Ġstructures": 4221,
      "Ġcounty": 4222,
      "Ġannual": 4223,
      "Ġlog": 4224,
      "left": 4225,
      "Ġalways": 4226,
      "ables": 4227,
      "ĠCoast": 4228,
      "Ð½Ñĭ": 4229,
      "Trans": 4230,
      "Comp": 4231,
      "illy": 4232,
      "Se": 4233,
      "ĠWind": 4234,
      "Ġforced": 4235,
      "ĠLittle": 4236,
      "Ġofficer": 4237,
      "ĠPrince": 4238,
      "Ġsenior": 4239,
      "Ġuniversity": 4240,
      "press": 4241,
      "ĠMen": 4242,
      "Ġwide": 4243,
      "aily": 4244,
      "Ġlay": 4245,
      "ĠFrancisco": 4246,
      "Ġinitially": 4247,
      "188": 4248,
      "Ġremain": 4249,
      "nes": 4250,
      "ĠBet": 4251,
      "ipl": 4252,
      "2010": 4253,
      "Ġlack": 4254,
      "Ġcolon": 4255,
      "1990": 4256,
      "achus": 4257,
      "raf": 4258,
      "Ġroom": 4259,
      "airman": 4260,
      "%)": 4261,
      "ĠWild": 4262,
      "Ġdetail": 4263,
      "Ġenergy": 4264,
      "Ġinteg": 4265,
      "Ġevidence": 4266,
      "Ġ+": 4267,
      "iy": 4268,
      "BS": 4269,
      "Ġeconomic": 4270,
      "ĠCreek": 4271,
      "ĠChief": 4272,
      "phy": 4273,
      "Ġshown": 4274,
      "rim": 4275,
      "duce": 4276,
      "ĠOk": 4277,
      "obal": 4278,
      "tained": 4279,
      "Ġmajority": 4280,
      "Ġlic": 4281,
      "ocal": 4282,
      "Ġdise": 4283,
      "ips": 4284,
      "osoph": 4285,
      "ĠUSA": 4286,
      "erem": 4287,
      "Ġbelow": 4288,
      "Ġmerg": 4289,
      "Ġlarger": 4290,
      "Ġaccount": 4291,
      "language": 4292,
      "Ġrequire": 4293,
      "ĠIllinois": 4294,
      "ĠElect": 4295,
      "39": 4296,
      "ĠWomen": 4297,
      "Ġserving": 4298,
      "Ġreferred": 4299,
      "mm": 4300,
      "ĠNY": 4301,
      "iger": 4302,
      "Ð»Ð¸": 4303,
      "ĠLab": 4304,
      "ĠEarth": 4305,
      "Ġmight": 4306,
      "Ġess": 4307,
      "ĠIslam": 4308,
      "ĠDis": 4309,
      "Ð½Ð¾": 4310,
      "ÑĢÐ¸": 4311,
      "dis": 4312,
      "Ġmeaning": 4313,
      "ricts": 4314,
      "iance": 4315,
      "iring": 4316,
      "isters": 4317,
      "Ġselected": 4318,
      "Ġpil": 4319,
      "Ġsea": 4320,
      "ĠEastern": 4321,
      "Ġpassed": 4322,
      "inem": 4323,
      "ĠMP": 4324,
      "uries": 4325,
      "Ġentered": 4326,
      "ĠTre": 4327,
      "Ġeastern": 4328,
      "Is": 4329,
      "phia": 4330,
      "Ġcell": 4331,
      "Brit": 4332,
      "ications": 4333,
      "ĠResearch": 4334,
      "Ġmovie": 4335,
      "ĠAsia": 4336,
      "ĠBC": 4337,
      "Ġnine": 4338,
      "Music": 4339,
      "arters": 4340,
      "poration": 4341,
      "Ġfederal": 4342,
      "ĠInf": 4343,
      "ĠDie": 4344,
      "occer": 4345,
      "Ġseparate": 4346,
      "Ġvariety": 4347,
      "ĠOlympic": 4348,
      "ties": 4349,
      "rich": 4350,
      "Ġbrief": 4351,
      "ĠLuc": 4352,
      "ĠWal": 4353,
      "Ġmiddle": 4354,
      "range": 4355,
      "ĠNight": 4356,
      "struction": 4357,
      "Ġ)": 4358,
      "ĠBoston": 4359,
      "Ġtechnology": 4360,
      "resp": 4361,
      "antry": 4362,
      "achusetts": 4363,
      "Sports": 4364,
      "ledge": 4365,
      "Not": 4366,
      "Ġtheory": 4367,
      "ĠUnder": 4368,
      "Ġbound": 4369,
      "encies": 4370,
      "Ġplays": 4371,
      "Ġunion": 4372,
      "Ġdiscuss": 4373,
      "ãĢĤ": 4374,
      "ĠStation": 4375,
      "Ã¡n": 4376,
      "izing": 4377,
      "Ġthreat": 4378,
      "Ġforeign": 4379,
      "rants": 4380,
      "ĠShow": 4381,
      "adelphia": 4382,
      "ä»": 4383,
      "Ġsubsequently": 4384,
      "Ġhours": 4385,
      "Ġminutes": 4386,
      "riz": 4387,
      "ais": 4388,
      "Ġprovides": 4389,
      "ĠHighway": 4390,
      "selves": 4391,
      "edd": 4392,
      "Ġthemselves": 4393,
      "uated": 4394,
      "NE": 4395,
      "Ġmakes": 4396,
      "United": 4397,
      "ĠBBC": 4398,
      "mission": 4399,
      "Ġfle": 4400,
      "ĠJr": 4401,
      "ervation": 4402,
      "gu": 4403,
      "1999": 4404,
      "ĠHung": 4405,
      "ĠMore": 4406,
      "itting": 4407,
      "ĠVer": 4408,
      "Ġmer": 4409,
      "ĠBh": 4410,
      "Ġoffered": 4411,
      "ĠTw": 4412,
      "ĠOfficial": 4413,
      "Ġweeks": 4414,
      "ĠWay": 4415,
      "apers": 4416,
      "wide": 4417,
      "ĠCentre": 4418,
      "Ġparticularly": 4419,
      "ĠWilliams": 4420,
      "onto": 4421,
      "itzer": 4422,
      "osa": 4423,
      "With": 4424,
      "ault": 4425,
      "Ġsource": 4426,
      "onic": 4427,
      "ĠPacific": 4428,
      "amin": 4429,
      "ĠBern": 4430,
      "ĠArgent": 4431,
      "75": 4432,
      "ĠEll": 4433,
      "ĠLibrary": 4434,
      "Ġobject": 4435,
      "Ġcitiz": 4436,
      "ĠAlbert": 4437,
      "Ġchall": 4438,
      "Ġacquired": 4439,
      "Ġmem": 4440,
      "stein": 4441,
      "Ġlabel": 4442,
      "ĠTop": 4443,
      "Ġconfl": 4444,
      "2009": 4445,
      "Ġformat": 4446,
      "Ġbelieved": 4447,
      "Ġunivers": 4448,
      "Ġfoot": 4449,
      "ĠBor": 4450,
      "ntario": 4451,
      "From": 4452,
      "hol": 4453,
      "Ġepisodes": 4454,
      "Ġ1963": 4455,
      "ĠStan": 4456,
      "Ġadministr": 4457,
      "ession": 4458,
      "ager": 4459,
      "ĠLatin": 4460,
      "Men": 4461,
      "Ġforms": 4462,
      "ĠKe": 4463,
      "Ġice": 4464,
      "ĠDet": 4465,
      "Ġquarter": 4466,
      "inent": 4467,
      "Ġcomedy": 4468,
      "Ã£o": 4469,
      "urrent": 4470,
      "aven": 4471,
      "Ġadj": 4472,
      "AA": 4473,
      "ĠOxford": 4474,
      "Ġgot": 4475,
      "rice": 4476,
      "ĠSyd": 4477,
      "ĠBand": 4478,
      "ĠSocial": 4479,
      "peror": 4480,
      "Ġ35": 4481,
      "ĠIran": 4482,
      "ĠConference": 4483,
      "Ġfort": 4484,
      "Ġchart": 4485,
      "Ġships": 4486,
      "Ġpasseng": 4487,
      "Ġblock": 4488,
      "chestra": 4489,
      "Ġhelped": 4490,
      "Ġ1920": 4491,
      "Ġcapac": 4492,
      "She": 4493,
      "ennis": 4494,
      "Ġbomb": 4495,
      "Char": 4496,
      "When": 4497,
      "Ġstarting": 4498,
      "mas": 4499,
      "ĠHealth": 4500,
      "bl": 4501,
      "ĠUr": 4502,
      "ĠMajor": 4503,
      "Ġtemper": 4504,
      "inet": 4505,
      "Ġresponse": 4506,
      "Ð¾Ð³": 4507,
      "uis": 4508,
      "ĠSea": 4509,
      "ĠCharl": 4510,
      "Ġspl": 4511,
      "ĠSports": 4512,
      "atively": 4513,
      "ĠEnd": 4514,
      "Ġmedical": 4515,
      "Ġtroops": 4516,
      "rance": 4517,
      "ĠAssembly": 4518,
      "Ġcouncil": 4519,
      "Ġhouses": 4520,
      "no": 4521,
      "level": 4522,
      "Ġcities": 4523,
      "nam": 4524,
      "Ġremaining": 4525,
      "ĠSund": 4526,
      "Ġfinancial": 4527,
      "ĠWater": 4528,
      "Ġincrease": 4529,
      "astic": 4530,
      "32": 4531,
      "Ġinters": 4532,
      "31": 4533,
      "uj": 4534,
      "hester": 4535,
      "Ġ1962": 4536,
      "ellig": 4537,
      "ackson": 4538,
      "ĠTheir": 4539,
      "imum": 4540,
      "Ġseat": 4541,
      "Ġpercent": 4542,
      "akers": 4543,
      "ĠTam": 4544,
      "National": 4545,
      "ĠDar": 4546,
      "Ġcomputer": 4547,
      "inger": 4548,
      "ĠMassachusetts": 4549,
      "Ġindividuals": 4550,
      "ĠBoy": 4551,
      "Ġmuseum": 4552,
      "ilies": 4553,
      "uts": 4554,
      "pose": 4555,
      "Ġprevent": 4556,
      "Ġcommunities": 4557,
      "Ġancient": 4558,
      "uten": 4559,
      "Ġwords": 4560,
      "British": 4561,
      "Ġheavy": 4562,
      "aging": 4563,
      "Ġpresented": 4564,
      "Ġvon": 4565,
      "Ġsal": 4566,
      "ĠSand": 4567,
      "Ġtarg": 4568,
      "Ġcrew": 4569,
      "US": 4570,
      "Ġturned": 4571,
      "Ġdone": 4572,
      "Ġcat": 4573,
      "Ġcode": 4574,
      "Ġofficers": 4575,
      "Ġdifficult": 4576,
      "Ġfailed": 4577,
      "ĠChild": 4578,
      "Ġoverall": 4579,
      "ĠPeople": 4580,
      "Ġdro": 4581,
      "Ġproblems": 4582,
      "enty": 4583,
      "Ġpersonnel": 4584,
      "Ġlatter": 4585,
      "ĠPhilipp": 4586,
      "Ġclaimed": 4587,
      "Ġexperience": 4588,
      "Ġassistant": 4589,
      "ĠRam": 4590,
      "Ġcollabor": 4591,
      "ĠCard": 4592,
      "abeth": 4593,
      "Ġgovern": 4594,
      "Ġsurface": 4595,
      "ila": 4596,
      "Ġparents": 4597,
      "icks": 4598,
      "ĠCorps": 4599,
      "stitu": 4600,
      "ĠWall": 4601,
      "ĠLater": 4602,
      "ĠJohnson": 4603,
      "ĠSydney": 4604,
      "Ġfinally": 4605,
      "Ġdescent": 4606,
      "ĠMuslim": 4607,
      "Ġcovered": 4608,
      "Ġmainly": 4609,
      "ĠOntario": 4610,
      "vement": 4611,
      "Ġnearby": 4612,
      "Ġinn": 4613,
      "ĠJournal": 4614,
      "gypt": 4615,
      "ĠEnter": 4616,
      "ĠDirector": 4617,
      "Ġarrest": 4618,
      "Ġcomment": 4619,
      "Ġmechan": 4620,
      "ĠGame": 4621,
      "hew": 4622,
      "illed": 4623,
      "ĠSpecial": 4624,
      "Ġmeeting": 4625,
      "ante": 4626,
      "teen": 4627,
      "Ġspeed": 4628,
      "ker": 4629,
      "ads": 4630,
      "ando": 4631,
      "Ġdrama": 4632,
      "thur": 4633,
      "ÑĪ": 4634,
      "lected": 4635,
      "Ġhospital": 4636,
      "ĠCat": 4637,
      "Ġdouble": 4638,
      "Ġorganizations": 4639,
      "Ġcarried": 4640,
      "oz": 4641,
      "Ġresidents": 4642,
      "Ġprin": 4643,
      "åı": 4644,
      "ronic": 4645,
      "Ġextended": 4646,
      "Ġdeep": 4647,
      "Ġour": 4648,
      "ĠKenn": 4649,
      "ĠEst": 4650,
      "Ġamb": 4651,
      "ograp": 4652,
      "Ġdistinct": 4653,
      "ĠField": 4654,
      "eld": 4655,
      "ried": 4656,
      "ously": 4657,
      "more": 4658,
      "idad": 4659,
      "ĠRepresent": 4660,
      "Ġsupported": 4661,
      "AT": 4662,
      "Ġneighbor": 4663,
      "yric": 4664,
      "itude": 4665,
      "ĠRay": 4666,
      "yt": 4667,
      "ĠVan": 4668,
      "una": 4669,
      "Ġstories": 4670,
      "Ġ1944": 4671,
      "oh": 4672,
      "Ġbring": 4673,
      "Ġrenamed": 4674,
      "ube": 4675,
      "Ġprovince": 4676,
      "2011": 4677,
      "Ġconcept": 4678,
      "Ð¾Ð´": 4679,
      "attalion": 4680,
      "1998": 4681,
      "ocks": 4682,
      "rovers": 4683,
      "orning": 4684,
      "ucky": 4685,
      "ĠAz": 4686,
      "Ġrecent": 4687,
      "Ġlanguages": 4688,
      "Ġoil": 4689,
      "ĠMany": 4690,
      "Ġmentioned": 4691,
      "Ġsecondary": 4692,
      "ione": 4693,
      "Ġpit": 4694,
      "Ġpage": 4695,
      "HL": 4696,
      "ĠPost": 4697,
      "ĠPop": 4698,
      "Ġconditions": 4699,
      "ĠÐ½Ð°": 4700,
      "ĠBal": 4701,
      "Ġoperation": 4702,
      "Ġpsych": 4703,
      "ez": 4704,
      "ĠHor": 4705,
      "ĠFour": 4706,
      "Ġstudied": 4707,
      "onia": 4708,
      "agement": 4709,
      "ĠÅ": 4710,
      "ski": 4711,
      "Ġmusicians": 4712,
      "ounts": 4713,
      "Ġpeak": 4714,
      "Track": 4715,
      "AC": 4716,
      "ĠUl": 4717,
      "ĠPolish": 4718,
      "Further": 4719,
      "Ġprogramming": 4720,
      "Ġhighway": 4721,
      "Ġarticle": 4722,
      "Ġmarriage": 4723,
      "Ġbenef": 4724,
      "ID": 4725,
      "ĠKar": 4726,
      "Ġdepart": 4727,
      "Ġearned": 4728,
      "Ġstay": 4729,
      "ĠOs": 4730,
      "Ġraised": 4731,
      "get": 4732,
      "48": 4733,
      "ĠMax": 4734,
      "ĠVen": 4735,
      "Ġnecess": 4736,
      "Ġlegisl": 4737,
      "Ġmissing": 4738,
      "Ġshoot": 4739,
      "ĠFoundation": 4740,
      "Ġnumbers": 4741,
      "Ġconsists": 4742,
      "olis": 4743,
      "ĠHistoric": 4744,
      "ĠAndrew": 4745,
      "establ": 4746,
      "gcolor": 4747,
      "rif": 4748,
      "Ġvoice": 4749,
      "Sw": 4750,
      "Ġsolo": 4751,
      "%.": 4752,
      "imated": 4753,
      "Ġcontinu": 4754,
      "Ġcomposed": 4755,
      "ĠUk": 4756,
      "ĠProt": 4757,
      "Ġcharg": 4758,
      "light": 4759,
      "ĠBridge": 4760,
      "Ġnature": 4761,
      "Ġkind": 4762,
      "Ġenough": 4763,
      "ully": 4764,
      "ishes": 4765,
      "1997": 4766,
      "47": 4767,
      "andon": 4768,
      "Ġvalue": 4769,
      "Ġpolicy": 4770,
      "Ġplans": 4771,
      "cul": 4772,
      "ĠJoe": 4773,
      "Ġleave": 4774,
      "Ġ1961": 4775,
      "ĠUnivers": 4776,
      "sen": 4777,
      "Ġcause": 4778,
      "ĠÂ£": 4779,
      "ĠKong": 4780,
      "ĠJac": 4781,
      "Ġpoor": 4782,
      "ibli": 4783,
      "Ð¶": 4784,
      "Ġhab": 4785,
      "Ġcensus": 4786,
      "owers": 4787,
      "Ġdiss": 4788,
      "rupt": 4789,
      "ĠWinter": 4790,
      "Ġpaint": 4791,
      "Ġâ": 4792,
      "Members": 4793,
      "Ġnearly": 4794,
      "itage": 4795,
      "Ġnative": 4796,
      "ogue": 4797,
      "Ġproposed": 4798,
      "usband": 4799,
      "ĠRepublican": 4800,
      "Ġelectric": 4801,
      "ĠGra": 4802,
      "hens": 4803,
      "Ġchem": 4804,
      "ims": 4805,
      "Ġfeaturing": 4806,
      "Ġelements": 4807,
      "Ġpath": 4808,
      "bre": 4809,
      "Ġchannel": 4810,
      "Ġlikely": 4811,
      "Ġdespite": 4812,
      "thing": 4813,
      "ĠPhiladelphia": 4814,
      "mann": 4815,
      "Ġautom": 4816,
      "vis": 4817,
      "ĠCorn": 4818,
      "bourne": 4819,
      "ĠOtt": 4820,
      "ĠHome": 4821,
      "ĠGovernor": 4822,
      "ederation": 4823,
      "Ġcard": 4824,
      "Ġsociety": 4825,
      "Ġsector": 4826,
      "55": 4827,
      "Ġathlet": 4828,
      "bec": 4829,
      "Ġbecomes": 4830,
      "ĠBir": 4831,
      "Ġdirectly": 4832,
      "ĠAlexander": 4833,
      "zech": 4834,
      "Ġborder": 4835,
      "ancy": 4836,
      "ĠBa": 4837,
      "Man": 4838,
      "ĠHind": 4839,
      "Ġdisp": 4840,
      "Ġinhab": 4841,
      "Ġdead": 4842,
      "umed": 4843,
      "ĠBudd": 4844,
      "ĠLight": 4845,
      "ĠGh": 4846,
      "innes": 4847,
      "Ġaffili": 4848,
      "Ġpick": 4849,
      "Ġagric": 4850,
      "ĠMu": 4851,
      "akh": 4852,
      "ĠRel": 4853,
      "Ġinfluence": 4854,
      "Ġonline": 4855,
      "Ġ1959": 4856,
      "ĠVictoria": 4857,
      "Ġdyn": 4858,
      "Ġbelong": 4859,
      "tle": 4860,
      "Don": 4861,
      "Ġprimarily": 4862,
      "Ġ1956": 4863,
      "Ġnewspaper": 4864,
      "Ġtold": 4865,
      "ĠLes": 4866,
      "formed": 4867,
      "Ġmotor": 4868,
      "ĠMike": 4869,
      "ĠBab": 4870,
      "Ġlisting": 4871,
      "Or": 4872,
      "ĠJean": 4873,
      "Dem": 4874,
      "Ġresponsible": 4875,
      "itted": 4876,
      "ĠJeff": 4877,
      "Ġsilver": 4878,
      "Ġserve": 4879,
      "Ġunc": 4880,
      "Ġmaster": 4881,
      "Ġupper": 4882,
      "99": 4883,
      "Ġsucceed": 4884,
      "Ġang": 4885,
      "lav": 4886,
      "Ġ1948": 4887,
      "alle": 4888,
      "ii": 4889,
      "yer": 4890,
      "ĠAirport": 4891,
      "ĠOffice": 4892,
      "ouri": 4893,
      "innesota": 4894,
      "Ġseg": 4895,
      "ĠSong": 4896,
      "Ġ180": 4897,
      "Ġclear": 4898,
      "ĠFC": 4899,
      "Ġsoldiers": 4900,
      "Ġquestion": 4901,
      "obile": 4902,
      "Ġsoftware": 4903,
      "Ġgun": 4904,
      "ĠBrig": 4905,
      "Ġnovels": 4906,
      "Ġalleg": 4907,
      "Ġtradition": 4908,
      "Ġcolor": 4909,
      "ologist": 4910,
      "Ġstadium": 4911,
      "ĠJackson": 4912,
      "eces": 4913,
      "ĠSerb": 4914,
      "FF": 4915,
      "ounds": 4916,
      "Ġmanaged": 4917,
      "ĠBerlin": 4918,
      "amm": 4919,
      "Ġpal": 4920,
      "Ġconver": 4921,
      "Ġexpatriate": 4922,
      "ĠAdd": 4923,
      "Ġcorn": 4924,
      "Ġdomin": 4925,
      "ĠBell": 4926,
      "omer": 4927,
      "Ġwhole": 4928,
      "Ġ80": 4929,
      "class": 4930,
      "Ġsched": 4931,
      "Ġera": 4932,
      "Ġ1958": 4933,
      "Ġfacilities": 4934,
      "writer": 4935,
      "ĠTod": 4936,
      "ĠProgram": 4937,
      "ĠPrize": 4938,
      "Ġcars": 4939,
      "Ġpor": 4940,
      "Ġproducts": 4941,
      "Ġfriends": 4942,
      "ictional": 4943,
      "Ġweap": 4944,
      "Ġface": 4945,
      "Ġwhether": 4946,
      "icted": 4947,
      "Ġtermin": 4948,
      "Ġrule": 4949,
      "El": 4950,
      "ĠArm": 4951,
      "Ġprogress": 4952,
      "Ġfunct": 4953,
      "Ġparish": 4954,
      "Ġdeliver": 4955,
      "1980": 4956,
      "Ġfeel": 4957,
      "ĠGuard": 4958,
      "Comm": 4959,
      "Ġconstructed": 4960,
      "ĠPakistan": 4961,
      "Austral": 4962,
      "ambig": 4963,
      "ĠMov": 4964,
      "Ġtitles": 4965,
      "ĠBra": 4966,
      "rate": 4967,
      "ĠFI": 4968,
      "ĠSant": 4969,
      "Ġawards": 4970,
      "Ġsources": 4971,
      "Ġcomes": 4972,
      "1996": 4973,
      "ĠLew": 4974,
      "Ġreason": 4975,
      "Ġworkers": 4976,
      "orporated": 4977,
      "ĠCorporation": 4978,
      "ĠRod": 4979,
      "worth": 4980,
      "Ġlevels": 4981,
      "Ġidea": 4982,
      "Ġasked": 4983,
      "ĠWilson": 4984,
      "rison": 4985,
      "44": 4986,
      "',": 4987,
      "ĠEgypt": 4988,
      "ĠRaj": 4989,
      "Ġdiscovered": 4990,
      "ĠThree": 4991,
      "ĠKorea": 4992,
      "rin": 4993,
      "Ġcontinue": 4994,
      "ĠMedal": 4995,
      "rec": 4996,
      "ieuten": 4997,
      "Ġheart": 4998,
      "Ġcampus": 4999,
      "Ġdivided": 5000,
      "186": 5001,
      "Ġcateg": 5002,
      "ĠEs": 5003,
      "onomy": 5004,
      "ĠRog": 5005,
      "olitan": 5006,
      "mir": 5007,
      "Ġlives": 5008,
      "da": 5009,
      "asts": 5010,
      "ĠFar": 5011,
      "Ġult": 5012,
      "Ġtransferred": 5013,
      "ĠVill": 5014,
      "ĠCub": 5015,
      "Ð°Ðº": 5016,
      "rie": 5017,
      "Ã©s": 5018,
      "ĠPen": 5019,
      "Ġ1942": 5020,
      "eman": 5021,
      "ighter": 5022,
      "ĠPubl": 5023,
      "2012": 5024,
      "ĠKen": 5025,
      "\"|": 5026,
      "ĠForest": 5027,
      "stone": 5028,
      "osh": 5029,
      "Ġinitial": 5030,
      "Ġtypes": 5031,
      "undred": 5032,
      "aith": 5033,
      "ĠAk": 5034,
      "ĠQueens": 5035,
      "ĠDemocratic": 5036,
      "ulpt": 5037,
      "ĠAthlet": 5038,
      "Ġrugby": 5039,
      "ba": 5040,
      "ilation": 5041,
      "æľ": 5042,
      "Ġcontinues": 5043,
      "Ġhonor": 5044,
      "Ġability": 5045,
      "Ġ500": 5046,
      "ĠRegiment": 5047,
      "Ġincreasing": 5048,
      "Ġscene": 5049,
      "ĠBelg": 5050,
      "orship": 5051,
      "ĠAsh": 5052,
      "ĠEp": 5053,
      "ambiguation": 5054,
      "ĠToronto": 5055,
      "Ġcultural": 5056,
      "izabeth": 5057,
      "Ġmetal": 5058,
      "Ġappl": 5059,
      "Ġ1957": 5060,
      "emeter": 5061,
      "Ġregional": 5062,
      "wick": 5063,
      "emetery": 5064,
      "49": 5065,
      "iced": 5066,
      "ĠBeach": 5067,
      "ilton": 5068,
      "mad": 5069,
      "``": 5070,
      "Ġbgcolor": 5071,
      "cles": 5072,
      "igen": 5073,
      "One": 5074,
      "istance": 5075,
      "Ġwanted": 5076,
      "ĠViet": 5077,
      "Ġdemon": 5078,
      "ĠÐ±": 5079,
      "ÑĨ": 5080,
      "Ġdrug": 5081,
      "Ġprofessor": 5082,
      "ĠCastle": 5083,
      "enness": 5084,
      "ĠIslands": 5085,
      "Ġstore": 5086,
      "La": 5087,
      "Ġnotable": 5088,
      "ello": 5089,
      "ĠJes": 5090,
      "Ġ1955": 5091,
      "Ġeffects": 5092,
      "Ġissued": 5093,
      "vin": 5094,
      "ĠLim": 5095,
      "ocated": 5096,
      "bit": 5097,
      "cean": 5098,
      "ĠRome": 5099,
      "Olymp": 5100,
      "ĠSanta": 5101,
      "Ġhighly": 5102,
      "His": 5103,
      "ĠSteve": 5104,
      "aylor": 5105,
      "Ġ1947": 5106,
      "Ġremoved": 5107,
      "respond": 5108,
      "arry": 5109,
      "Ġmodels": 5110,
      "Ġquickly": 5111,
      "Ġnuc": 5112,
      "Ġ1946": 5113,
      "Ġdisplay": 5114,
      "Ġlif": 5115,
      "Ġmountain": 5116,
      "Ġkm": 5117,
      "No": 5118,
      "Ġsmaller": 5119,
      "Ġhusband": 5120,
      "ydro": 5121,
      "46": 5122,
      "heim": 5123,
      "ĠFair": 5124,
      "ĠMir": 5125,
      "Ġamount": 5126,
      "Ġimplement": 5127,
      "Ġcapacity": 5128,
      "ĠSpe": 5129,
      "Ġyouth": 5130,
      "Personal": 5131,
      "etherlands": 5132,
      "Polit": 5133,
      "met": 5134,
      "Ġshare": 5135,
      "Ġaddress": 5136,
      "ĠRegion": 5137,
      "Ġexecutive": 5138,
      "arp": 5139,
      "ĠBang": 5140,
      "Ġalongside": 5141,
      "1995": 5142,
      "Ã¼r": 5143,
      "ĠLi": 5144,
      "VD": 5145,
      "rolled": 5146,
      "disambiguation": 5147,
      "Ġrules": 5148,
      "Be": 5149,
      "ĠHead": 5150,
      "SP": 5151,
      "ĠCas": 5152,
      "ĠCommon": 5153,
      "Ġfamilies": 5154,
      "ĠCa": 5155,
      "Ġthr": 5156,
      "ĠAut": 5157,
      "Ġletter": 5158,
      "Ġproduce": 5159,
      "ãĤ": 5160,
      "Ġenem": 5161,
      "Ġ1943": 5162,
      "ĠBaron": 5163,
      "Ġprec": 5164,
      "Ġadministration": 5165,
      "ining": 5166,
      "Ġbranch": 5167,
      "Ġmedalists": 5168,
      "ĠSquad": 5169,
      "Ġpan": 5170,
      "Ġarrived": 5171,
      "Ġchap": 5172,
      "real": 5173,
      "Ä±": 5174,
      "German": 5175,
      "quarters": 5176,
      "izes": 5177,
      "ething": 5178,
      "ĠCy": 5179,
      "Ġnation": 5180,
      "ĠSupreme": 5181,
      "Ġproblem": 5182,
      "ging": 5183,
      "Ġsymb": 5184,
      "Ġthink": 5185,
      "Ġ1941": 5186,
      "Ġinside": 5187,
      "ÐµÐ½Ð¸": 5188,
      "Ġgre": 5189,
      "Ġtable": 5190,
      "ĠCop": 5191,
      "ĠMountain": 5192,
      "Ġdirection": 5193,
      "Canadian": 5194,
      "Ġ1939": 5195,
      "ĠJustice": 5196,
      "Ġdie": 5197,
      "inson": 5198,
      "text": 5199,
      "ĠStadium": 5200,
      "ĠBoth": 5201,
      "ĠChap": 5202,
      "Ġdedicated": 5203,
      "ieutenant": 5204,
      "imin": 5205,
      "Ġuns": 5206,
      "ĠPremier": 5207,
      "95": 5208,
      "edom": 5209,
      "Nov": 5210,
      "By": 5211,
      "Ġwinners": 5212,
      "orado": 5213,
      "amber": 5214,
      "lementary": 5215,
      "Ġblood": 5216,
      "Ġsecurity": 5217,
      "Ġpotential": 5218,
      "World": 5219,
      "Ġ1952": 5220,
      "Ġfollows": 5221,
      "Ġwinner": 5222,
      "Ġ70": 5223,
      "Ġpartn": 5224,
      "187": 5225,
      "Ġbehav": 5226,
      "Ġequipment": 5227,
      "Ac": 5228,
      "Ġlaws": 5229,
      "ĠPower": 5230,
      "Ġattend": 5231,
      "Ġgreen": 5232,
      "ifying": 5233,
      "Ne": 5234,
      "Ġfifth": 5235,
      "Ġofficially": 5236,
      "oto": 5237,
      "itled": 5238,
      "ecting": 5239,
      "yo": 5240,
      "anga": 5241,
      "SC": 5242,
      "imal": 5243,
      "Ġpp": 5244,
      "raq": 5245,
      "arrow": 5246,
      "Ġdestroyed": 5247,
      "ito": 5248,
      "ĠBaseball": 5249,
      "ternet": 5250,
      "hemat": 5251,
      "Ġasp": 5252,
      "ĠLady": 5253,
      "gs": 5254,
      "Ġliterature": 5255,
      "Ġgrowth": 5256,
      "idae": 5257,
      "Ġsport": 5258,
      "Ġacademic": 5259,
      "And": 5260,
      "ovak": 5261,
      "ĠIndepend": 5262,
      "Ed": 5263,
      "ĠFire": 5264,
      "Ġfellow": 5265,
      "ĠPoland": 5266,
      "ĠBrother": 5267,
      "Ã¸": 5268,
      "oles": 5269,
      "perial": 5270,
      "Ġdrums": 5271,
      "Ġoperating": 5272,
      "Ġdistricts": 5273,
      "Ġbasis": 5274,
      "enes": 5275,
      "Ġwalk": 5276,
      "Ġbegins": 5277,
      "Ġcommonly": 5278,
      "Ġtypically": 5279,
      "ĠDer": 5280,
      "Ġprote": 5281,
      "Ġoffers": 5282,
      "ĠTal": 5283,
      "ĠSev": 5284,
      "Gr": 5285,
      "Ġsn": 5286,
      "ĠHarv": 5287,
      "ĠHospital": 5288,
      "aro": 5289,
      "Ġperman": 5290,
      "ĠSom": 5291,
      "ĠDaniel": 5292,
      "oud": 5293,
      "Ġbackground": 5294,
      "Ġfiction": 5295,
      "ĠMaster": 5296,
      "ĠWork": 5297,
      "enge": 5298,
      "ĠMinnesota": 5299,
      "According": 5300,
      "ĠNetwork": 5301,
      "Ġrap": 5302,
      "uv": 5303,
      "ĠHong": 5304,
      "iary": 5305,
      "Ġdepartment": 5306,
      "ĠChris": 5307,
      "Ġsettlement": 5308,
      "Ġprojects": 5309,
      "Ġversions": 5310,
      "ns": 5311,
      "Ġ1954": 5312,
      "2013": 5313,
      "ĠDevelopment": 5314,
      "Ġopportun": 5315,
      "Ġimmediately": 5316,
      "former": 5317,
      "Ġ45": 5318,
      "Ġcontrovers": 5319,
      "Pop": 5320,
      "Ġolder": 5321,
      "Ġhosted": 5322,
      "Ġconducted": 5323,
      "Ġphysical": 5324,
      "ayer": 5325,
      "Ġserves": 5326,
      "Ġcitizens": 5327,
      "Ġdark": 5328,
      "Ġparties": 5329,
      "Ġreach": 5330,
      "ĠDuke": 5331,
      "icine": 5332,
      "anth": 5333,
      "ributed": 5334,
      "lyn": 5335,
      "Ġintended": 5336,
      "OS": 5337,
      "ĠConf": 5338,
      "ĠSwiss": 5339,
      "ĠBad": 5340,
      "Ġyet": 5341,
      "ãĥ": 5342,
      "iat": 5343,
      "ido": 5344,
      "ĠSus": 5345,
      "1994": 5346,
      "Ġx": 5347,
      "ivity": 5348,
      "Ġinterp": 5349,
      "ĠBishop": 5350,
      "Ġlyric": 5351,
      "ĠLo": 5352,
      "2014": 5353,
      "EC": 5354,
      "oration": 5355,
      "ographic": 5356,
      "usc": 5357,
      "part": 5358,
      "Ġ90": 5359,
      "Ġterritory": 5360,
      "inity": 5361,
      "Ġpurchased": 5362,
      "ĠRem": 5363,
      "Ġsemi": 5364,
      "Ġrevealed": 5365,
      "Ġdance": 5366,
      "ĠFe": 5367,
      "Ġmanagers": 5368,
      "Ġbeat": 5369,
      "itzerland": 5370,
      "Ġpoliticians": 5371,
      "rical": 5372,
      "Ġ1953": 5373,
      "ropolitan": 5374,
      "Ġpromoted": 5375,
      "iva": 5376,
      "ordin": 5377,
      "ĠRevolution": 5378,
      "ĠHuman": 5379,
      "Ġgas": 5380,
      "88": 5381,
      "Ġrepe": 5382,
      "ighth": 5383,
      "Ġstreng": 5384,
      "Ġneeded": 5385,
      "aud": 5386,
      "ĠHal": 5387,
      "Ġsens": 5388,
      "athan": 5389,
      "book": 5390,
      "Ġrat": 5391,
      "ĠSecretary": 5392,
      "Ġblue": 5393,
      "Ġinstitutions": 5394,
      "tra": 5395,
      "ĠNetherlands": 5396,
      "ĠFox": 5397,
      "Ġmax": 5398,
      "Ġplanned": 5399,
      "aped": 5400,
      "ression": 5401,
      "Ġovers": 5402,
      "iques": 5403,
      "Ġdistance": 5404,
      "ĠÑĤ": 5405,
      "Ġtal": 5406,
      "Ġpra": 5407,
      "Ġvote": 5408,
      "Ġresident": 5409,
      "Ġcombined": 5410,
      "Ġ36": 5411,
      "ui": 5412,
      "Ġcoaches": 5413,
      "Ġsaying": 5414,
      "500": 5415,
      "Ġwant": 5416,
      "ĠHay": 5417,
      "portation": 5418,
      "ĠAsian": 5419,
      "Ġfavor": 5420,
      "Ġslow": 5421,
      "Ġpaper": 5422,
      "06": 5423,
      "aska": 5424,
      "Ġsites": 5425,
      "ĠNations": 5426,
      "07": 5427,
      "uy": 5428,
      "ansion": 5429,
      "weight": 5430,
      "Ġengineer": 5431,
      "ĠSher": 5432,
      "Ġdistribution": 5433,
      "Ġnort": 5434,
      "Ġstreet": 5435,
      "onsin": 5436,
      "ĠRet": 5437,
      "ĠAnth": 5438,
      "ĠElizabeth": 5439,
      "ĠPers": 5440,
      "ounded": 5441,
      "Ġtreatment": 5442,
      "aks": 5443,
      "ĠLive": 5444,
      "International": 5445,
      "ĠAnton": 5446,
      "Olympic": 5447,
      "Ġgrew": 5448,
      "ĠFederal": 5449,
      "ader": 5450,
      "ĠClark": 5451,
      "isconsin": 5452,
      "bs": 5453,
      "University": 5454,
      "LA": 5455,
      "Ġtraffic": 5456,
      "ĠMedia": 5457,
      "acc": 5458,
      "usion": 5459,
      "bed": 5460,
      "opher": 5461,
      "aga": 5462,
      "Ġillust": 5463,
      "ova": 5464,
      "ĠAtt": 5465,
      "Ġmoving": 5466,
      "Ġlies": 5467,
      "eather": 5468,
      "Ġpurs": 5469,
      "agh": 5470,
      "Notable": 5471,
      "ĠCambridge": 5472,
      "Ġtarget": 5473,
      "ennessee": 5474,
      "Ġprominent": 5475,
      "Ġleaders": 5476,
      "Ġpiano": 5477,
      "outheast": 5478,
      "MA": 5479,
      "ĠÑĩ": 5480,
      "Ġurban": 5481,
      "Ġcounter": 5482,
      "Ġassigned": 5483,
      "Pr": 5484,
      "MS": 5485,
      "Ġtrains": 5486,
      "iated": 5487,
      "Ġ1951": 5488,
      "ĠBall": 5489,
      "Ġwa": 5490,
      "ĠBol": 5491,
      "Ġ1949": 5492,
      "ĠSimon": 5493,
      "ĠBooks": 5494,
      "Ġgraduated": 5495,
      "ĠBarb": 5496,
      "Ġinstrument": 5497,
      "ĠLt": 5498,
      "ĠJunior": 5499,
      "which": 5500,
      "ĠCommunity": 5501,
      "Ġplants": 5502,
      "ocese": 5503,
      "itness": 5504,
      "zo": 5505,
      "Ġquality": 5506,
      "ĠFollowing": 5507,
      "1992": 5508,
      "ĠFame": 5509,
      "odies": 5510,
      "Ġwidely": 5511,
      "rence": 5512,
      "water": 5513,
      "Ġrecover": 5514,
      "isted": 5515,
      "resh": 5516,
      "Will": 5517,
      "We": 5518,
      "lem": 5519,
      "ĠSenate": 5520,
      "ĠGolden": 5521,
      "You": 5522,
      "ĠKir": 5523,
      "Ġetc": 5524,
      "Year": 5525,
      "ĠAlso": 5526,
      "En": 5527,
      "ĠDespite": 5528,
      "Ġflight": 5529,
      "lers": 5530,
      "ĠTok": 5531,
      "ĠMarine": 5532,
      "Ġsearch": 5533,
      "Ġstra": 5534,
      "Ġowner": 5535,
      "Ġcharge": 5536,
      "ĠCE": 5537,
      "Ġactivity": 5538,
      "ĠPrim": 5539,
      "Ġrecon": 5540,
      "Ġvan": 5541,
      "SR": 5542,
      "ĠRom": 5543,
      "elligence": 5544,
      "pper": 5545,
      "Ġhop": 5546,
      "ĠAbb": 5547,
      "sey": 5548,
      "Ġelections": 5549,
      "ĠArmen": 5550,
      "Ġscholars": 5551,
      "Ġbad": 5552,
      "ibliography": 5553,
      "Biography": 5554,
      "gn": 5555,
      "yal": 5556,
      "Ġconstitu": 5557,
      "2015": 5558,
      "present": 5559,
      "esh": 5560,
      "Äį": 5561,
      "Ġcorrespond": 5562,
      "ĠDown": 5563,
      "ÅĤ": 5564,
      "onents": 5565,
      "ĠTechnology": 5566,
      "Ġgraph": 5567,
      "bro": 5568,
      "Ġenter": 5569,
      "ĠJon": 5570,
      "Ġgiving": 5571,
      "Ġbron": 5572,
      "ĠKorean": 5573,
      "Ġleaves": 5574,
      "ixed": 5575,
      "ening": 5576,
      "Ġapproach": 5577,
      "sky": 5578,
      "58": 5579,
      "Ġactually": 5580,
      "Ġboy": 5581,
      "ĠAh": 5582,
      "Ġsyn": 5583,
      "Ġrecently": 5584,
      "ogs": 5585,
      "Ġwithd": 5586,
      "ĠPolice": 5587,
      "Ġordered": 5588,
      "1993": 5589,
      "ĠTony": 5590,
      "ĠCirc": 5591,
      "ä½": 5592,
      "ori": 5593,
      "Ġdemonstr": 5594,
      "Ġpeace": 5595,
      "56": 5596,
      "Ġscoring": 5597,
      "Ġunknown": 5598,
      "Ġmess": 5599,
      "Ġpresence": 5600,
      "alo": 5601,
      "oln": 5602,
      "Ġimpact": 5603,
      "Ġarms": 5604,
      "room": 5605,
      "oli": 5606,
      "1970": 5607,
      "ĠJews": 5608,
      "Ġfirm": 5609,
      "Ġutil": 5610,
      "Ġemployed": 5611,
      "kin": 5612,
      "Ġethn": 5613,
      "ĠSwitzerland": 5614,
      "Ġdigital": 5615,
      "ĠHy": 5616,
      "Ġcoming": 5617,
      "ĠAff": 5618,
      "inner": 5619,
      "ÑģÐº": 5620,
      "ĠBrook": 5621,
      "Ġagreed": 5622,
      "Ġmixed": 5623,
      "Ġadopted": 5624,
      "Ġfigure": 5625,
      "Ġefforts": 5626,
      "onent": 5627,
      "weg": 5628,
      "Ġsituated": 5629,
      "aine": 5630,
      "Ġmunicipalities": 5631,
      "Ġrob": 5632,
      "Ġcontent": 5633,
      "Ġfast": 5634,
      "Ġconcent": 5635,
      "100": 5636,
      "Ġindustrial": 5637,
      "Ġ32": 5638,
      "ĠBat": 5639,
      "ĠOrgan": 5640,
      "åħ": 5641,
      "Ġclasses": 5642,
      "Ġsuffered": 5643,
      "aki": 5644,
      "ĠSpring": 5645,
      "Ġanalysis": 5646,
      "Ġpack": 5647,
      "Ġrecomm": 5648,
      "Ġspirit": 5649,
      "Geography": 5650,
      "vest": 5651,
      "acement": 5652,
      "Ġpued": 5653,
      "Ġprobably": 5654,
      "ĠGreg": 5655,
      "Ġestate": 5656,
      "Ġretire": 5657,
      "ĠArthur": 5658,
      "Ġportion": 5659,
      "Ġthings": 5660,
      "Ġallows": 5661,
      "ÐµÑĢ": 5662,
      "Ġpet": 5663,
      "iform": 5664,
      "Res": 5665,
      "Ġtrue": 5666,
      "olid": 5667,
      "ami": 5668,
      "Ġhousehold": 5669,
      "ĠSR": 5670,
      "Ġpattern": 5671,
      "achel": 5672,
      "Ġtells": 5673,
      "Ġchampion": 5674,
      "asty": 5675,
      "olved": 5676,
      "Ġcaptured": 5677,
      "edia": 5678,
      "Ġforward": 5679,
      "Ġroles": 5680,
      "Ġattention": 5681,
      "Ġrare": 5682,
      "Ġrespectively": 5683,
      "orders": 5684,
      "Ġfish": 5685,
      "anton": 5686,
      "Television": 5687,
      "lah": 5688,
      "Ġwins": 5689,
      "Ġmiles": 5690,
      "ĠBec": 5691,
      "Ġvari": 5692,
      "Ġcannot": 5693,
      "ĠWisconsin": 5694,
      "ĠPrime": 5695,
      "Ġdisease": 5696,
      "ĠIndiana": 5697,
      "Ġexpanded": 5698,
      "ĠTaylor": 5699,
      "iate": 5700,
      "Ġcells": 5701,
      "ĠBuild": 5702,
      "ĠKel": 5703,
      "rizona": 5704,
      "Ġexecut": 5705,
      "ibly": 5706,
      "ĠStephen": 5707,
      "ti": 5708,
      "uls": 5709,
      "Ġengineering": 5710,
      "Ġcompared": 5711,
      "57": 5712,
      "ĠIraq": 5713,
      "Ġlargely": 5714,
      "Ġalg": 5715,
      "ĠCountry": 5716,
      "CD": 5717,
      "Ġcolumn": 5718,
      "enna": 5719,
      "Ġnet": 5720,
      "98": 5721,
      "ooth": 5722,
      "42": 5723,
      "41": 5724,
      "yes": 5725,
      "ĠCzech": 5726,
      "08": 5727,
      "Ġprep": 5728,
      "Ġsplit": 5729,
      "anna": 5730,
      "ĠLy": 5731,
      "ĠReview": 5732,
      "South": 5733,
      "Ġclassical": 5734,
      "Ġcomposer": 5735,
      "ĠMunicip": 5736,
      "incial": 5737,
      "Ġsurrounding": 5738,
      "Ġtemple": 5739,
      "Ġsculpt": 5740,
      "Ã©e": 5741,
      "Ġsail": 5742,
      "Ġvillages": 5743,
      "Ġknowledge": 5744,
      "Ġgives": 5745,
      "ĠMemorial": 5746,
      "96": 5747,
      "Ġarts": 5748,
      "1991": 5749,
      "orph": 5750,
      "ĠMarc": 5751,
      "Ġcompeted": 5752,
      "works": 5753,
      "cluding": 5754,
      "Ġtree": 5755,
      "ĠSab": 5756,
      "aron": 5757,
      "itable": 5758,
      "Ġtalk": 5759,
      "ĠIv": 5760,
      "TA": 5761,
      "Ġtherefore": 5762,
      "sex": 5763,
      "Ġpositive": 5764,
      "ĠEarl": 5765,
      "Ġshop": 5766,
      "ĠHockey": 5767,
      "iders": 5768,
      "ĠLewis": 5769,
      "Ġtheatre": 5770,
      "also": 5771,
      "Ġcoin": 5772,
      "ER": 5773,
      "ĠMun": 5774,
      "Ġsecret": 5775,
      "ĠSweden": 5776,
      "Ġformerly": 5777,
      "ĠTennessee": 5778,
      "Ð¾Ð¹": 5779,
      "erto": 5780,
      "ĠId": 5781,
      "ĠTownship": 5782,
      "Ġsales": 5783,
      "SS": 5784,
      "osophy": 5785,
      "ĠSwedish": 5786,
      "ĠHun": 5787,
      "Ġabandon": 5788,
      "Ġcrime": 5789,
      "Co": 5790,
      "ĠStudies": 5791,
      "Ġcerem": 5792,
      "ĠRegister": 5793,
      "ĠDam": 5794,
      "andy": 5795,
      "ĠPit": 5796,
      "urd": 5797,
      "Ġagreement": 5798,
      "ĠIndust": 5799,
      "pur": 5800,
      "eller": 5801,
      "Ġfloor": 5802,
      "Ġrestaur": 5803,
      "Ġfell": 5804,
      "ĠWalk": 5805,
      "ĠProject": 5806,
      "law": 5807,
      "aret": 5808,
      "Ġdisestabl": 5809,
      "ĠWars": 5810,
      "Ġeas": 5811,
      "Ġgoes": 5812,
      "osen": 5813,
      "Ġadapt": 5814,
      "Ġhundred": 5815,
      "Ð»ÑĮ": 5816,
      "2016": 5817,
      "ĠNFL": 5818,
      "osis": 5819,
      "ervative": 5820,
      "Com": 5821,
      "Ġsays": 5822,
      "ĠUt": 5823,
      "ĠAnother": 5824,
      "igrants": 5825,
      "Ġgenus": 5826,
      "ĠOrig": 5827,
      "wing": 5828,
      "ancing": 5829,
      "ĠÐ·": 5830,
      "ĠMelbourne": 5831,
      "po": 5832,
      "Ġcontemporary": 5833,
      "Ã¢": 5834,
      "Ġconnected": 5835,
      "Ġgained": 5836,
      "Ġfounder": 5837,
      "ĠNorway": 5838,
      "ika": 5839,
      "restling": 5840,
      "omot": 5841,
      "ĠAlf": 5842,
      "ĠNaz": 5843,
      "apore": 5844,
      "Ġprincipal": 5845,
      "Ġcam": 5846,
      "bums": 5847,
      "Ġnewly": 5848,
      "Ġpict": 5849,
      "Ġspons": 5850,
      "Ġinjury": 5851,
      "Ġsubs": 5852,
      "Ġresulting": 5853,
      "ĠMarsh": 5854,
      "Ġdial": 5855,
      "ĠÎ": 5856,
      "Ġspread": 5857,
      "Ġvehicles": 5858,
      "een": 5859,
      "Ġaccepted": 5860,
      "Art": 5861,
      "Ġswim": 5862,
      "Football": 5863,
      "Ġjoint": 5864,
      "aling": 5865,
      "Ġvocal": 5866,
      "mph": 5867,
      "05": 5868,
      "ĠCaptain": 5869,
      "Ġtwice": 5870,
      "Ġunique": 5871,
      "ĠSav": 5872,
      "Ġarchitecture": 5873,
      "Ġroll": 5874,
      "Ġlibrary": 5875,
      "Ġtouch": 5876,
      "aints": 5877,
      "ĠGer": 5878,
      "Ġtaught": 5879,
      "regon": 5880,
      "Ġir": 5881,
      "Ã©t": 5882,
      "Ġestimated": 5883,
      "pool": 5884,
      "Ġgranted": 5885,
      "orge": 5886,
      "Ġstone": 5887,
      "Ġtrial": 5888,
      "Ġalt": 5889,
      "ĠRang": 5890,
      "aug": 5891,
      "ĠFamily": 5892,
      "Ġairport": 5893,
      "lease": 5894,
      "Ġdeclared": 5895,
      "Ġpressure": 5896,
      "ĠRoss": 5897,
      "Ġracing": 5898,
      "uther": 5899,
      "iling": 5900,
      "Ġbott": 5901,
      "Sources": 5902,
      "Ġresulted": 5903,
      "greg": 5904,
      "Back": 5905,
      "Ġmom": 5906,
      "mes": 5907,
      "Death": 5908,
      "Ġlearning": 5909,
      "Ġbronze": 5910,
      "43": 5911,
      "miss": 5912,
      "Ġ1938": 5913,
      "Ġspring": 5914,
      "Ġperformances": 5915,
      "97": 5916,
      "ĠYour": 5917,
      "Ġwild": 5918,
      "ĠArea": 5919,
      "Ġreduced": 5920,
      "ĠCO": 5921,
      "Ġsexual": 5922,
      "ois": 5923,
      "ji": 5924,
      "Ġtitled": 5925,
      "ĠProfessor": 5926,
      "ĠColon": 5927,
      "Ġ1936": 5928,
      "ĠMissouri": 5929,
      "ĠDun": 5930,
      "ĠBusiness": 5931,
      "Ġhap": 5932,
      "Disc": 5933,
      "joy": 5934,
      "Ġproviding": 5935,
      "ĠKentucky": 5936,
      "Ġimage": 5937,
      "Ġbal": 5938,
      "Ġdesignated": 5939,
      "ĠKansas": 5940,
      "Ġcricket": 5941,
      "AF": 5942,
      "Ġdamage": 5943,
      "ĠEP": 5944,
      "tainment": 5945,
      "ĠLev": 5946,
      "Ġrecognized": 5947,
      "ĠSquadron": 5948,
      "ĠSciences": 5949,
      "onym": 5950,
      "Ġexperiment": 5951,
      "Ġweight": 5952,
      "ivals": 5953,
      "ĠUs": 5954,
      "can": 5955,
      "Ġlabor": 5956,
      "ĠĠĠĠĠĠĠ": 5957,
      "mouth": 5958,
      "Ġsamp": 5959,
      "ĠMaria": 5960,
      "Ġfacility": 5961,
      "Ġmaintain": 5962,
      "owa": 5963,
      "estic": 5964,
      "Ġfaculty": 5965,
      "ĠManc": 5966,
      "Ġunderst": 5967,
      "ĠBi": 5968,
      "ĠLind": 5969,
      "ĠColorado": 5970,
      "Des": 5971,
      "ĠÐ½Ðµ": 5972,
      "Ġheav": 5973,
      "ĠTurkey": 5974,
      "uese": 5975,
      "Ġconflict": 5976,
      "Ġteacher": 5977,
      "ĠGreece": 5978,
      "ĠHou": 5979,
      "urches": 5980,
      "eline": 5981,
      "Ġattacks": 5982,
      "ĠFinal": 5983,
      "Ġcarri": 5984,
      "Ġgra": 5985,
      "Ġflag": 5986,
      "Ġgreater": 5987,
      "urer": 5988,
      "hr": 5989,
      "Ġcontact": 5990,
      "ĠHoly": 5991,
      "ĠEmperor": 5992,
      "Ġstars": 5993,
      "Ġaccomp": 5994,
      "umes": 5995,
      "unte": 5996,
      "ĠForm": 5997,
      "Def": 5998,
      "ĠAtlantic": 5999,
      "IA": 6000,
      "har": 6001,
      "lahoma": 6002,
      "Ġencour": 6003,
      "Ġcandidate": 6004,
      "Ġhands": 6005,
      "adesh": 6006,
      "ÑĤÐ¸": 6007,
      "Ġreference": 6008,
      "Ġstrugg": 6009,
      "roit": 6010,
      "anes": 6011,
      "leep": 6012,
      "pa": 6013,
      "yard": 6014,
      "Ġkept": 6015,
      "Ġwall": 6016,
      "ĠBrad": 6017,
      "rog": 6018,
      "West": 6019,
      "ĠMarg": 6020,
      ")\"": 6021,
      "ĠWat": 6022,
      "ingham": 6023,
      "Ġpun": 6024,
      "Ġminister": 6025,
      "66": 6026,
      "Ġmachine": 6027,
      "Australian": 6028,
      "å¤": 6029,
      "emic": 6030,
      "Ġparticipated": 6031,
      "Ġpropos": 6032,
      "Ġconcert": 6033,
      "olished": 6034,
      "Ġmill": 6035,
      "ĠHart": 6036,
      "Ġhar": 6037,
      "key": 6038,
      "stic": 6039,
      "under": 6040,
      "oster": 6041,
      "Ġsuppl": 6042,
      "Ġacting": 6043,
      "www": 6044,
      "Ġadministrative": 6045,
      "1989": 6046,
      "Ġpurpose": 6047,
      "Ġserious": 6048,
      "Ġfully": 6049,
      "ĠDavis": 6050,
      "77": 6051,
      "aver": 6052,
      "orney": 6053,
      "Ġcharts": 6054,
      "Ġsimply": 6055,
      "rell": 6056,
      "Ġcreation": 6057,
      "adi": 6058,
      "Ġrac": 6059,
      "IC": 6060,
      "'m": 6061,
      "09": 6062,
      "ĠStat": 6063,
      "Ġmut": 6064,
      "Ġgovernor": 6065,
      "Ġdefin": 6066,
      "ĠHan": 6067,
      "zy": 6068,
      "Ġtheme": 6069,
      "Ġrom": 6070,
      "Ġslight": 6071,
      "istered": 6072,
      "Ġbatt": 6073,
      "rawn": 6074,
      "ĠAdminist": 6075,
      "Ġoccurred": 6076,
      "incoln": 6077,
      "Rail": 6078,
      "Ġresources": 6079,
      "ĠGil": 6080,
      "hedral": 6081,
      "Ġlake": 6082,
      "Ġallowing": 6083,
      "ĠChristmas": 6084,
      "ĠCur": 6085,
      "Ġhall": 6086,
      "Ġthous": 6087,
      "Ġpositions": 6088,
      "Ġcontest": 6089,
      "Ġcondition": 6090,
      "Ġsuggest": 6091,
      "ĠConc": 6092,
      "Ġrural": 6093,
      "ĠRepresentatives": 6094,
      "Songs": 6095,
      "Ġfair": 6096,
      "Ġhousing": 6097,
      "ĠBrian": 6098,
      "Ġliber": 6099,
      "Ġanimals": 6100,
      "ifications": 6101,
      "'.": 6102,
      "à¤": 6103,
      "ĠTrust": 6104,
      "ĠEth": 6105,
      "Ġlosing": 6106,
      "claim": 6107,
      "igration": 6108,
      "from": 6109,
      "Bas": 6110,
      "ĠDiv": 6111,
      "iminal": 6112,
      "ĠMalays": 6113,
      "ateur": 6114,
      "ÑģÑı": 6115,
      "irmed": 6116,
      "Ġtele": 6117,
      "Ġranked": 6118,
      "PS": 6119,
      "mun": 6120,
      "Ð½Ð¸": 6121,
      "ĠEngineering": 6122,
      "Ġcastle": 6123,
      "Ġnotes": 6124,
      "Ġneighborhood": 6125,
      "Ġoldest": 6126,
      "Ġorganized": 6127,
      "Ġregions": 6128,
      "ĠHarry": 6129,
      "erick": 6130,
      "Ġcompletely": 6131,
      "Ġcas": 6132,
      "Ġclaims": 6133,
      "UK": 6134,
      "86": 6135,
      "ĠLeon": 6136,
      "Ã©n": 6137,
      "Â°": 6138,
      "Ġcouple": 6139,
      "Ġsomething": 6140,
      "zen": 6141,
      "Ġcontain": 6142,
      "Ġans": 6143,
      "Ġjournalist": 6144,
      "kes": 6145,
      "ĠChampions": 6146,
      "ĠPass": 6147,
      "life": 6148,
      "2017": 6149,
      "Ð¾Ð½": 6150,
      "ĠJer": 6151,
      "chers": 6152,
      "Ġmarked": 6153,
      "ĠWrit": 6154,
      "wealth": 6155,
      "Ġcaptain": 6156,
      "Ġcart": 6157,
      "To": 6158,
      "Ġaccident": 6159,
      "01": 6160,
      "ĠMilitary": 6161,
      "Ġhistoric": 6162,
      "æĪ": 6163,
      "Japan": 6164,
      "Ġbacking": 6165,
      "ĠBattalion": 6166,
      "outs": 6167,
      "ĠKal": 6168,
      "ructure": 6169,
      "ĠHamp": 6170,
      "Ġjourn": 6171,
      "eral": 6172,
      "elle": 6173,
      "Ġcovers": 6174,
      "ashion": 6175,
      "ĠColl": 6176,
      "Ġidentified": 6177,
      "May": 6178,
      "Fran": 6179,
      "Ġgrowing": 6180,
      "eding": 6181,
      "52": 6182,
      "ĠKhan": 6183,
      "cont": 6184,
      "Ġchalleng": 6185,
      "Ġpasses": 6186,
      "Ġyounger": 6187,
      "see": 6188,
      "asters": 6189,
      "ĠTemple": 6190,
      "Ġcritical": 6191,
      "Ġlyrics": 6192,
      "ĠPhilip": 6193,
      "ĠChannel": 6194,
      "59": 6195,
      "ĠFrancis": 6196,
      "Ġ1918": 6197,
      "French": 6198,
      "aria": 6199,
      "Ġofficials": 6200,
      "Ð¾Ð¶": 6201,
      "Ġreceive": 6202,
      "Ġsafety": 6203,
      "acts": 6204,
      "1988": 6205,
      "cow": 6206,
      "Ġfelt": 6207,
      "ĠFle": 6208,
      "Par": 6209,
      "Ġcustom": 6210,
      "Ġfans": 6211,
      "ÑĢÐ¾": 6212,
      "ĠCre": 6213,
      "Ġeducated": 6214,
      "ĠArizona": 6215,
      "Ġreform": 6216,
      "uma": 6217,
      "Ġinhabit": 6218,
      "Ġ1937": 6219,
      "Ġsevent": 6220,
      "lan": 6221,
      "Ġwing": 6222,
      "Ġcombat": 6223,
      "tr": 6224,
      "1987": 6225,
      "enny": 6226,
      "ownt": 6227,
      "Ġconvers": 6228,
      "ublin": 6229,
      "Hon": 6230,
      "Ġopera": 6231,
      "Ġlot": 6232,
      "western": 6233,
      "Ġtower": 6234,
      "ĠWeek": 6235,
      "ĠBos": 6236,
      "ĠBalt": 6237,
      "ga": 6238,
      "keep": 6239,
      "je": 6240,
      "wich": 6241,
      "Ġreports": 6242,
      "Ġvot": 6243,
      "ĠOregon": 6244,
      "Ġmaterials": 6245,
      "ibb": 6246,
      "raine": 6247,
      "Ġcancer": 6248,
      "Ġdocumentary": 6249,
      "Ġchairman": 6250,
      "ĠDor": 6251,
      "anning": 6252,
      "ĠNap": 6253,
      "ĠStock": 6254,
      "Act": 6255,
      "Ġvisit": 6256,
      "ĠHard": 6257,
      "agan": 6258,
      "Ġexisting": 6259,
      "General": 6260,
      "Ġvolume": 6261,
      "iny": 6262,
      "Ġhy": 6263,
      "Ġvehicle": 6264,
      "Ġexpected": 6265,
      "Ġtim": 6266,
      "Ġconsum": 6267,
      "ĠQuebec": 6268,
      "net": 6269,
      "51": 6270,
      "Ġwear": 6271,
      "Ġsettled": 6272,
      "ĠMaryland": 6273,
      "Ġ...": 6274,
      "oes": 6275,
      "Qu": 6276,
      "ordon": 6277,
      "Ġeffort": 6278,
      "wegian": 6279,
      "ĠRoy": 6280,
      "Ġleadership": 6281,
      "Ab": 6282,
      "Ġtried": 6283,
      "iller": 6284,
      "Ġsets": 6285,
      "Ġmind": 6286,
      "illery": 6287,
      "54": 6288,
      "ĠFree": 6289,
      "Ġfestival": 6290,
      "ĠPrin": 6291,
      "Awards": 6292,
      "Ġpaid": 6293,
      "ician": 6294,
      "oren": 6295,
      "ista": 6296,
      "Ġcab": 6297,
      "Ġrecip": 6298,
      "iants": 6299,
      "Ġends": 6300,
      "Ġcorrect": 6301,
      "ĠEntertainment": 6302,
      "ectic": 6303,
      "IT": 6304,
      "ĠKim": 6305,
      "ĠBon": 6306,
      "53": 6307,
      "ressed": 6308,
      "Ġformation": 6309,
      "Ġbrothers": 6310,
      "Bibliography": 6311,
      "Ġbow": 6312,
      "Ġbeaut": 6313,
      "pet": 6314,
      "Ġfinish": 6315,
      "lywood": 6316,
      "ĠGi": 6317,
      "76": 6318,
      "Ġsimple": 6319,
      "ĠMinistry": 6320,
      "ĠRen": 6321,
      "ĠDVD": 6322,
      "Ġfighting": 6323,
      "Ġ*": 6324,
      "ĠTrain": 6325,
      "Ġpair": 6326,
      "Ġloan": 6327,
      "mers": 6328,
      "ĠHo": 6329,
      "ĠSem": 6330,
      "ĠMic": 6331,
      "Ġvess": 6332,
      "Ġpolitics": 6333,
      "Ġsupply": 6334,
      "2018": 6335,
      "Ġtry": 6336,
      "What": 6337,
      "roup": 6338,
      "Ġmeasure": 6339,
      "Ġburied": 6340,
      "uses": 6341,
      "ĠPolit": 6342,
      "Ñī": 6343,
      "Ġauthorities": 6344,
      "Ġreviews": 6345,
      "Ġcho": 6346,
      "=#": 6347,
      "ĠMiller": 6348,
      "ĠBillboard": 6349,
      "Ġ38": 6350,
      "1986": 6351,
      "Ġstream": 6352,
      "Ġmap": 6353,
      "å®": 6354,
      "ials": 6355,
      "Ġgirls": 6356,
      "Ġsquare": 6357,
      "Ġsuggested": 6358,
      "Ġ1935": 6359,
      "Ġfolk": 6360,
      "GB": 6361,
      "ĠSix": 6362,
      "ĠHur": 6363,
      "Ġtrust": 6364,
      "Ġextra": 6365,
      "ĠBack": 6366,
      "ĠTelevision": 6367,
      "ĠBurn": 6368,
      "ĠFederation": 6369,
      "ĠMas": 6370,
      "isa": 6371,
      "ĠStand": 6372,
      "Ġtrees": 6373,
      "Ġportray": 6374,
      "Ġ33": 6375,
      "ĠĠĠĠĠĠĠĠĠĠĠĠĠĠĠĠ": 6376,
      "ĠSpace": 6377,
      "Ġsides": 6378,
      "elsh": 6379,
      "Ġsay": 6380,
      "imens": 6381,
      "jo": 6382,
      "Ġexpansion": 6383,
      "Ġhorse": 6384,
      "tters": 6385,
      "endo": 6386,
      "ĠÑĥ": 6387,
      "1984": 6388,
      "inder": 6389,
      "Ġnormal": 6390,
      "Ġarrang": 6391,
      "Ġoccasion": 6392,
      "ĠVietnam": 6393,
      "Ġseem": 6394,
      "Ġpowerful": 6395,
      "ĠSin": 6396,
      "ttp": 6397,
      "Ġnecessary": 6398,
      "Ġvalley": 6399,
      "Ġcert": 6400,
      "ĠSound": 6401,
      "ĠTurn": 6402,
      "rum": 6403,
      "1983": 6404,
      "Ġhero": 6405,
      "ĠManchester": 6406,
      "Cont": 6407,
      "Ġsituation": 6408,
      "Ġauthority": 6409,
      "Ġmis": 6410,
      "leased": 6411,
      "Ġapart": 6412,
      "Ġonto": 6413,
      "ĠPier": 6414,
      "Ġsac": 6415,
      "Ġbought": 6416,
      "Ġmethods": 6417,
      "ĠCroat": 6418,
      "Ġstock": 6419,
      "ĠMoon": 6420,
      "Ġfeet": 6421,
      "Ġoccupied": 6422,
      "ĠStory": 6423,
      "Ġreserv": 6424,
      "ĠIr": 6425,
      "redited": 6426,
      "\"),": 6427,
      "Ġyards": 6428,
      "ĠDoctor": 6429,
      "ĠPhilippines": 6430,
      "Ġmeant": 6431,
      "ĠSingapore": 6432,
      "Ġadvert": 6433,
      "Ġmusician": 6434,
      "cluded": 6435,
      "ĠAD": 6436,
      "Ġcreating": 6437,
      "ĠVi": 6438,
      "Ġmemory": 6439,
      "ĠFord": 6440,
      "ikh": 6441,
      "Ġexchange": 6442,
      "ĠNic": 6443,
      "Ġsucceeded": 6444,
      "uled": 6445,
      "ĠPlaces": 6446,
      "ĠArgentina": 6447,
      "Ġtwenty": 6448,
      "utt": 6449,
      "endment": 6450,
      "ĠHere": 6451,
      "ques": 6452,
      "Gu": 6453,
      "æĺ": 6454,
      "Ġdrive": 6455,
      "Ġattempts": 6456,
      "Ġagent": 6457,
      "Ġinform": 6458,
      "Ġdoub": 6459,
      "ĠNev": 6460,
      "ban": 6461,
      "Ġrelatively": 6462,
      "Since": 6463,
      "Ġfrequently": 6464,
      "aph": 6465,
      "inally": 6466,
      "ĠMexican": 6467,
      "Ġdaily": 6468,
      "Ġrot": 6469,
      "Ġshowed": 6470,
      "orf": 6471,
      "Ġharm": 6472,
      "ĠAustria": 6473,
      "ĠHamilton": 6474,
      "Ġteaching": 6475,
      "03": 6476,
      "ĠPlan": 6477,
      "econd": 6478,
      "dale": 6479,
      "Ġheadquarters": 6480,
      "inch": 6481,
      "Äĥ": 6482,
      "ĠShort": 6483,
      "Ġadvanced": 6484,
      "ĠHeart": 6485,
      "Ġgod": 6486,
      "AM": 6487,
      "Dav": 6488,
      "Ġraces": 6489,
      "Ġmicro": 6490,
      "organ": 6491,
      "ĠHonor": 6492,
      "Euro": 6493,
      "Ġmorning": 6494,
      "78": 6495,
      "Ġaired": 6496,
      "ĠTa": 6497,
      "Ġdefined": 6498,
      "Ġalternative": 6499,
      "Ġeffective": 6500,
      "aming": 6501,
      "Ġneeds": 6502,
      "ĠEconom": 6503,
      "ĠTest": 6504,
      "Ġscript": 6505,
      "Ġvirt": 6506,
      "ĠPoint": 6507,
      "iot": 6508,
      "oven": 6509,
      "apolis": 6510,
      "Ġmulti": 6511,
      "ĠSunday": 6512,
      "Ġroyal": 6513,
      "2019": 6514,
      "Ġvenues": 6515,
      "Ġspot": 6516,
      "Ġpromotion": 6517,
      "ĠDisc": 6518,
      "ĠDark": 6519,
      "Ð¾Ð±": 6520,
      "Ġarticles": 6521,
      "Ġreturning": 6522,
      "ĠIV": 6523,
      "ieval": 6524,
      "Ġenjoy": 6525,
      "ĠEach": 6526,
      "ĠRon": 6527,
      "ĠReal": 6528,
      "weet": 6529,
      "ĠOklahoma": 6530,
      "rees": 6531,
      "Ġfigures": 6532,
      "ĠTen": 6533,
      "hu": 6534,
      "ĠEric": 6535,
      "1979": 6536,
      "ĠOrchestra": 6537,
      "Ġsingers": 6538,
      "Ġcomput": 6539,
      "Ð½Ð°": 6540,
      "car": 6541,
      "oured": 6542,
      "Ġapplied": 6543,
      "Ġgar": 6544,
      "ĠDream": 6545,
      "iones": 6546,
      "Ġ1928": 6547,
      "04": 6548,
      "ĠWolf": 6549,
      "ĠFM": 6550,
      "ĠDesign": 6551,
      "Å«": 6552,
      "1985": 6553,
      "While": 6554,
      "ĠHand": 6555,
      "ĠAud": 6556,
      "Ġholds": 6557,
      "ecticut": 6558,
      "Ġsynt": 6559,
      "achers": 6560,
      "Ġfields": 6561,
      "ĠHoward": 6562,
      "Ġbrand": 6563,
      "Ġdraft": 6564,
      "Ġpod": 6565,
      "everal": 6566,
      "Ġvent": 6567,
      "Ġcomo": 6568,
      "ĠCemetery": 6569,
      "ĠAM": 6570,
      "ĠFer": 6571,
      "'re": 6572,
      "related": 6573,
      "iplom": 6574,
      "ĠSu": 6575,
      "inth": 6576,
      "Ġda": 6577,
      "Ġhappen": 6578,
      "ĠInfantry": 6579,
      "Ġcompl": 6580,
      "itter": 6581,
      "ĠBoys": 6582,
      "Ġplayoff": 6583,
      "Build": 6584,
      "ĠLincoln": 6585,
      "Ġactions": 6586,
      "Ġentry": 6587,
      "ĠQueensland": 6588,
      "Ġ1933": 6589,
      "Ġrow": 6590,
      "åĪ": 6591,
      "Ġadult": 6592,
      "ĠOd": 6593,
      "ĠOp": 6594,
      "Ġsons": 6595,
      "Ġscientific": 6596,
      "Ġsurn": 6597,
      "ĠPu": 6598,
      "ĠHu": 6599,
      "fort": 6600,
      "1960": 6601,
      "ĠGall": 6602,
      "bell": 6603,
      "awn": 6604,
      "evin": 6605,
      "ĠMoscow": 6606,
      "Ġ1919": 6607,
      "Ġsense": 6608,
      "Ġ1929": 6609,
      "ĠTit": 6610,
      "agu": 6611,
      "Ġinspired": 6612,
      "Ġlaunch": 6613,
      "Ġrapid": 6614,
      "Ġmerged": 6615,
      "jan": 6616,
      "Ð»Ñı": 6617,
      "Dec": 6618,
      "ĠDiego": 6619,
      "Ġguest": 6620,
      "Ġsubsequent": 6621,
      "1982": 6622,
      "Ġimpl": 6623,
      "Ġcenturies": 6624,
      "Ġpartner": 6625,
      "ĠAdvent": 6626,
      "Ġchosen": 6627,
      "ĠStone": 6628,
      "ensis": 6629,
      "Ġconverted": 6630,
      "Ġending": 6631,
      "ropri": 6632,
      "Ġ37": 6633,
      "ĠDig": 6634,
      "agen": 6635,
      "Ġdat": 6636,
      "Ġaudience": 6637,
      "urance": 6638,
      "hips": 6639,
      "ĠIndones": 6640,
      "Ġachieved": 6641,
      "Ġprepar": 6642,
      "Ital": 6643,
      "wise": 6644,
      "ĠLike": 6645,
      "odox": 6646,
      "ĠAmericans": 6647,
      "Ġresc": 6648,
      "Ġkil": 6649,
      "ici": 6650,
      "Ġ1914": 6651,
      "Ġnominated": 6652,
      "ĠÄ": 6653,
      "Ġrespond": 6654,
      "Ġfinds": 6655,
      "ĠBowl": 6656,
      "Ġconference": 6657,
      "Ġdropped": 6658,
      "irty": 6659,
      "Ġmetres": 6660,
      "64": 6661,
      "Ġways": 6662,
      "ĠNow": 6663,
      "ĠTai": 6664,
      "Ġcoal": 6665,
      "ĠSon": 6666,
      "Ġearth": 6667,
      "çĶ": 6668,
      "ĠNick": 6669,
      "Ġwinter": 6670,
      "Cast": 6671,
      "lines": 6672,
      "lets": 6673,
      "Ġburn": 6674,
      "Ġaim": 6675,
      "ĠTs": 6676,
      "Ġretirement": 6677,
      "ĠLin": 6678,
      "Ġletters": 6679,
      "PA": 6680,
      "ĠTurkish": 6681,
      "Ġrefused": 6682,
      "Christ": 6683,
      "Ġproperties": 6684,
      "ented": 6685,
      "Ġethnic": 6686,
      "ega": 6687,
      "elve": 6688,
      "Ġnarrow": 6689,
      "Ġrain": 6690,
      "uccess": 6691,
      "appy": 6692,
      "Ġcompilation": 6693,
      "uing": 6694,
      "Ġpassing": 6695,
      "ulate": 6696,
      "ĠBron": 6697,
      "Some": 6698,
      "ĠRun": 6699,
      "gest": 6700,
      "William": 6701,
      "ĠOt": 6702,
      "Former": 6703,
      "Ġrh": 6704,
      "Ġcommander": 6705,
      "abama": 6706,
      "Ass": 6707,
      "ĠWho": 6708,
      "Ġreject": 6709,
      "Ġunable": 6710,
      "ules": 6711,
      "vo": 6712,
      "Ġvs": 6713,
      "ĠDave": 6714,
      "Ġinhabitants": 6715,
      "Ġproceed": 6716,
      "02": 6717,
      "ĠMedical": 6718,
      "Ġbul": 6719,
      "FM": 6720,
      "iful": 6721,
      "North": 6722,
      "glas": 6723,
      "ifically": 6724,
      "ĠAuthor": 6725,
      "Ġperforming": 6726,
      "Ġfun": 6727,
      "Ġbusinesses": 6728,
      "ĠLabor": 6729,
      "ugar": 6730,
      "ogy": 6731,
      "ĠPict": 6732,
      "Ġstarring": 6733,
      "Ġvotes": 6734,
      "uly": 6735,
      "eption": 6736,
      "Ġcontaining": 6737,
      "Ġpublication": 6738,
      "antasy": 6739,
      "ĠAcc": 6740,
      "Ġrang": 6741,
      "Ġ1932": 6742,
      "è¿": 6743,
      "ĠBuddh": 6744,
      "box": 6745,
      "iami": 6746,
      "Ġenemy": 6747,
      "enez": 6748,
      "Ġ49": 6749,
      "Ġprotection": 6750,
      "Ð²Ð°": 6751,
      "Ġvac": 6752,
      "Ġexclus": 6753,
      "ĠComics": 6754,
      "Ġapplication": 6755,
      "ek": 6756,
      "Ġextensive": 6757,
      "ĠCape": 6758,
      "ĠModern": 6759,
      "Ġpiece": 6760,
      "1981": 6761,
      "Ġrefers": 6762,
      "ĠBeng": 6763,
      "illing": 6764,
      "Ġbasic": 6765,
      "ĠRegional": 6766,
      "Official": 6767,
      "ĠServices": 6768,
      "olas": 6769,
      "ĠRose": 6770,
      "ĠManagement": 6771,
      "owntown": 6772,
      "ographer": 6773,
      "Video": 6774,
      "Ġrisk": 6775,
      "Following": 6776,
      "ĠDal": 6777,
      "ĠKey": 6778,
      "ĠAnderson": 6779,
      "Ġ1934": 6780,
      "stream": 6781,
      "Ġfunctions": 6782,
      "ĠChile": 6783,
      "89": 6784,
      "Ġdriver": 6785,
      "iti": 6786,
      "Ġarrested": 6787,
      "ĠWhat": 6788,
      "ĠDublin": 6789,
      "ĠLeb": 6790,
      "Ġspect": 6791,
      "oen": 6792,
      "agues": 6793,
      "Ġwrite": 6794,
      "ĠCommand": 6795,
      "Ġcycl": 6796,
      "adow": 6797,
      "Ġcompetitions": 6798,
      "leges": 6799,
      "ĠConnecticut": 6800,
      "run": 6801,
      "ĠMember": 6802,
      "ĠJane": 6803,
      "Ġyellow": 6804,
      "anz": 6805,
      "Ġguard": 6806,
      "Ġstraight": 6807,
      "ĠMach": 6808,
      "Ġmayor": 6809,
      "Ġhabit": 6810,
      "Ġrival": 6811,
      "Ġvir": 6812,
      "ĠFront": 6813,
      "uda": 6814,
      "Ġnortheast": 6815,
      "Ġlocations": 6816,
      "phas": 6817,
      "ĠAllen": 6818,
      "Ġbroke": 6819,
      "Ġnob": 6820,
      "ados": 6821,
      "Ġcomic": 6822,
      "oly": 6823,
      "ĠLegisl": 6824,
      "Ġox": 6825,
      "ho": 6826,
      "ĠSilver": 6827,
      "uties": 6828,
      "fficient": 6829,
      "Ġdistingu": 6830,
      "Ġelimin": 6831,
      "Ġimpr": 6832,
      "ĠBah": 6833,
      "Ġ1900": 6834,
      "Ġinstall": 6835,
      "Ġmel": 6836,
      "Public": 6837,
      "Ġactresses": 6838,
      "olo": 6839,
      "Ġcopies": 6840,
      "ĠMagazine": 6841,
      "yst": 6842,
      "Ġseats": 6843,
      "Ġ1924": 6844,
      "ĠJesus": 6845,
      "atus": 6846,
      "iner": 6847,
      "prise": 6848,
      "uilt": 6849,
      "mo": 6850,
      "Ġbey": 6851,
      "Ġjur": 6852,
      "ĠSenior": 6853,
      "iley": 6854,
      "Ġjudge": 6855,
      "Ġconstant": 6856,
      "ĠWhit": 6857,
      "ĠHouston": 6858,
      "Ġcompar": 6859,
      "ĠAge": 6860,
      "Ġsignal": 6861,
      "Ġjazz": 6862,
      "ĠCost": 6863,
      "Ġflood": 6864,
      "ĠAlan": 6865,
      "ĠOffic": 6866,
      "ST": 6867,
      "Ġattempted": 6868,
      "orough": 6869,
      "tsburgh": 6870,
      "ĠPortuguese": 6871,
      "Ġtun": 6872,
      "ĠReb": 6873,
      "Ġnuclear": 6874,
      "iang": 6875,
      "ĠOak": 6876,
      "ĠAbd": 6877,
      "Exp": 6878,
      "ĠBrigade": 6879,
      "ĠLas": 6880,
      "ĠForces": 6881,
      "Ġshared": 6882,
      "ĠTrib": 6883,
      "ĠWalter": 6884,
      "ĠRecord": 6885,
      "Ġapproved": 6886,
      "''": 6887,
      "Ġavoid": 6888,
      "Ġsixth": 6889,
      "Ġreligion": 6890,
      "Ġsetting": 6891,
      "cha": 6892,
      "Ġbeyond": 6893,
      "Ġincident": 6894,
      "istant": 6895,
      "Ġhotel": 6896,
      "Ġentitled": 6897,
      "Ġdefend": 6898,
      "Ġsportspeople": 6899,
      "Ġinstruct": 6900,
      "come": 6901,
      "iversary": 6902,
      "Ġrecordings": 6903,
      "ĠRugby": 6904,
      "Ġ34": 6905,
      "aby": 6906,
      "Ġcommittee": 6907,
      "bar": 6908,
      "ĠSum": 6909,
      "Ġfought": 6910,
      "Ġ1917": 6911,
      "Ġpilot": 6912,
      "Ġcalls": 6913,
      "ĠDick": 6914,
      "Ġparliament": 6915,
      "ymn": 6916,
      "ÃŃn": 6917,
      "aved": 6918,
      "Ġroads": 6919,
      "ĠGard": 6920,
      "ĠRa": 6921,
      "actions": 6922,
      "Ġbegin": 6923,
      "ĠPatrick": 6924,
      "IN": 6925,
      "Ġfuel": 6926,
      "place": 6927,
      "ĠLow": 6928,
      "Ġmatter": 6929,
      "Ġeconomy": 6930,
      "Ġpermanent": 6931,
      "ĠGallery": 6932,
      "season": 6933,
      "Ġvert": 6934,
      "Ġapparent": 6935,
      "style": 6936,
      "Ġ1927": 6937,
      "Sing": 6938,
      "allas": 6939,
      "iamond": 6940,
      "1978": 6941,
      "Ġheight": 6942,
      "85": 6943,
      "unch": 6944,
      "ĠRad": 6945,
      "ĠDu": 6946,
      "allel": 6947,
      "Ġreflect": 6948,
      "Ġobtained": 6949,
      "Ġhomes": 6950,
      "Ġhyp": 6951,
      "Ġconfirmed": 6952,
      "ĠKat": 6953,
      "ĠAdam": 6954,
      "Ġhistorian": 6955,
      "onder": 6956,
      "acent": 6957,
      "ĠDetroit": 6958,
      "fit": 6959,
      "ht": 6960,
      "ples": 6961,
      "92": 6962,
      "ĠLat": 6963,
      "ĠAC": 6964,
      "burn": 6965,
      "Ġles": 6966,
      "hing": 6967,
      "ĠMit": 6968,
      "Ġsurvey": 6969,
      "do": 6970,
      "porter": 6971,
      "thodox": 6972,
      "Ġultimately": 6973,
      "ĠDur": 6974,
      "ipe": 6975,
      "leveland": 6976,
      "Ġquant": 6977,
      "Ġlands": 6978,
      "Ġpros": 6979,
      "oa": 6980,
      "hat": 6981,
      "Ġring": 6982,
      "ourses": 6983,
      "Ġadap": 6984,
      "Ġopposition": 6985,
      "Ġ(),": 6986,
      "set": 6987,
      "ugu": 6988,
      "ĠBeat": 6989,
      "Ġderived": 6990,
      "rant": 6991,
      "Ġerr": 6992,
      "ĠDomin": 6993,
      "è¯": 6994,
      "ĠLtd": 6995,
      "orage": 6996,
      "Ġglobal": 6997,
      "Ġ1931": 6998,
      "posed": 6999,
      "Ġattacked": 7000,
      "ĠBan": 7001,
      "inema": 7002,
      "Ġtemperature": 7003,
      "fall": 7004,
      "ĠPA": 7005,
      "ardo": 7006,
      "Ġweapons": 7007,
      "encia": 7008,
      "ĠAlabama": 7009,
      "Ġtechnical": 7010,
      "ĠHills": 7011,
      "ĠLiter": 7012,
      "Ġham": 7013,
      "ĠIslamic": 7014,
      "gers": 7015,
      "ghan": 7016,
      "Ġ1922": 7017,
      "Ġdeploy": 7018,
      "ĠSchools": 7019,
      "riff": 7020,
      "boards": 7021,
      "Ġtend": 7022,
      "Ġshortly": 7023,
      "oslav": 7024,
      "2020": 7025,
      "Ġhydro": 7026,
      "night": 7027,
      "die": 7028,
      "ĠBou": 7029,
      "Ġeducational": 7030,
      "ĠNik": 7031,
      "Ġpowers": 7032,
      "School": 7033,
      "ĠChildren": 7034,
      "Plot": 7035,
      "ryst": 7036,
      "Reg": 7037,
      "friend": 7038,
      "Ġescape": 7039,
      "oming": 7040,
      "ĠJam": 7041,
      "Ġopposed": 7042,
      "pass": 7043,
      "Ġdoctor": 7044,
      "hammad": 7045,
      "OR": 7046,
      "ĠSel": 7047,
      "Ġcompris": 7048,
      "Ġglass": 7049,
      "ĠPot": 7050,
      "ser": 7051,
      "Ġacts": 7052,
      "ogen": 7053,
      "ĠSri": 7054,
      "orter": 7055,
      "93": 7056,
      "Ġfounding": 7057,
      "1974": 7058,
      "Ġconnection": 7059,
      "kh": 7060,
      "arks": 7061,
      "fr": 7062,
      "ÐµÐ¼": 7063,
      "Ġ1910": 7064,
      "Rep": 7065,
      "ĠLu": 7066,
      "enz": 7067,
      "GA": 7068,
      "Phil": 7069,
      "ussion": 7070,
      "Ġheard": 7071,
      "aux": 7072,
      "Ġ1926": 7073,
      "Ġ300": 7074,
      "elson": 7075,
      "ĠBuilding": 7076,
      "Ð»Ð°": 7077,
      "Ġdirectors": 7078,
      "ĠWell": 7079,
      "Sup": 7080,
      "anger": 7081,
      "åĲ": 7082,
      "elli": 7083,
      "ĠPope": 7084,
      "1976": 7085,
      "lined": 7086,
      "argo": 7087,
      "ivate": 7088,
      "active": 7089,
      "Ġsoccer": 7090,
      "Ġadvant": 7091,
      "ĠJacob": 7092,
      "where": 7093,
      "ĠStew": 7094,
      "\").": 7095,
      "Ġacid": 7096,
      "udget": 7097,
      "Ġconsecutive": 7098,
      "Ġagricultural": 7099,
      "ache": 7100,
      "Ġplanning": 7101,
      "ĠGram": 7102,
      "iments": 7103,
      "di": 7104,
      "Ġoffices": 7105,
      "EFA": 7106,
      "ĠTy": 7107,
      "Ġdoing": 7108,
      "Ġ1921": 7109,
      "ĠAffairs": 7110,
      "ĠFellow": 7111,
      "Ġrough": 7112,
      "Ġanimal": 7113,
      "Education": 7114,
      "Born": 7115,
      "Ġadvent": 7116,
      "ĠEag": 7117,
      "94": 7118,
      "Ġrecru": 7119,
      "Ġconsult": 7120,
      "ĠColomb": 7121,
      "Ġpassenger": 7122,
      "Ġslightly": 7123,
      "ĠDead": 7124,
      "ĠLouisiana": 7125,
      "Ġtrav": 7126,
      "Ġactual": 7127,
      "Ġprotect": 7128,
      "Ġ(;": 7129,
      "Ġvisited": 7130,
      "ĠVis": 7131,
      "imore": 7132,
      "1977": 7133,
      "itionally": 7134,
      "Ġidentity": 7135,
      "ropical": 7136,
      "Ġbands": 7137,
      "Ġconsisted": 7138,
      "Ġboys": 7139,
      "Car": 7140,
      "ĠCommonwealth": 7141,
      "Life": 7142,
      "icians": 7143,
      "rome": 7144,
      "Ġnick": 7145,
      "ĠCab": 7146,
      "Ġexam": 7147,
      "Ġpainting": 7148,
      "Ġheavily": 7149,
      "ĠSky": 7150,
      "fe": 7151,
      "ĠMand": 7152,
      "Ġpages": 7153,
      "ĠÑį": 7154,
      "Over": 7155,
      "Elect": 7156,
      "while": 7157,
      "Ġ1923": 7158,
      "ĠElementary": 7159,
      "sch": 7160,
      "oyd": 7161,
      "ĠSquare": 7162,
      "igation": 7163,
      "Ġstarts": 7164,
      "My": 7165,
      "ĠMoore": 7166,
      "Ġrenov": 7167,
      "Ġconce": 7168,
      "ĠLabour": 7169,
      "Ġsteel": 7170,
      "ĠNich": 7171,
      "Ġspok": 7172,
      "Ġturns": 7173,
      "ivalent": 7174,
      "Ġ48": 7175,
      "Ġcritics": 7176,
      "Ġimprove": 7177,
      "Ġpoetry": 7178,
      "azines": 7179,
      "casting": 7180,
      "zz": 7181,
      "Ġiron": 7182,
      "Ġabandoned": 7183,
      "ĠGordon": 7184,
      "Ġrein": 7185,
      "Ġkilling": 7186,
      "ippi": 7187,
      "ĠNag": 7188,
      "ĠTokyo": 7189,
      "ĠFIFA": 7190,
      "Ġtrying": 7191,
      "Although": 7192,
      "ussian": 7193,
      "ĠTig": 7194,
      "Military": 7195,
      "ĠForeign": 7196,
      "ĠExpress": 7197,
      "))": 7198,
      "If": 7199,
      "scape": 7200,
      "ĠStudios": 7201,
      "Ġreasons": 7202,
      "ĠMPs": 7203,
      "ĠAnthony": 7204,
      "isms": 7205,
      "Ġextrem": 7206,
      "don": 7207,
      "Ġdefense": 7208,
      "ĠAli": 7209,
      "ensity": 7210,
      "Ġvo": 7211,
      "issance": 7212,
      "ordan": 7213,
      "Ġrear": 7214,
      "spec": 7215,
      "Ġexperi": 7216,
      "Ġmaximum": 7217,
      "ĠPhill": 7218,
      "Writ": 7219,
      "ĠInformation": 7220,
      "SI": 7221,
      "Ãł": 7222,
      "gency": 7223,
      "ocation": 7224,
      "ĠImp": 7225,
      "gal": 7226,
      "åĴ": 7227,
      "Per": 7228,
      "inners": 7229,
      "fully": 7230,
      "Ġentrance": 7231,
      "idden": 7232,
      "Ġhired": 7233,
      "ĠTel": 7234,
      "Ġchampions": 7235,
      "Ġexistence": 7236,
      "ĠPortugal": 7237,
      "ovakia": 7238,
      "Ġclimate": 7239,
      "Ġpoll": 7240,
      "Ġnorthwest": 7241,
      "wen": 7242,
      "rama": 7243,
      "Ġtechniques": 7244,
      "Major": 7245,
      "Ġaged": 7246,
      "ttps": 7247,
      "Ġshape": 7248,
      "umin": 7249,
      "Ġchoice": 7250,
      "orus": 7251,
      "ographical": 7252,
      "aza": 7253,
      "Ġbelieve": 7254,
      "ĠToday": 7255,
      "Ġ1912": 7256,
      "borough": 7257,
      "ĠFinn": 7258,
      "Ġspeech": 7259,
      "ridges": 7260,
      "ologies": 7261,
      "Ġdecre": 7262,
      "Ġprogramme": 7263,
      "angel": 7264,
      "eget": 7265,
      "1975": 7266,
      "Har": 7267,
      "Ġpieces": 7268,
      "amo": 7269,
      "Ġdetermined": 7270,
      "Ġ1925": 7271,
      "Ġfailure": 7272,
      "87": 7273,
      "67": 7274,
      "Ġwalls": 7275,
      "ĠDouglas": 7276,
      "ecution": 7277,
      "erts": 7278,
      "Ġplot": 7279,
      "uration": 7280,
      "ĠFriend": 7281,
      "Ġ400": 7282,
      "died": 7283,
      "Ġauth": 7284,
      "ĠLast": 7285,
      "ĠSecurity": 7286,
      "Ġindependence": 7287,
      "Ġholding": 7288,
      "othing": 7289,
      "Ġstores": 7290,
      "ĠAdv": 7291,
      "vements": 7292,
      "pan": 7293,
      "mith": 7294,
      "Ġpossess": 7295,
      "enh": 7296,
      "Ġstatistics": 7297,
      "Women": 7298,
      "Ġcommissioned": 7299,
      "Ġnegot": 7300,
      "1972": 7301,
      "ĠBrothers": 7302,
      "Tr": 7303,
      "ĠKa": 7304,
      "TC": 7305,
      "ĠAmong": 7306,
      "Ġrecognition": 7307,
      "lad": 7308,
      "ĠSport": 7309,
      "Ġtall": 7310,
      "Ġprofile": 7311,
      "åľ": 7312,
      "otic": 7313,
      "----": 7314,
      "Ġcausing": 7315,
      "iki": 7316,
      "ĠDeath": 7317,
      "Background": 7318,
      "ĠDa": 7319,
      "ĠCour": 7320,
      "ĠBerg": 7321,
      "Ġtoward": 7322,
      "Jan": 7323,
      "risis": 7324,
      "ĠSingh": 7325,
      "Ġherself": 7326,
      "First": 7327,
      "Ġequal": 7328,
      "Ġgrad": 7329,
      "Ġpup": 7330,
      "Ġcontributed": 7331,
      "dam": 7332,
      "ĠBuck": 7333,
      "ĠHans": 7334,
      "Ġdecades": 7335,
      "ĠBefore": 7336,
      "stitutional": 7337,
      "Ġ{": 7338,
      "Ġsust": 7339,
      "iem": 7340,
      "ĠGirls": 7341,
      "ĠIowa": 7342,
      "riev": 7343,
      "ĠGarden": 7344,
      "Ġgeneration": 7345,
      "isf": 7346,
      "Ġemphas": 7347,
      "ĠCow": 7348,
      "ige": 7349,
      "Ġfram": 7350,
      "ĠKings": 7351,
      "Ġ(,": 7352,
      "Ġlimit": 7353,
      "Railway": 7354,
      "ĠRegulations": 7355,
      "åĴĮ": 7356,
      "igious": 7357,
      "1973": 7358,
      "ĠIl": 7359,
      "Ġscale": 7360,
      "Mon": 7361,
      "Ġsolid": 7362,
      "stan": 7363,
      "Ġbishop": 7364,
      "Ġhill": 7365,
      "Ġ1915": 7366,
      "icts": 7367,
      "Ġdecor": 7368,
      "Ġstandards": 7369,
      "Ġorders": 7370,
      "Af": 7371,
      "Ġbriefly": 7372,
      "ĠFarm": 7373,
      "ĠJoh": 7374,
      "rine": 7375,
      "uri": 7376,
      "Ġenvironmental": 7377,
      "ĠLyn": 7378,
      "igenous": 7379,
      "Ġmoment": 7380,
      "apes": 7381,
      "Leg": 7382,
      "Ġdepend": 7383,
      "ĠStaff": 7384,
      "Ġextension": 7385,
      "Ġ75": 7386,
      "Ġreceiving": 7387,
      "Ġtu": 7388,
      "Ġmagn": 7389,
      "Ġcorner": 7390,
      "CAA": 7391,
      "HS": 7392,
      "nold": 7393,
      "istol": 7394,
      "Ġlocomot": 7395,
      "Ste": 7396,
      "tery": 7397,
      "Albums": 7398,
      "Cities": 7399,
      "rait": 7400,
      "%,": 7401,
      "grade": 7402,
      "Ġrequest": 7403,
      "ĠmÃ¡s": 7404,
      "65": 7405,
      "Ġpolic": 7406,
      "ĠThrough": 7407,
      "ĠMontreal": 7408,
      "Ġbillion": 7409,
      "Ġbehavior": 7410,
      "Ġhits": 7411,
      "bra": 7412,
      "Ġquite": 7413,
      "ĠVillage": 7414,
      "Ġliterary": 7415,
      "Ġment": 7416,
      "Ġskills": 7417,
      "Ec": 7418,
      "Buildings": 7419,
      "ĠKam": 7420,
      "91": 7421,
      "Ġlicens": 7422,
      "ĠThen": 7423,
      "ĠThird": 7424,
      "point": 7425,
      "Ġarran": 7426,
      "Ð¾ÑĢ": 7427,
      "forc": 7428,
      "poses": 7429,
      "Ġrise": 7430,
      "liest": 7431,
      "Ġdies": 7432,
      "Ġgrade": 7433,
      "Ġapplications": 7434,
      "Ġcontrast": 7435,
      "Ġguns": 7436,
      "ologists": 7437,
      "Ġ42": 7438,
      "High": 7439,
      "Ġanth": 7440,
      "Ġvalues": 7441,
      "last": 7442,
      "Ġcarry": 7443,
      "ĠOcean": 7444,
      "ĠIndependent": 7445,
      "Ð¼Ð¸": 7446,
      "anny": 7447,
      "Ġexerc": 7448,
      "ĠNorwegian": 7449,
      "Ġmaintained": 7450,
      "Ġexamples": 7451,
      "ĠFal": 7452,
      "found": 7453,
      "ĠIsraeli": 7454,
      "David": 7455,
      "Ġideas": 7456,
      "ĠBecause": 7457,
      "ĠOnly": 7458,
      "issippi": 7459,
      "Ġfemales": 7460,
      "Ġdisapp": 7461,
      "ĠKl": 7462,
      "Ãª": 7463,
      "Ġstrength": 7464,
      "Ġple": 7465,
      "oria": 7466,
      "Ġreaching": 7467,
      "ouses": 7468,
      "br": 7469,
      "ĠVin": 7470,
      "Ġsought": 7471,
      "ailed": 7472,
      "Ġsuburb": 7473,
      "Ġlect": 7474,
      "ĠAntonio": 7475,
      "Ġintroduction": 7476,
      "EA": 7477,
      "aire": 7478,
      "Ġcollected": 7479,
      "ĠRick": 7480,
      "Ġalleged": 7481,
      "including": 7482,
      "Ġoperate": 7483,
      "haps": 7484,
      "Ġcontained": 7485,
      "Dr": 7486,
      "Ant": 7487,
      "anned": 7488,
      "Ġsan": 7489,
      "Ġhumans": 7490,
      "osition": 7491,
      "owned": 7492,
      "ĠMiami": 7493,
      "Ġinstalled": 7494,
      "ÅŁ": 7495,
      "1968": 7496,
      "ĠPap": 7497,
      "ĠâĢĺ": 7498,
      "Ġinvasion": 7499,
      "ĠMicro": 7500,
      "Ġshall": 7501,
      "ĠCall": 7502,
      "á»": 7503,
      "rete": 7504,
      "Ġwor": 7505,
      "ĠLang": 7506,
      "ĠNaval": 7507,
      "Ġinduct": 7508,
      "Ġreduce": 7509,
      "rane": 7510,
      "Ġgetting": 7511,
      "Ġdivers": 7512,
      "Ġexact": 7513,
      "osaur": 7514,
      "Ġphase": 7515,
      "ĠÑĢÐ°": 7516,
      "ĠABC": 7517,
      "ĠTar": 7518,
      "IV": 7519,
      "ĠRoberts": 7520,
      "ĠErn": 7521,
      "ĠBry": 7522,
      "ĠArk": 7523,
      "otte": 7524,
      "rett": 7525,
      "Ġsupporting": 7526,
      "Ġ1908": 7527,
      "åĬ": 7528,
      "Ġobjects": 7529,
      "Ġfactors": 7530,
      "68": 7531,
      "Ġgreatest": 7532,
      "hard": 7533,
      "Ġmus": 7534,
      "song": 7535,
      "Academ": 7536,
      "rep": 7537,
      "Ġregarding": 7538,
      "bound": 7539,
      "Ġpull": 7540,
      "Most": 7541,
      "ĠTamil": 7542,
      "Ġalone": 7543,
      "Ġbelief": 7544,
      "Ġoccas": 7545,
      "Ġ64": 7546,
      "Ġfashion": 7547,
      "rastructure": 7548,
      "Ġfile": 7549,
      "ĠWorks": 7550,
      "ogan": 7551,
      "olly": 7552,
      "Ġban": 7553,
      "ythm": 7554,
      "asa": 7555,
      "Ġseems": 7556,
      "ĠGuide": 7557,
      "ĠWelsh": 7558,
      "eta": 7559,
      "ĠLanc": 7560,
      "Ġaid": 7561,
      "Rel": 7562,
      "Ġsand": 7563,
      "ĠMrs": 7564,
      "icide": 7565,
      "father": 7566,
      "ampton": 7567,
      "ĠSpr": 7568,
      "ĠGab": 7569,
      "ouver": 7570,
      "uster": 7571,
      "alty": 7572,
      "Europe": 7573,
      "Best": 7574,
      "æĸ": 7575,
      "Ġrepresenting": 7576,
      "Ġdrivers": 7577,
      "Indian": 7578,
      "obe": 7579,
      "urday": 7580,
      "inburgh": 7581,
      "Ġeg": 7582,
      "Roman": 7583,
      "Ġ1916": 7584,
      "Ġinternal": 7585,
      "oviÄĩ": 7586,
      "Ġthrow": 7587,
      "ĠUN": 7588,
      "Ġuser": 7589,
      "ucks": 7590,
      "usal": 7591,
      "igo": 7592,
      "long": 7593,
      "Ġreign": 7594,
      "Ġformal": 7595,
      "ĠAP": 7596,
      "Ġsale": 7597,
      "ĠSeat": 7598,
      "Ġlat": 7599,
      "Ġwealth": 7600,
      "Ġconsisting": 7601,
      "spe": 7602,
      "Ġintersection": 7603,
      "eland": 7604,
      "1950": 7605,
      "Ġroutes": 7606,
      "ĠRailroad": 7607,
      "Expatriate": 7608,
      "Ġsuccessfully": 7609,
      "Ġdeveloping": 7610,
      "Ġpremier": 7611,
      "Ġsymbol": 7612,
      "Ġpainter": 7613,
      "Ġcauses": 7614,
      "Ġopin": 7615,
      "Ġdates": 7616,
      "ĠKarl": 7617,
      "equ": 7618,
      "Ġscenes": 7619,
      "ĠLet": 7620,
      "ĠNa": 7621,
      "Ġimages": 7622,
      "olt": 7623,
      "Ġped": 7624,
      "Ġvisual": 7625,
      "ĠWy": 7626,
      "Ġappeal": 7627,
      "ĠJuan": 7628,
      "osm": 7629,
      "Ġsoutheast": 7630,
      "ĠDC": 7631,
      "hematics": 7632,
      "Ġprice": 7633,
      "ĠMatthew": 7634,
      "ĠAfghan": 7635,
      "ĠImperial": 7636,
      "Ġcrow": 7637,
      "ĠKer": 7638,
      "Ġcommit": 7639,
      "ĠJay": 7640,
      "Ġobserved": 7641,
      "Scott": 7642,
      "Ġchurches": 7643,
      "Ġdiplom": 7644,
      "Ġleads": 7645,
      "Ġfranch": 7646,
      "Ġwatch": 7647,
      "Ġentirely": 7648,
      "ĠBelgium": 7649,
      "Ġfinishing": 7650,
      "Ġpatients": 7651,
      "ographics": 7652,
      "achelor": 7653,
      "1971": 7654,
      "Ġelement": 7655,
      "ĠHarris": 7656,
      "oca": 7657,
      "ĠDeb": 7658,
      "Ġdynasty": 7659,
      "Ġinvolving": 7660,
      "ĠRoger": 7661,
      "Ġchain": 7662,
      "Ġdescription": 7663,
      "eler": 7664,
      "entially": 7665,
      "Ġhair": 7666,
      "Ñĸ": 7667,
      "Ġvice": 7668,
      "ÑĨÐ¸": 7669,
      "ĠNA": 7670,
      "Ġha": 7671,
      "Ġfaith": 7672,
      "ĠAst": 7673,
      "ĠVo": 7674,
      "III": 7675,
      "Ġdomestic": 7676,
      "Rober": 7677,
      "term": 7678,
      "dr": 7679,
      "irds": 7680,
      "Mich": 7681,
      "Ġreally": 7682,
      "Ġhour": 7683,
      "Ġkick": 7684,
      "Ġmist": 7685,
      "ĠFall": 7686,
      "chell": 7687,
      "Ġcrossing": 7688,
      "DA": 7689,
      "Ġtranslation": 7690,
      "Ġbodies": 7691,
      "Ġstorm": 7692,
      "Ġfocused": 7693,
      "Ġinaug": 7694,
      "Ġislands": 7695,
      "arsh": 7696,
      "ĠBuff": 7697,
      "Ġwhy": 7698,
      "after": 7699,
      "ĠEarly": 7700,
      "Ġcopy": 7701,
      "agg": 7702,
      "ĠZh": 7703,
      "ĠHotel": 7704,
      "ayan": 7705,
      "ĠBilly": 7706,
      "ĠEven": 7707,
      "Ġanimated": 7708,
      "erved": 7709,
      "ĠOttoman": 7710,
      "ĠAnne": 7711,
      "Ġinterpret": 7712,
      "Sportspeople": 7713,
      "ĠUkraine": 7714,
      "aduate": 7715,
      "ÑĢÑĥ": 7716,
      "cell": 7717,
      "count": 7718,
      "inking": 7719,
      "Ġprint": 7720,
      "ĠMetropolitan": 7721,
      "Ġ1911": 7722,
      "ishment": 7723,
      "Ġprefer": 7724,
      "Ġappoint": 7725,
      "Reception": 7726,
      "Ġmart": 7727,
      "Ġchampionships": 7728,
      "Ġinfluenced": 7729,
      "Ġselection": 7730,
      "LC": 7731,
      "Ġstrike": 7732,
      "Ġproved": 7733,
      "ultan": 7734,
      "Ġoccurs": 7735,
      "Ġitems": 7736,
      "Ġclosely": 7737,
      "Ġrepresentative": 7738,
      "Ġclean": 7739,
      "lock": 7740,
      "ĠMalaysia": 7741,
      "Her": 7742,
      "clusion": 7743,
      "ĠInn": 7744,
      "ĠOrthodox": 7745,
      "Japanese": 7746,
      "Ġestablishment": 7747,
      "Ġnarr": 7748,
      "ompson": 7749,
      "iac": 7750,
      "Ġtrained": 7751,
      "ilk": 7752,
      "Ġpurposes": 7753,
      "Ġresistance": 7754,
      "Ġadjacent": 7755,
      "Ġjump": 7756,
      "Ġpromote": 7757,
      "Ġrailroad": 7758,
      "ĠKaz": 7759,
      "star": 7760,
      "ĠPalace": 7761,
      "Ġadapted": 7762,
      "cussion": 7763,
      "annels": 7764,
      "icas": 7765,
      "rainian": 7766,
      "Ġprofession": 7767,
      "ĠPublishing": 7768,
      "Ġ;": 7769,
      "heastern": 7770,
      "rations": 7771,
      "Ġedge": 7772,
      "Ġeasily": 7773,
      "ĠPrix": 7774,
      "asure": 7775,
      "oba": 7776,
      "ĠPittsburgh": 7777,
      "Ġjunior": 7778,
      "Ġpartnership": 7779,
      "ducing": 7780,
      "emble": 7781,
      "Ġmarg": 7782,
      "tered": 7783,
      "ĠHollywood": 7784,
      "ĠRol": 7785,
      "ĠIron": 7786,
      "ĠStewart": 7787,
      "Ġspecifically": 7788,
      "Ġsubsid": 7789,
      "Ġnegative": 7790,
      "Ġincorporated": 7791,
      "iverpool": 7792,
      "Cent": 7793,
      "San": 7794,
      "itals": 7795,
      "Ġ1913": 7796,
      "ä¸Ģ": 7797,
      "amic": 7798,
      "iser": 7799,
      "Ġregarded": 7800,
      "Ġtor": 7801,
      "Ġstrateg": 7802,
      "iop": 7803,
      "ĠAdministration": 7804,
      "Ġpassengers": 7805,
      "Ġfaced": 7806,
      "1969": 7807,
      "Ġwarn": 7808,
      "Ġreturns": 7809,
      "ĠInternet": 7810,
      "Orig": 7811,
      "Ġexpressed": 7812,
      "leton": 7813,
      "Ġfunding": 7814,
      "ĠSn": 7815,
      "Ġlawyer": 7816,
      "Histor": 7817,
      "Ġsomew": 7818,
      "ishops": 7819,
      "ÃŁ": 7820,
      "Ġsynd": 7821,
      "rm": 7822,
      "abase": 7823,
      "Ġimportance": 7824,
      "ifer": 7825,
      "Ġweather": 7826,
      "Ġincome": 7827,
      "Ġheat": 7828,
      "host": 7829,
      "gow": 7830,
      "then": 7831,
      "Ġcriminal": 7832,
      "Ġfleet": 7833,
      "rat": 7834,
      "Ġfictional": 7835,
      "ommod": 7836,
      "Ġupd": 7837,
      "Ġlegend": 7838,
      "2021": 7839,
      "ĠFac": 7840,
      "Ġtrail": 7841,
      "Ġtranslated": 7842,
      "ugoslav": 7843,
      "Ġlaid": 7844,
      "Ġinvestigation": 7845,
      "Ġengaged": 7846,
      "ĠMem": 7847,
      "Ġfactory": 7848,
      "Ġruled": 7849,
      "inter": 7850,
      "ĠLawrence": 7851,
      "Ġvide": 7852,
      "Ġmand": 7853,
      "Ġwaters": 7854,
      "Ġsequence": 7855,
      "Ġtwelve": 7856,
      "Ġcourses": 7857,
      "Ġresear": 7858,
      "Ġcatal": 7859,
      "Ġworldwide": 7860,
      "ĠBruce": 7861,
      "Ġdetails": 7862,
      "Ġones": 7863,
      "Ġdescribes": 7864,
      "Club": 7865,
      "etry": 7866,
      "Ġsections": 7867,
      "ĠOpera": 7868,
      "ĠPur": 7869,
      "Ġheads": 7870,
      "isd": 7871,
      "ente": 7872,
      "Ġgain": 7873,
      "Ġbirds": 7874,
      "ĠCooper": 7875,
      "idel": 7876,
      "Ġax": 7877,
      "ĠAle": 7878,
      "Ġnickn": 7879,
      "ĠHig": 7880,
      "Ġparallel": 7881,
      "ĠPear": 7882,
      "Ġresigned": 7883,
      "ancouver": 7884,
      "Ġboat": 7885,
      "Ġtail": 7886,
      "ĠKy": 7887,
      "Star": 7888,
      "ĠDisney": 7889,
      "ĠRabb": 7890,
      "ĠNob": 7891,
      "ĠTun": 7892,
      "Ġcoordin": 7893,
      "ĠKnight": 7894,
      "Ġchemical": 7895,
      "Ġrooms": 7896,
      "bi": 7897,
      "Ġ47": 7898,
      "ĠSac": 7899,
      "Ġassess": 7900,
      "ĠKevin": 7901,
      "Ġroof": 7902,
      "ci": 7903,
      "Ġsuperv": 7904,
      "ON": 7905,
      "Ġsurg": 7906,
      "Ġcombination": 7907,
      "ĠAthletic": 7908,
      "uits": 7909,
      "ĠVar": 7910,
      "ÐºÐ°": 7911,
      "Ġbill": 7912,
      "bridge": 7913,
      "Ġentertain": 7914,
      "ĠCleveland": 7915,
      "Ġstands": 7916,
      "Ġcomposers": 7917,
      "nia": 7918,
      "des": 7919,
      "ĠCrown": 7920,
      "ĠSoc": 7921,
      "Int": 7922,
      "ä¹": 7923,
      "Ġdivisions": 7924,
      "mingham": 7925,
      "ĠRound": 7926,
      "83": 7927,
      "othes": 7928,
      "Ġdoor": 7929,
      "Ġfoundation": 7930,
      "Black": 7931,
      "ĠHistorical": 7932,
      "ĠPuerto": 7933,
      "ĠHorn": 7934,
      "Ġsell": 7935,
      "ãĢģ": 7936,
      "ĠLaure": 7937,
      "Ġ39": 7938,
      "enezuel": 7939,
      "62": 7940,
      "orig": 7941,
      "Ġengines": 7942,
      "Ġemployees": 7943,
      "ĠRoc": 7944,
      "Ġresidential": 7945,
      "ĠPhys": 7946,
      "ĠPa": 7947,
      "Ġbroken": 7948,
      "ĠRey": 7949,
      "Ġintelligence": 7950,
      "Ġquestions": 7951,
      "Ġreleg": 7952,
      "ĠMississippi": 7953,
      "ÈĻ": 7954,
      "Ġfresh": 7955,
      "Ġprotein": 7956,
      "ĠGa": 7957,
      "icit": 7958,
      "ĠEdinburgh": 7959,
      "ĠAmb": 7960,
      "Ġpersons": 7961,
      "rong": 7962,
      "ĠPed": 7963,
      "Ġimproved": 7964,
      "Ã´": 7965,
      "Ġbottom": 7966,
      "Ġsave": 7967,
      "Ġedited": 7968,
      "ĠHell": 7969,
      "ĠDance": 7970,
      "ĠRights": 7971,
      "anch": 7972,
      "pre": 7973,
      "ĠCook": 7974,
      "ĠTerrit": 7975,
      "1967": 7976,
      "Ġmerch": 7977,
      "ĠNort": 7978,
      "Ġadvance": 7979,
      "ĠBasketball": 7980,
      "ĠAtlanta": 7981,
      "omy": 7982,
      "Ġlooking": 7983,
      "ĠMcG": 7984,
      "Ġflu": 7985,
      "ĠSee": 7986,
      "Ġviews": 7987,
      "Ġvoted": 7988,
      "ĠGlas": 7989,
      "vant": 7990,
      "rÃ©": 7991,
      "ĠPlace": 7992,
      "à¸²": 7993,
      "Ġski": 7994,
      "Ġopportunity": 7995,
      "ĠTreat": 7996,
      "ĠMission": 7997,
      "Ġconqu": 7998,
      "ĠMcK": 7999,
      "len": 8000,
      "Ġastr": 8001,
      "ĠWhe": 8002,
      "Ġpossibly": 8003,
      "Ġceremony": 8004,
      "Medal": 8005,
      "ĠRain": 8006,
      "ushed": 8007,
      "ĠPlayer": 8008,
      "Ġproducing": 8009,
      "ĠMountains": 8010,
      "Ġconsequ": 8011,
      "uki": 8012,
      "Ġfunds": 8013,
      "Ġcontrolled": 8014,
      "rons": 8015,
      "Ġcore": 8016,
      "ĠBroadway": 8017,
      "1964": 8018,
      "ĠPC": 8019,
      "Ġinjured": 8020,
      "oustic": 8021,
      "Athlet": 8022,
      "Ġvolunte": 8023,
      "Ġsoci": 8024,
      "ĠBull": 8025,
      "Ġpione": 8026,
      "Ġexped": 8027,
      "udi": 8028,
      "Ġtries": 8029,
      "clop": 8030,
      "oni": 8031,
      "84": 8032,
      "ĠFrederick": 8033,
      "Ġearliest": 8034,
      "Ġjoining": 8035,
      "Ġreplace": 8036,
      "ĠVers": 8037,
      "Ġdefensive": 8038,
      "rops": 8039,
      "Personnel": 8040,
      "Ġille": 8041,
      "Ð¾Ð³Ð¾": 8042,
      "Ġshut": 8043,
      "Ġgets": 8044,
      "Ð¾Ð»ÑĮ": 8045,
      "ĠPrincess": 8046,
      "ĠPas": 8047,
      "ĠHawai": 8048,
      "emen": 8049,
      "yers": 8050,
      "Port": 8051,
      "Ġreality": 8052,
      "ĠEver": 8053,
      "Ġgrounds": 8054,
      "Populated": 8055,
      "Ġdog": 8056,
      "Ġguitarist": 8057,
      "DP": 8058,
      "ĠAgain": 8059,
      "Ġgoods": 8060,
      "Ġretail": 8061,
      "ĠReport": 8062,
      "Ġoperates": 8063,
      "bishop": 8064,
      "ĠNord": 8065,
      "Ġcompete": 8066,
      "Treat": 8067,
      "aked": 8068,
      "roc": 8069,
      "Ġscheduled": 8070,
      "nergy": 8071,
      "avalry": 8072,
      "Ã¥": 8073,
      "Ġliteracy": 8074,
      "Sch": 8075,
      "yles": 8076,
      "ĠHeritage": 8077,
      "ĠClin": 8078,
      "ĠWebsite": 8079,
      "72": 8080,
      "Ġlink": 8081,
      "ĠGran": 8082,
      "ĠHarvard": 8083,
      "Ġdevice": 8084,
      "Ġsinging": 8085,
      "Ġancest": 8086,
      "wall": 8087,
      "mont": 8088,
      "Ġneighbour": 8089,
      "Ġstring": 8090,
      "Ġviolence": 8091,
      "ĠSurv": 8092,
      "1966": 8093,
      "GBT": 8094,
      "ĠHom": 8095,
      "Ġflat": 8096,
      "Ġconvent": 8097,
      "Part": 8098,
      "MP": 8099,
      "Ġteen": 8100,
      "Ġri": 8101,
      "ĠDak": 8102,
      "Ġinvited": 8103,
      "Pol": 8104,
      "Play": 8105,
      "ĠKennedy": 8106,
      "ĠHop": 8107,
      "Ġsole": 8108,
      "61": 8109,
      "bach": 8110,
      "olph": 8111,
      "ĠDean": 8112,
      "Ġemot": 8113,
      "ĠÃī": 8114,
      "Ġregularly": 8115,
      "hop": 8116,
      "Ġseparated": 8117,
      "ĠCru": 8118,
      "Ġtypical": 8119,
      "Ġpriest": 8120,
      "ivo": 8121,
      "Ġborders": 8122,
      "ĠFund": 8123,
      "Ð¾ÑĤ": 8124,
      "Ġaccommod": 8125,
      "Ġusers": 8126,
      "ishments": 8127,
      "ĠVic": 8128,
      "ĠRussell": 8129,
      "aceae": 8130,
      "antly": 8131,
      "Ġrepeated": 8132,
      "file": 8133,
      "ĠFurther": 8134,
      "town": 8135,
      "ĠBox": 8136,
      "Ġelectronic": 8137,
      "Ġvary": 8138,
      "ĠFil": 8139,
      "Ġbrain": 8140,
      "ĠWing": 8141,
      "Ġinterests": 8142,
      "ĠDue": 8143,
      "ĠRyan": 8144,
      "RC": 8145,
      "Ġterminus": 8146,
      "ĠDallas": 8147,
      "attan": 8148,
      "ni": 8149,
      "Ġ44": 8150,
      "million": 8151,
      "icop": 8152,
      "Ġopposite": 8153,
      "Ġaccur": 8154,
      "Arch": 8155,
      "Ġcalc": 8156,
      "tenance": 8157,
      "Ġworth": 8158,
      "Ġphilosophy": 8159,
      "ĠKo": 8160,
      "insula": 8161,
      "ĠAqu": 8162,
      "ĠBaltimore": 8163,
      "ĠYouth": 8164,
      "Ġunderstanding": 8165,
      "Ġequivalent": 8166,
      "ducational": 8167,
      "Ġuniform": 8168,
      "Ġargued": 8169,
      "going": 8170,
      "Ġcooper": 8171,
      "Ġmole": 8172,
      "ĠYears": 8173,
      "ester": 8174,
      "ception": 8175,
      "ĠFA": 8176,
      "Ġcategory": 8177,
      "Ġbond": 8178,
      "74": 8179,
      "Ġcorpor": 8180,
      "Ġclimb": 8181,
      "ĠAgency": 8182,
      "Ġensure": 8183,
      "æĺ¯": 8184,
      "82": 8185,
      "actor": 8186,
      "cious": 8187,
      "BI": 8188,
      "orrow": 8189,
      "ĠAI": 8190,
      "Ġproced": 8191
    },
    "merges": [
      [
        "Ġ",
        "t"
      ],
      [
        "h",
        "e"
      ],
      [
        "Ġ",
        "a"
      ],
      [
        "i",
        "n"
      ],
      [
        "č",
        "Ċ"
      ],
      [
        "e",
        "r"
      ],
      [
        "o",
        "n"
      ],
      [
        "Ġt",
        "he"
      ],
      [
        "r",
        "e"
      ],
      [
        "a",
        "n"
      ],
      [
        "o",
        "r"
      ],
      [
        "e",
        "n"
      ],
      [
        "a",
        "t"
      ],
      [
        "Ġ",
        "s"
      ],
      [
        "Ġ",
        "o"
      ],
      [
        "e",
        "d"
      ],
      [
        "i",
        "s"
      ],
      [
        "e",
        "s"
      ],
      [
        "a",
        "l"
      ],
      [
        "Ġ",
        "w"
      ],
      [
        "a",
        "r"
      ],
      [
        "i",
        "t"
      ],
      [
        "Ġo",
        "f"
      ],
      [
        "n",
        "d"
      ],
      [
        "Ġ",
        "c"
      ],
      [
        "Ġ",
        "in"
      ],
      [
        "Ġ",
        "f"
      ],
      [
        "Ġ",
        "b"
      ],
      [
        "Ġ",
        "p"
      ],
      [
        "i",
        "c"
      ],
      [
        "a",
        "s"
      ],
      [
        "in",
        "g"
      ],
      [
        "Ġa",
        "nd"
      ],
      [
        "i",
        "on"
      ],
      [
        "r",
        "o"
      ],
      [
        "l",
        "e"
      ],
      [
        "Ġ",
        "S"
      ],
      [
        "Ġt",
        "o"
      ],
      [
        "Ġ",
        "m"
      ],
      [
        "Ġ",
        "d"
      ],
      [
        "o",
        "u"
      ],
      [
        "Ġ",
        "C"
      ],
      [
        "Ġ",
        "A"
      ],
      [
        "i",
        "l"
      ],
      [
        "Ġ",
        "h"
      ],
      [
        "en",
        "t"
      ],
      [
        "Ġ",
        "T"
      ],
      [
        "Ġ",
        "1"
      ],
      [
        "a",
        "m"
      ],
      [
        "s",
        "t"
      ],
      [
        "e",
        "l"
      ],
      [
        "Ġ",
        "M"
      ],
      [
        "o",
        "m"
      ],
      [
        "o",
        "l"
      ],
      [
        "Ġ",
        "("
      ],
      [
        "Ġ",
        "re"
      ],
      [
        "Ġ",
        "l"
      ],
      [
        "a",
        "c"
      ],
      [
        "Ġ",
        "B"
      ],
      [
        "a",
        "d"
      ],
      [
        "u",
        "r"
      ],
      [
        "Ġ",
        "P"
      ],
      [
        "e",
        "t"
      ],
      [
        "e",
        "c"
      ],
      [
        "Ġ",
        "n"
      ],
      [
        "i",
        "v"
      ],
      [
        "er",
        "s"
      ],
      [
        "at",
        "ion"
      ],
      [
        "Ġ",
        "H"
      ],
      [
        "i",
        "g"
      ],
      [
        "Ġt",
        "h"
      ],
      [
        "Ġ",
        "I"
      ],
      [
        "Ġ",
        "2"
      ],
      [
        "i",
        "d"
      ],
      [
        "Ġw",
        "as"
      ],
      [
        "i",
        "r"
      ],
      [
        "o",
        "t"
      ],
      [
        "u",
        "s"
      ],
      [
        "Ġ",
        "e"
      ],
      [
        "Ġ",
        "R"
      ],
      [
        "a",
        "y"
      ],
      [
        "i",
        "m"
      ],
      [
        "Ġf",
        "or"
      ],
      [
        "l",
        "y"
      ],
      [
        "Ġ",
        "on"
      ],
      [
        "t",
        "er"
      ],
      [
        "Ġ1",
        "9"
      ],
      [
        "Ġ",
        "D"
      ],
      [
        "Ġ",
        "L"
      ],
      [
        "o",
        "s"
      ],
      [
        "Ġ",
        "g"
      ],
      [
        "c",
        "h"
      ],
      [
        "Ġ",
        "is"
      ],
      [
        "u",
        "t"
      ],
      [
        "u",
        "n"
      ],
      [
        "Ġ",
        "F"
      ],
      [
        "o",
        "w"
      ],
      [
        "e",
        "m"
      ],
      [
        "Ġa",
        "s"
      ],
      [
        "is",
        "t"
      ],
      [
        "Ġ",
        "G"
      ],
      [
        "ĠT",
        "he"
      ],
      [
        "it",
        "h"
      ],
      [
        "Ġ",
        "N"
      ],
      [
        "Ġ",
        "W"
      ],
      [
        "t",
        "h"
      ],
      [
        "Ġs",
        "t"
      ],
      [
        "0",
        "0"
      ],
      [
        "he",
        "r"
      ],
      [
        "an",
        "d"
      ],
      [
        "c",
        "t"
      ],
      [
        "u",
        "l"
      ],
      [
        "a",
        "g"
      ],
      [
        "c",
        "e"
      ],
      [
        "Ġw",
        "ith"
      ],
      [
        "â",
        "Ģ"
      ],
      [
        "Ġa",
        "l"
      ],
      [
        "Ġ",
        "E"
      ],
      [
        "Ġb",
        "y"
      ],
      [
        "u",
        "m"
      ],
      [
        "Ġ",
        "J"
      ],
      [
        "'",
        "s"
      ],
      [
        "r",
        "a"
      ],
      [
        "v",
        "er"
      ],
      [
        "ro",
        "m"
      ],
      [
        "Ġb",
        "e"
      ],
      [
        "o",
        "p"
      ],
      [
        "es",
        "t"
      ],
      [
        "Ġa",
        "t"
      ],
      [
        "Ġw",
        "h"
      ],
      [
        "Ġa",
        "n"
      ],
      [
        "r",
        "i"
      ],
      [
        "Ġc",
        "on"
      ],
      [
        "âĢ",
        "ĵ"
      ],
      [
        "Ġ",
        "O"
      ],
      [
        "o",
        "c"
      ],
      [
        "Ġ",
        "he"
      ],
      [
        "Ġ",
        "v"
      ],
      [
        "Ġf",
        "rom"
      ],
      [
        "o",
        "d"
      ],
      [
        "Ġ",
        "\""
      ],
      [
        "Ġth",
        "at"
      ],
      [
        "a",
        "in"
      ],
      [
        "al",
        "l"
      ],
      [
        "a",
        "b"
      ],
      [
        "i",
        "an"
      ],
      [
        "Ġ",
        "K"
      ],
      [
        "a",
        "v"
      ],
      [
        "Ġc",
        "om"
      ],
      [
        "it",
        "y"
      ],
      [
        "re",
        "s"
      ],
      [
        "t",
        "s"
      ],
      [
        "Ġd",
        "e"
      ],
      [
        "Ġp",
        "ro"
      ],
      [
        "i",
        "es"
      ],
      [
        "i",
        "f"
      ],
      [
        "at",
        "e"
      ],
      [
        "i",
        "a"
      ],
      [
        "Ġ",
        "U"
      ],
      [
        "e",
        "w"
      ],
      [
        "il",
        "l"
      ],
      [
        "u",
        "p"
      ],
      [
        "b",
        "er"
      ],
      [
        "Ġ",
        "it"
      ],
      [
        "u",
        "d"
      ],
      [
        "ar",
        "d"
      ],
      [
        "ar",
        "t"
      ],
      [
        "ĠS",
        "t"
      ],
      [
        "1",
        "9"
      ],
      [
        "ig",
        "h"
      ],
      [
        "a",
        "k"
      ],
      [
        "Ġp",
        "l"
      ],
      [
        "q",
        "u"
      ],
      [
        "u",
        "b"
      ],
      [
        "i",
        "p"
      ],
      [
        "a",
        "p"
      ],
      [
        "Ġ",
        "or"
      ],
      [
        "Ġh",
        "is"
      ],
      [
        "or",
        "t"
      ],
      [
        "e",
        "ar"
      ],
      [
        "o",
        "re"
      ],
      [
        "ic",
        "h"
      ],
      [
        "Ġ",
        "r"
      ],
      [
        "Ġ",
        "čĊ"
      ],
      [
        "l",
        "d"
      ],
      [
        "es",
        "s"
      ],
      [
        "Ġ2",
        "00"
      ],
      [
        "o",
        "v"
      ],
      [
        "T",
        "he"
      ],
      [
        "at",
        "ed"
      ],
      [
        "Ġa",
        "re"
      ],
      [
        "ĠI",
        "n"
      ],
      [
        "Ġ2",
        "0"
      ],
      [
        "ou",
        "r"
      ],
      [
        "is",
        "h"
      ],
      [
        "ar",
        "y"
      ],
      [
        "m",
        "ent"
      ],
      [
        "u",
        "g"
      ],
      [
        "m",
        "er"
      ],
      [
        "iv",
        "e"
      ],
      [
        "on",
        "g"
      ],
      [
        "Ġc",
        "h"
      ],
      [
        "ĠC",
        "h"
      ],
      [
        "en",
        "d"
      ],
      [
        "n",
        "t"
      ],
      [
        "i",
        "al"
      ],
      [
        "o",
        "g"
      ],
      [
        "Ġe",
        "x"
      ],
      [
        "an",
        "t"
      ],
      [
        "Ġ",
        "V"
      ],
      [
        "g",
        "e"
      ],
      [
        "Ġs",
        "e"
      ],
      [
        "s",
        "e"
      ],
      [
        "as",
        "t"
      ],
      [
        "k",
        "s"
      ],
      [
        "in",
        "e"
      ],
      [
        "el",
        "l"
      ],
      [
        "u",
        "nd"
      ],
      [
        "er",
        "e"
      ],
      [
        "Ġ",
        "y"
      ],
      [
        "u",
        "st"
      ],
      [
        "am",
        "e"
      ],
      [
        "f",
        "er"
      ],
      [
        "or",
        "d"
      ],
      [
        "u",
        "c"
      ],
      [
        "r",
        "an"
      ],
      [
        "s",
        "o"
      ],
      [
        "e",
        "p"
      ],
      [
        "ec",
        "t"
      ],
      [
        "u",
        "re"
      ],
      [
        "i",
        "re"
      ],
      [
        "o",
        "st"
      ],
      [
        ")",
        ","
      ],
      [
        "Ġ",
        "le"
      ],
      [
        "Ġw",
        "ere"
      ],
      [
        "u",
        "e"
      ],
      [
        "ion",
        "s"
      ],
      [
        "ic",
        "al"
      ],
      [
        "en",
        "c"
      ],
      [
        "Ġ",
        "âĢĵ"
      ],
      [
        "Ġs",
        "p"
      ],
      [
        "Ġwh",
        "ich"
      ],
      [
        "ac",
        "k"
      ],
      [
        "ter",
        "n"
      ],
      [
        "i",
        "e"
      ],
      [
        "Ġal",
        "so"
      ],
      [
        "t",
        "her"
      ],
      [
        "Ġcom",
        "p"
      ],
      [
        "Ġs",
        "h"
      ],
      [
        "Ġ",
        "un"
      ],
      [
        "a",
        "re"
      ],
      [
        "ĠH",
        "e"
      ],
      [
        "ĠU",
        "n"
      ],
      [
        "Ġ",
        "k"
      ],
      [
        "r",
        "it"
      ],
      [
        "ag",
        "e"
      ],
      [
        "Ġpl",
        "ay"
      ],
      [
        "p",
        "p"
      ],
      [
        "r",
        "y"
      ],
      [
        "ig",
        "n"
      ],
      [
        "f",
        "f"
      ],
      [
        "as",
        "s"
      ],
      [
        "Ġ20",
        "1"
      ],
      [
        "r",
        "ic"
      ],
      [
        "igh",
        "t"
      ],
      [
        "c",
        "l"
      ],
      [
        "ou",
        "s"
      ],
      [
        "ir",
        "st"
      ],
      [
        "Ġ",
        "Ġ"
      ],
      [
        "id",
        "e"
      ],
      [
        "m",
        "an"
      ],
      [
        "Ġc",
        "l"
      ],
      [
        "i",
        "z"
      ],
      [
        "or",
        "k"
      ],
      [
        "on",
        "d"
      ],
      [
        "e",
        "os"
      ],
      [
        "Ġn",
        "ot"
      ],
      [
        "Ġ",
        "Y"
      ],
      [
        "Ġa",
        "r"
      ],
      [
        "p",
        "er"
      ],
      [
        "av",
        "e"
      ],
      [
        "ation",
        "s"
      ],
      [
        "l",
        "and"
      ],
      [
        "or",
        "y"
      ],
      [
        "er",
        "v"
      ],
      [
        "Ġ",
        "3"
      ],
      [
        "Ġ",
        "us"
      ],
      [
        "he",
        "d"
      ],
      [
        "Ġh",
        "ad"
      ],
      [
        "Ġh",
        "as"
      ],
      [
        "an",
        "g"
      ],
      [
        "o",
        "k"
      ],
      [
        "ow",
        "n"
      ],
      [
        "ou",
        "nt"
      ],
      [
        "Ġ19",
        "9"
      ],
      [
        "Ġ1",
        "8"
      ],
      [
        "om",
        "e"
      ],
      [
        "ation",
        "al"
      ],
      [
        "n",
        "g"
      ],
      [
        "Ġw",
        "he"
      ],
      [
        "am",
        "p"
      ],
      [
        "o",
        "ol"
      ],
      [
        "Ġf",
        "irst"
      ],
      [
        "ac",
        "t"
      ],
      [
        "Ġ",
        "ro"
      ],
      [
        "Ġcon",
        "t"
      ],
      [
        "Ġre",
        "s"
      ],
      [
        "ic",
        "an"
      ],
      [
        "f",
        "ter"
      ],
      [
        "ic",
        "e"
      ],
      [
        "Ġin",
        "t"
      ],
      [
        "ac",
        "h"
      ],
      [
        "e",
        "y"
      ],
      [
        "or",
        "n"
      ],
      [
        "at",
        "er"
      ],
      [
        "em",
        "ber"
      ],
      [
        "ĠI",
        "t"
      ],
      [
        "i",
        "b"
      ],
      [
        "ou",
        "t"
      ],
      [
        "ĠT",
        "h"
      ],
      [
        "Ġ",
        "Ð"
      ],
      [
        "w",
        "o"
      ],
      [
        "ĠA",
        "l"
      ],
      [
        "Ġa",
        "d"
      ],
      [
        "I",
        "n"
      ],
      [
        "Ġt",
        "e"
      ],
      [
        "u",
        "ct"
      ],
      [
        "it",
        "ion"
      ],
      [
        "ul",
        "t"
      ],
      [
        "im",
        "e"
      ],
      [
        "p",
        "h"
      ],
      [
        "Ġ",
        "j"
      ],
      [
        "Ġthe",
        "ir"
      ],
      [
        "Ġit",
        "s"
      ],
      [
        "en",
        "s"
      ],
      [
        "Ġa",
        "b"
      ],
      [
        "en",
        "ce"
      ],
      [
        "re",
        "e"
      ],
      [
        "p",
        "l"
      ],
      [
        "e",
        "e"
      ],
      [
        "at",
        "es"
      ],
      [
        "Ġwh",
        "o"
      ],
      [
        "it",
        "ed"
      ],
      [
        "p",
        "ort"
      ],
      [
        "i",
        "k"
      ],
      [
        "ch",
        "ool"
      ],
      [
        "le",
        "ct"
      ],
      [
        "ac",
        "e"
      ],
      [
        "2",
        "0"
      ],
      [
        "enc",
        "es"
      ],
      [
        ")",
        "."
      ],
      [
        "Ġb",
        "ut"
      ],
      [
        "ou",
        "nd"
      ],
      [
        "a",
        "w"
      ],
      [
        "ĠA",
        "r"
      ],
      [
        "at",
        "h"
      ],
      [
        "ar",
        "k"
      ],
      [
        "l",
        "ow"
      ],
      [
        "mer",
        "ican"
      ],
      [
        "Ġa",
        "c"
      ],
      [
        "Ġon",
        "e"
      ],
      [
        "Ġa",
        "pp"
      ],
      [
        "Ġp",
        "art"
      ],
      [
        "Ġ",
        "-"
      ],
      [
        "e",
        "g"
      ],
      [
        "Ġy",
        "ear"
      ],
      [
        "ug",
        "h"
      ],
      [
        "cl",
        "ud"
      ],
      [
        "Ġm",
        "an"
      ],
      [
        "ub",
        "l"
      ],
      [
        "p",
        "t"
      ],
      [
        "it",
        "e"
      ],
      [
        "ou",
        "ld"
      ],
      [
        "Ġre",
        "c"
      ],
      [
        "al",
        "ly"
      ],
      [
        "il",
        "d"
      ],
      [
        "or",
        "s"
      ],
      [
        "i",
        "le"
      ],
      [
        "Ð",
        "¾"
      ],
      [
        "e",
        "op"
      ],
      [
        "il",
        "m"
      ],
      [
        "o",
        "ver"
      ],
      [
        "f",
        "or"
      ],
      [
        "Ġ",
        "her"
      ],
      [
        "is",
        "s"
      ],
      [
        "w",
        "n"
      ],
      [
        "ent",
        "s"
      ],
      [
        "Ġp",
        "er"
      ],
      [
        "iv",
        "ers"
      ],
      [
        "l",
        "es"
      ],
      [
        "Ġa",
        "g"
      ],
      [
        "Ġh",
        "ave"
      ],
      [
        "e",
        "b"
      ],
      [
        "ĠN",
        "ew"
      ],
      [
        "Ġth",
        "is"
      ],
      [
        "R",
        "e"
      ],
      [
        "res",
        "s"
      ],
      [
        "i",
        "o"
      ],
      [
        "ad",
        "e"
      ],
      [
        "eop",
        "le"
      ],
      [
        "h",
        "n"
      ],
      [
        "o",
        "y"
      ],
      [
        "Ġ",
        "4"
      ],
      [
        "Ġb",
        "ec"
      ],
      [
        "ur",
        "ing"
      ],
      [
        "Ġ",
        "en"
      ],
      [
        "Ġs",
        "c"
      ],
      [
        "Ġ19",
        "8"
      ],
      [
        "ol",
        "d"
      ],
      [
        "Ġin",
        "clud"
      ],
      [
        "Ġt",
        "wo"
      ],
      [
        "fer",
        "ences"
      ],
      [
        "o",
        "b"
      ],
      [
        "as",
        "ed"
      ],
      [
        "on",
        "s"
      ],
      [
        "t",
        "e"
      ],
      [
        "in",
        "d"
      ],
      [
        "o",
        "ot"
      ],
      [
        "Ġ",
        "|"
      ],
      [
        "ĠM",
        "ar"
      ],
      [
        "v",
        "el"
      ],
      [
        "o",
        "in"
      ],
      [
        "Ġo",
        "ther"
      ],
      [
        "ur",
        "n"
      ],
      [
        "u",
        "ch"
      ],
      [
        "g",
        "h"
      ],
      [
        "a",
        "il"
      ],
      [
        "Ġd",
        "es"
      ],
      [
        "w",
        "ard"
      ],
      [
        "al",
        "s"
      ],
      [
        "Ġ",
        "im"
      ],
      [
        "h",
        "ip"
      ],
      [
        "ab",
        "le"
      ],
      [
        "Re",
        "ferences"
      ],
      [
        "ing",
        "s"
      ],
      [
        "i",
        "ed"
      ],
      [
        "s",
        "s"
      ],
      [
        "Ġd",
        "is"
      ],
      [
        "Ġbe",
        "en"
      ],
      [
        "ĠC",
        "om"
      ],
      [
        "Ð",
        "µ"
      ],
      [
        "Ġcom",
        "m"
      ],
      [
        "Ġa",
        "fter"
      ],
      [
        "w",
        "ay"
      ],
      [
        "Ġa",
        "ct"
      ],
      [
        "el",
        "y"
      ],
      [
        "w",
        "e"
      ],
      [
        "b",
        "all"
      ],
      [
        "t",
        "ed"
      ],
      [
        "ic",
        "s"
      ],
      [
        "Ġ",
        "up"
      ],
      [
        "o",
        "od"
      ],
      [
        "Ġ",
        "5"
      ],
      [
        "Ġ19",
        "7"
      ],
      [
        "t",
        "on"
      ],
      [
        "re",
        "d"
      ],
      [
        "Ġc",
        "an"
      ],
      [
        "Ġp",
        "r"
      ],
      [
        "2",
        "00"
      ],
      [
        "ur",
        "y"
      ],
      [
        "is",
        "hed"
      ],
      [
        "ou",
        "th"
      ],
      [
        "Ġl",
        "in"
      ],
      [
        "Ġn",
        "ew"
      ],
      [
        "Ġ|",
        "|"
      ],
      [
        "Ġof",
        "f"
      ],
      [
        "an",
        "ce"
      ],
      [
        "Ġo",
        "ver"
      ],
      [
        "f",
        "t"
      ],
      [
        "Ġo",
        "ut"
      ],
      [
        "or",
        "ld"
      ],
      [
        "r",
        "am"
      ],
      [
        "r",
        "al"
      ],
      [
        "re",
        "n"
      ],
      [
        "e",
        "x"
      ],
      [
        "Â",
        "ł"
      ],
      [
        "as",
        "e"
      ],
      [
        "on",
        "t"
      ],
      [
        "Ġthe",
        "y"
      ],
      [
        "on",
        "e"
      ],
      [
        "Ġf",
        "ilm"
      ],
      [
        "Ð",
        "°"
      ],
      [
        "Ġint",
        "o"
      ],
      [
        "p",
        "e"
      ],
      [
        "Ġ",
        "qu"
      ],
      [
        "ĠA",
        "merican"
      ],
      [
        "g",
        "an"
      ],
      [
        "a",
        "h"
      ],
      [
        "ou",
        "gh"
      ],
      [
        "is",
        "ion"
      ],
      [
        "Ġt",
        "r"
      ],
      [
        "ĠL",
        "e"
      ],
      [
        "Ġe",
        "v"
      ],
      [
        "an",
        "s"
      ],
      [
        "Ġ",
        "und"
      ],
      [
        "Ñ",
        "Ĥ"
      ],
      [
        "Ġs",
        "erv"
      ],
      [
        "Ġal",
        "l"
      ],
      [
        "Ġl",
        "oc"
      ],
      [
        "am",
        "es"
      ],
      [
        "Ã",
        "©"
      ],
      [
        "Ġp",
        "re"
      ],
      [
        "E",
        "x"
      ],
      [
        "or",
        "th"
      ],
      [
        "ak",
        "e"
      ],
      [
        "in",
        "al"
      ],
      [
        "d",
        "uc"
      ],
      [
        "ĠS",
        "h"
      ],
      [
        "ran",
        "s"
      ],
      [
        "oc",
        "k"
      ],
      [
        "Ġg",
        "ro"
      ],
      [
        "ivers",
        "ity"
      ],
      [
        "ol",
        "og"
      ],
      [
        "ro",
        "ugh"
      ],
      [
        "Ð",
        "¸"
      ],
      [
        "Ġat",
        "t"
      ],
      [
        "ic",
        "k"
      ],
      [
        "Ġc",
        "ol"
      ],
      [
        "Ġt",
        "ime"
      ],
      [
        "ic",
        "t"
      ],
      [
        "al",
        "e"
      ],
      [
        "an",
        "c"
      ],
      [
        "Ġ19",
        "6"
      ],
      [
        "os",
        "e"
      ],
      [
        "Ġw",
        "ork"
      ],
      [
        "Ġk",
        "n"
      ],
      [
        "for",
        "m"
      ],
      [
        "1",
        "8"
      ],
      [
        "tern",
        "al"
      ],
      [
        "e",
        "ver"
      ],
      [
        "c",
        "ess"
      ],
      [
        "Ġp",
        "eople"
      ],
      [
        "ĠC",
        "ol"
      ],
      [
        "Ġh",
        "im"
      ],
      [
        "as",
        "on"
      ],
      [
        "Ġs",
        "ec"
      ],
      [
        "ĠUn",
        "ited"
      ],
      [
        "i",
        "ous"
      ],
      [
        "Ġ",
        "est"
      ],
      [
        "ĠS",
        "p"
      ],
      [
        "ri",
        "b"
      ],
      [
        "ist",
        "s"
      ],
      [
        "i",
        "x"
      ],
      [
        "it",
        "ies"
      ],
      [
        "i",
        "el"
      ],
      [
        "en",
        "er"
      ],
      [
        "a",
        "z"
      ],
      [
        "Ġb",
        "u"
      ],
      [
        "n",
        "e"
      ],
      [
        "l",
        "l"
      ],
      [
        "Ġb",
        "et"
      ],
      [
        "Ġcon",
        "s"
      ],
      [
        "re",
        "at"
      ],
      [
        "in",
        "s"
      ],
      [
        "Ġs",
        "he"
      ],
      [
        "c",
        "ent"
      ],
      [
        "Ġund",
        "er"
      ],
      [
        "Ġwhe",
        "n"
      ],
      [
        "e",
        "v"
      ],
      [
        "e",
        "at"
      ],
      [
        "oot",
        "ball"
      ],
      [
        "Ġ",
        "6"
      ],
      [
        "ou",
        "n"
      ],
      [
        "Ġre",
        "g"
      ],
      [
        "a",
        "j"
      ],
      [
        "Ġlin",
        "ks"
      ],
      [
        "in",
        "ce"
      ],
      [
        "Ġm",
        "ore"
      ],
      [
        "ĠJ",
        "o"
      ],
      [
        "Ġc",
        "o"
      ],
      [
        "b",
        "um"
      ],
      [
        "Ġin",
        "d"
      ],
      [
        "i",
        "er"
      ],
      [
        "in",
        "n"
      ],
      [
        "an",
        "n"
      ],
      [
        "ol",
        "low"
      ],
      [
        "Ġc",
        "ent"
      ],
      [
        "c",
        "he"
      ],
      [
        "u",
        "ary"
      ],
      [
        "Ġw",
        "ould"
      ],
      [
        "Ex",
        "ternal"
      ],
      [
        "if",
        "e"
      ],
      [
        "we",
        "en"
      ],
      [
        "ul",
        "ar"
      ],
      [
        "ĠI",
        "nd"
      ],
      [
        "Ġp",
        "ubl"
      ],
      [
        "at",
        "t"
      ],
      [
        "ot",
        "h"
      ],
      [
        "u",
        "al"
      ],
      [
        "Ġp",
        "ol"
      ],
      [
        "Ġ",
        "Z"
      ],
      [
        "Ġfor",
        "m"
      ],
      [
        "Ġyear",
        "s"
      ],
      [
        "Ġre",
        "t"
      ],
      [
        "us",
        "e"
      ],
      [
        "Ġte",
        "am"
      ],
      [
        "us",
        "ic"
      ],
      [
        "Ġas",
        "s"
      ],
      [
        "oc",
        "i"
      ],
      [
        "Ġb",
        "o"
      ],
      [
        "ĠP",
        "ro"
      ],
      [
        "ab",
        "l"
      ],
      [
        "Ġst",
        "ud"
      ],
      [
        "Ġon",
        "ly"
      ],
      [
        "il",
        "y"
      ],
      [
        "st",
        "r"
      ],
      [
        "d",
        "er"
      ],
      [
        "ire",
        "ct"
      ],
      [
        "Ġag",
        "ain"
      ],
      [
        "id",
        "ent"
      ],
      [
        "Ġab",
        "out"
      ],
      [
[...]
