#version: 0.2
Ġ t
h e
Ġ a
i n
e r
o n
Ġt he
r e
a n
o r
e n
a t
Ġ s
Ġ o
e d
i s
e s
a l
Ġ w
a r
i t
Ġo f
n d
Ġ c
Ġ in
Ġ f
Ġ b
Ġ p
i c
a s
in g
Ġa nd
i on
r o
l e
Ġ S
Ġt o
Ġ m
Ġ d
o u
Ġ C
Ġ A
i l
Ġ h
en t
Ġ T
Ġ 1
a m
s t
e l
Ġ M
o m
o l
Ġ (
Ġ re
Ġ l
a c
Ġ B
a d
u r
Ġ P
e t
e c
Ġ n
i v
er s
at ion
Ġ H
i g
Ġt h
Ġ I
Ġ 2
i d
Ġw as
i r
o t
u s
Ġ e
Ġ R
a y
i m
Ġf or
l y
Ġ on
t er
Ġ1 9
Ġ D
Ġ L
o s
Ġ g
c h
Ġ is
u t
u n
Ġ F
o w
e m
Ġa s
is t
Ġ G
ĠT he
it h
Ġ N
Ġ W
t h
Ġs t
0 0
he r
an d
c t
u l
a g
c e
Ġw ith
â Ģ
Ġa l
Ġ E
Ġb y
u m
Ġ J
' s
r a
v er
ro m
Ġb e
o p
es t
Ġa t
Ġw h
Ġa n
r i
Ġc on
âĢ ĵ
Ġ O
o c
Ġ he
Ġ v
Ġf rom
o d
Ġ "
Ġth at
a in
al l
a b
i an
Ġ K
a v
Ġc om
it y
re s
t s
Ġd e
Ġp ro
i es
i f
at e
i a
Ġ U
e w
il l
u p
b er
Ġ it
u d
ar d
ar t
ĠS t
1 9
ig h
a k
Ġp l
q u
u b
i p
a p
Ġ or
Ġh is
or t
e ar
o re
ic h
Ġ r
Ġ Ċ
l d
es s
Ġ2 00
o v
T he
at ed
Ġa re
ĠI n
Ġ2 0
ou r
is h
ar y
m ent
u g
m er
iv e
on g
Ġc h
ĠC h
en d
n t
i al
o g
Ġe x
an t
Ġ V
g e
Ġs e
s e
as t
k s
in e
el l
u nd
er e
Ġ y
u st
am e
f er
or d
u c
r an
s o
e p
ec t
u re
i re
o st
) ,
Ġ le
Ġw ere
u e
ion s
ic al
en c
Ġ âĢĵ
Ġs p
Ġwh ich
ac k
ter n
i e
Ġal so
t her
Ġcom p
Ġs h
Ġ un
a re
ĠH e
ĠU n
Ġ k
r it
ag e
Ġpl ay
p p
r y
ig n
f f
as s
Ġ20 1
r ic
igh t
c l
ou s
ir st
Ġ Ġ
id e
m an
Ġc l
i z
or k
on d
e os
Ġn ot
Ġ Y
Ġa r
p er
av e
ation s
l and
or y
er v
Ġ 3
Ġ us
he d
Ġh ad
Ġh as
an g
o k
ow n
ou nt
Ġ19 9
Ġ1 8
om e
ation al
n g
Ġw he
am p
o ol
Ġf irst
ac t
Ġ ro
Ġcon t
Ġre s
ic an
f ter
ic e
Ġin t
ac h
e y
or n
at er
em ber
ĠI t
i b
ou t
ĠT h
Ġ Ð
w o
ĠA l
Ġa d
I n
Ġt e
u ct
it ion
ul t
im e
p h
Ġ j
Ġthe ir
Ġit s
en s
Ġa b
en ce
re e
p l
e e
at es
Ġwh o
it ed
p ort
i k
ch ool
le ct
ac e
2 0
enc es
) .
Ġb ut
ou nd
a w
ĠA r
at h
ar k
l ow
mer ican
Ġa c
Ġon e
Ġa pp
Ġp art
Ġ -
e g
Ġy ear
ug h
cl ud
Ġm an
ub l
p t
it e
ou ld
Ġre c
al ly
il d
or s
i le
Ð ¾
e op
il m
o ver
f or
Ġ her
is s
w n
ent s
Ġp er
iv ers
l es
Ġa g
Ġh ave
e b
ĠN ew
Ġth is
R e
res s
i o
ad e
eop le
h n
o y
Ġ 4
Ġb ec
ur ing
Ġ en
Ġs c
Ġ19 8
ol d
Ġin clud
Ġt wo
fer ences
o b
as ed
on s
t e
in d
o ot
Ġ |
ĠM ar
v el
o in
Ġo ther
ur n
u ch
g h
a il
Ġd es
w ard
al s
Ġ im
h ip
ab le
Re ferences
ing s
i ed
s s
Ġd is
Ġbe en
ĠC om
Ð µ
Ġcom m
Ġa fter
w ay
Ġa ct
el y
w e
b all
t ed
ic s
Ġ up
o od
Ġ 5
Ġ19 7
t on
re d
Ġc an
Ġp r
2 00
ur y
is hed
ou th
Ġl in
Ġn ew
Ġ| |
Ġof f
an ce
Ġo ver
f t
Ġo ut
or ld
r am
r al
re n
e x
Â ł
as e
on t
Ġthe y
on e
Ġf ilm
Ð °
Ġint o
p e
Ġ qu
ĠA merican
g an
a h
ou gh
is ion
Ġt r
ĠL e
Ġe v
an s
Ġ und
Ñ Ĥ
Ġs erv
Ġal l
Ġl oc
am es
Ã ©
Ġp re
E x
or th
ak e
in al
d uc
ĠS h
ran s
oc k
Ġg ro
ivers ity
ol og
ro ugh
Ð ¸
Ġat t
ic k
Ġc ol
Ġt ime
ic t
al e
an c
Ġ19 6
os e
Ġw ork
Ġk n
for m
1 8
tern al
e ver
c ess
Ġp eople
ĠC ol
Ġh im
as on
Ġs ec
ĠUn ited
i ous
Ġ est
ĠS p
ri b
ist s
i x
it ies
i el
en er
a z
Ġb u
n e
l l
Ġb et
Ġcon s
re at
in s
Ġs he
c ent
Ġund er
Ġwhe n
e v
e at
oot ball
Ġ 6
ou n
Ġre g
a j
Ġlin ks
in ce
Ġm ore
ĠJ o
Ġc o
b um
Ġin d
i er
in n
an n
ol low
Ġc ent
c he
u ary
Ġw ould
Ex ternal
if e
we en
ul ar
ĠI nd
Ġp ubl
at t
ot h
u al
Ġp ol
Ġ Z
Ġfor m
Ġyear s
Ġre t
us e
Ġte am
us ic
Ġas s
oc i
Ġb o
ĠP ro
ab l
Ġst ud
Ġon ly
il y
st r
d er
ire ct
Ġag ain
id ent
Ġab out
Ġs chool
Ġm ost
ĠUn iversity
ĠS c
Ġwhe re
Ġd uring
Ġs up
ĠC l
Ð¾ Ð
em b
Ġs ub
ĠE ng
er ies
Ġre l
an y
Ġbet ween
Ġs y
Ġplay ers
le y
Ġm e
Ġ 7
ra ph
a ir
Ġus ed
en n
ĠA n
d uct
Ġp op
Ñ ģ
Ġin ter
ion al
Ġal bum
em ent
Ġd ec
Ġe ar
ag ue
ist ory
Ġth rough
at ive
Ġre le
ro und
res ent
Ġd ist
if ic
Ġre m
ĠSt ates
f ore
Ġthe re
Ġ19 4
Ġ19 5
p r
Ġth ree
ar s
Ġs o
Ġt ra
ĠTh is
as h
Ġn um
in a
over n
he n
Ġ ed
Ð ½
Ġf ound
Ġf ollow
ou se
Ġthe m
o ber
t en
iel d
er m
ers on
Ġs ing
19 9
p or
Ġthe n
Ñ Ģ
Ġ end
Ġl ater
ĠB r
iv er
Ġ ra
p en
at ing
Ġm ov
" ,
Ġrec ord
Ġw rit
" .
ar g
ĠS chool
Ġ ent
Ġt rans
ĠI s
Ġs uch
i am
Ġm ade
er n
er t
Ġa m
Ġ 8
Ġpro v
el s
Ġsec ond
os s
Ġs ome
er man
Ġsp ec
Ġth an
ĠĠ ĠĠ
Ġkn own
c c
Ġs et
an k
ĠC ount
u res
v e
Ġse ason
vel op
Ġar t
ik e
. "
is m
le v
ĠA s
og raph
Ġin v
it s
Ġde f
ow er
Ġd o
ĠJo hn
ĠA ust
ĠB l
Ġe lect
ep t
Ġf ootball
ric t
ĠW ar
ĠW orld
Ġbec ame
Ġest abl
m p
it t
ment s
Ġs ong
iv ed
Ġ1 7
Ġbe ing
Ġ Q
in es
Ġd irect
Ġ 9
Ġex p
ĠC ar
i ew
Ġp ar
Ġ &
ot her
un e
Ġc all
ĠF ran
Ġl a
Ġf l
Ġ1 0
âĢ Ķ
Ġst r
us s
ĠC on
le t
Ġb l
Ġw ell
ĠC an
is e
Ġf am
iv ing
Ġp h
ay s
ut e
Ġm on
u ro
ur ch
Ġch ar
c es
st em
st it
r on
s on
ĠP h
ĠS he
a x
ĠCom m
Ġf our
ĠB rit
ver y
Ġs eries
Ġm ed
i ent
oun c
Ġg r
Ġn o
Ġac c
e f
Ġh igh
ul l
Ġm od
Ġinclud ing
t il
ĠY ork
b y
Ġin c
ĠN ational
Ġy ou
ĠO r
ic ip
ow ever
Ġwh ile
th s
Ġad d
Ġg o
Ġb ir
Ġman y
Ġle ad
Ġgro up
Ġor ig
Ġo per
t y
Ġs ign
Ġm ay
el f
Ġbe fore
a i
Ã ¡
tern ational
u es
ĠA d
ĠA t
Ġ19 3
g ram
ĠF or
ire d
ur al
at her
ĠP r
00 0
Ġb ro
Ġ1 5
Ġagain st
ĠP l
Ġo wn
ĠO n
Ġs ur
ĠCount y
am ed
ĠM ay
ul ation
et h
ĠJ an
Ġc ount
Ġsh ow
Ġn ame
Ġg u
Ġb ack
ic a
20 1
2 1
Ġun til
ian s
Ġe m
Ġm ain
j ect
Ġ1 6
ut ion
iv es
m y
ĠS outh
Ġ200 6
en g
ar ri
Ġnum ber
Ġde velop
u k
Ġc ap
amp ions
Ġd if
Ġf in
19 8
Ġb oth
Ġc re
i um
y s
Ġc are
Ġare a
r ist
et s
Ġm usic
l ish
ĠG erman
Ã ³
Ġm in
ot t
Ġd r
Ġg ener
Ġfor mer
b orn
ĠAust ral
Ġde ath
Ġ1 2
Ġoff ic
ut h
Ġ .
Ġn e
Ġre p
olog y
Ġse ver
ro ss
le ge
Ġbu ild
ĠW h
y l
Ġplay ed
iz ed
ĠJ u
Ġv ar
s p
he s
Ġre ce
u ally
im es
ag es
Ġg ame
aj or
is ter
Ġo pen
Ġs m
ug ust
ĠC ent
Ġf eat
emb ers
om an
duc ed
i or
Ġex t
p le
overn ment
ĠN ov
ĠC ity
v ed
ĠP ar
Ġr un
er ed
l ed
ov e
Ġsy stem
Ġdes ign
ad a
Ġrele ased
in c
are d
om en
Ġo b
ĠLe ague
ain ed
i et
is c
Ġst ate
a use
ĠD ec
ĠB ro
S t
ĠG e
f ess
u ed
ept ember
o ok
ĠN orth
Ġ '
C h
ĠBrit ish
a id
os ed
Ġw ill
Ġw on
iss ion
s h
Ġpro gram
re t
Ġl ong
ir d
lev ision
Ġto wn
am b
r id
ib le
it al
Ġret urn
et er
Ã Ń
ĠC al
ĠD e
19 7
Ġcall ed
an ge
v ent
Ġst ation
ar m
re nt
ct ober
ist or
v en
ĠA ugust
Ġde p
Ġpol it
ĠG u
Ġs ame
il t
Ġcont in
Ġan n
ĠE d
S ee
Ġsever al
al ity
Ġor gan
il ity
f ul
Ġl ife
Ġa ir
Ġm at
ak ing
Ġcl ub
ward s
ĠB ar
ĠAl l
A merican
ĠK ing
str uct
h am
ĠS eptember
ĠA ss
a u
Ġs uc
n er
Ġfollow ing
r is
ĠMar ch
Ġb as
ĠE uro
Ġan y
ĠI I
Ġpubl ic
a f
ĠM an
pr il
on y
ampions hip
Ġ1 3
1 0
oin t
ĠB e
r ing
Ġus e
ograph y
Ġthe se
ial ly
Ġc ur
Ġst art
ĠJ une
Ġ el
f l
Ġear ly
cent ury
à ¸
ain s
Ġn ear
ang u
ĠG r
1 7
un g
ĠO ctober
ure d
Ġdis c
ĠJan uary
al es
ic es
Ġcl ass
ĠA m
ĠJu ly
ap an
Ġb el
Ġb and
Ð »
ĠH igh
Ġcomm un
st er
ĠC o
t he
eb r
l ing
ĠU S
Ġres p
Ġw e
ĠSt ate
Ġcare er
Ġ1 4
Ġp ass
Ġch ild
re en
Ġfam ily
il it
c om
Ġcomp le
Ġhe ad
id ed
i ence
k e
ce pt
O n
ec hn
ro p
ĠR e
Ġs im
Ġpop ulation
ĠThe y
Ġc ity
ĠW ill
m in
at or
ĠF l
od e
an ts
es e
ĠA pril
Ġ200 7
an e
ĠP ol
Ġp res
Ġs ince
ĠR eg
y n
Ġe ff
ical ly
or ks
Ġv ers
Ġl ist
. .
Ġt it
or ts
t o
Ġb ased
c k
Ġal ong
il le
Ġg ames
Ġapp ear
Ġ1 1
end ed
ĠR ep
Ġm en
Ġ es
ĠDec ember
Ġl and
is ed
ĠNov ember
ec ts
ĠT r
on om
ĠS w
or m
o x
ect ion
ĠW est
2 2
Ġ âĢĶ
Ġsm all
ĠH ar
ĠEng lish
ord s
Ġestabl ished
ac ed
Ġn amed
Ġpro duct
as ter
ĠCh rist
Ġloc ated
Ġe ach
uc k
Ġim p
ĠE x
Ġp erson
Ġdes c
Ġm embers
Ġp rom
ac ks
iv al
Ġbe gan
igh ts
un icip
Ġen g
Ġv ill
in ess
ĠA fter
qu e
ec h
b le
Ġd id
ĠA f
ĠEuro pe
ĠR ec
at a
av ing
Ġbir ths
19 6
er g
Ġhe l
Ġb us
Ġo cc
ĠR o
at s
ebr uary
Ġc ar
ĠM c
Ġman ag
Ġsup port
Ġm et
ĠH is
f ord
a e
ro w
a ugh
ĠA nd
ĠGe or
Ġcent ury
ore d
m e
en e
ren ch
t ing
ard s
Ġ200 5
r act
Ġpl ace
Ñ ĥ
s ide
Ġm ajor
Ġc ould
Ġdif fer
in o
Ġh ome
ĠJ apan
Ġre v
Ġw orld
Ġcomp et
Ġt erm
Ġfilm s
ur g
it ions
Ġ200 8
Ġsing le
ar n
ar ge
Ð º
l in
al th
our n
ĠCol lege
ĠN o
ad em
Ġl aw
y p
Ġn ow
re w
Ġsuc cess
id es
ac es
Ġp o
ĠE l
ro l
Ġn ational
er y
Ġg overnment
Ġloc al
ĠC up
Ġte levision
1 6
1 5
Ġa round
ĠF ebruary
a ul
ĠP ark
Ġp os
al d
ĠA b
ear ch
T h
ond on
iv ision
et y
un ct
ĠA ir
ĠH owever
k et
ff ic
ĠCom p
Ġl ine
Ġcomp any
H e
ly mp
m ed
Ġm ember
Ġbu ilt
Ġo ld
id d
o o
ĠM in
at ure
ĠS e
A l
at ic
1 2
Ġl ast
Ġre st
Ġle g
an a
Ġre f
Ġc r
p s
Ġplay er
re et
ac ter
ak es
at ely
t t
Ġ200 4
es tern
s c
Ġd ue
ubl ic
uth or
oci ation
Ġpubl ished
ad io
Ġn orth
Ġto ok
our t
Ġhe ld
Ġ X
ar a
Ġle ft
Ġ201 0
ill ion
ex t
Ġe p
Ġs u
ĠS y
che s
y le
ent ly
Ġ19 2
Ġ200 9
is on
in t
Ġf inal
a us
Ġd et
Ġre qu
ĠT e
it er
ĠL ondon
âĢ Ļ
Ġj oin
Ġed uc
Ġd own
ide o
Ġserv ed
ĠM ed
ĠIt al
ing ton
ed er
angu age
if ied
ĠD ist
iv en
Ġev ent
ĠD av
Ġre fer
Ġc amp
c o
Ġcons id
al k
ĠH er
Ġa v
d ay
ĠP art
Ġpro fess
ilit ary
p ed
Ġbec ause
th ough
ĠCh ar
Ġ if
Ġde b
Ġ201 1
Ġinclud e
Ġ200 0
i od
Ġh istory
Ġsh ort
Ġp resent
ĠWill iam
ĠA ng
ie f
r ation
in k
a im
enc y
Ġl ike
Ñ ı
Ġd el
Ġ19 0
Ġs on
Ġ ,
od y
om in
5 0
in ed
Ġd ay
H istory
um b
Ġl arge
ect ed
ord ing
Ġs ix
Ñ ĭ
Ġal low
ĠL a
p ar
Ġt ri
um ent
iz ation
ur s
Ġapp ro
ĠAf ric
v ers
Ġb orn
ĠC or
Ġp ower
on es
ĠS ec
Ġj ust
ĠF rench
Ġor der
Ġf ive
Ã ¼
um an
| -
ĠThe re
if orn
ĠR uss
ĠD r
ĠS up
ra ft
l ine
Ġs l
l er
Ġdiffer ent
t al
1 4
ĠE n
z e
um n
ri end
ĠPh il
1 3
Ġres ult
Ã³ n
Ġorig inal
iforn ia
Ġl arg
Ġm ark
ĠCh ampionship
um mer
Ġinclud ed
om b
ĠY ou
Ġf r
Ġw omen
inn ing
Ð ¼
it ar
re g
Ġs k
iv ely
ounc il
Ġwith in
Ġd em
le g
Ġrece ived
ur ther
ain t
Ġre pl
Ġan other
arri ed
Ġst and
ĠR iver
st e
Ġto p
s k
v es
t ain
Ġ200 3
n ess
ĠM e
Ġbo ok
ĠH ouse
Ġvill age
Ñ Į
Ġd ied
ĠEng land
Ġst ill
Ġs outh
Ġs aid
Ġc or
ĠS an
he m
Ġpro t
Ġ $
et her
ĠAustral ia
Ġdist rict
Ġth ird
ic o
ition al
Ġn on
n a
Ġcur rent
Ġ3 0
Ġad v
ĠG l
ĠCal ifornia
ee k
our s
Ġper form
Ġm unicip
ad ian
v ious
oc ial
her n
. ,
ĠM ich
op h
Ġw ater
o on
Ġchar acter
Ġchild ren
Ġ very
Ġe qu
Ġbuild ing
Ġf ac
er ing
Ġqu e
ĠInd ian
Ġw ar
Ġim port
Ġv is
Ġn ov
Ġh and
Ġb est
ĠA ct
Ġ200 2
Ġf ield
19 4
Ġk ill
Ġ200 1
ĠR es
Ġtr ad
Ġ18 9
Ġrep resent
ol l
Ð ²
et t
Ġ201 2
Ġof ten
ĠA c
m s
Ġex per
Ġper iod
ĠO lymp
al t
ĠA g
2 3
Ġvers ion
Ġp ost
Ġw eb
d om
Ġ 0
Ġserv ice
Ġdesc rib
os p
b o
Ġis s
Ġm ale
Ġinc re
ad y
Ġm ake
land s
ĠIn ternational
ep end
iz e
ug g
ĠDist rict
Ġs ol
ac y
ort hern
19 5
Ġbe g
ra in
al f
Ġo pp
Ġbus iness
ĠE ast
Ġcon c
ĠS ch
Ġv al
Ġh ouse
U n
Ġre port
Ġs old
Ġth ough
w ork
ĠAr t
Ġt urn
e al
Ġst at
re st
Ġstud ents
Ġ ec
Ġcon struct
ener al
Ġev en
art ment
Ġ2 5
u el
ĠP er
Ġa uthor
Ġp at
oy al
ĠCan ada
Ġs ide
Ġex pl
Ġar ch
Ġwh at
Ġm uch
ĠM on
en se
Ġf e
op s
Ġmov ed
ĠCh urch
a el
Ġcount ry
Ġp oss
Ġorig in
ir l
att le
Ġl ed
ap p
pl oy
Ġcol lect
Ġc ult
ec ut
Ġestabl ish
Ġsp e
a ff
or ies
Ġt echn
ĠP res
f ield
Ġh istor
as es
Ġc over
Ġa ff
ad es
form ation
rib ut
il ar
ĠA ward
oci ety
ĠG ro
Ġch ang
Ġpro duced
Ġtit le
om p
Ġw in
' t
Ġm ag
ri pt
ri es
19 3
Ġt em
Ġp ort
Ġc rit
c ast
Ġl ate
Ġth ose
i us
he l
Ġb r
1 1
Ġf act
ĠB o
Ġle vel
Ġs ite
use um
Ġwrit ten
Ġact iv
Ġ201 3
s ite
iv il
us h
av y
er a
Ġinv ol
le x
Ġf ather
ot e
i ber
n ey
Ġep is
A r
Ġsh ip
iv id
Ġ2 4
Ġf ore
Ġb re
ĠSt reet
am a
Ġann ounc
Ġcomm on
Ġc ame
Ġro le
Ġam ong
Ġpop ular
ĠA mer
Ġus ing
Ġtra in
ol ic
am ent
Ġv oc
Ġeng ine
ap e
o f
and er
rid ge
id a
ĠInd ia
ot es
P eople
Ġ et
d e
Ġ201 4
c hed
re m
ĠQ u
ir c
B C
c ed
Ġpro cess
Ġin ternational
ĠO ne
for man
ĠS m
ĠAr my
ĠR oman
an ia
Ġ18 8
v ille
Ġg iven
Ġf re
as tern
Ġpre vious
n ing
Ġs w
o ff
Ġra il
ther n
Ġ199 9
ĠP ort
Ġto tal
ĠRo ad
Ġgener al
om et
k a
Ġbec ome
Ġs it
Ġyou ng
ĠH ol
Ġw ent
ĠÐ ¿
ad o
m ing
Ġpr im
ĠE m
Ġw ay
Ġro ad
ĠD ep
ou thern
ent ion
ag o
Ġa ge
ĠV al
s elf
Ã ¶
Ġne ed
im ent
Ġvar ious
h a
Ġe very
it or
min ist
ad u
Ġv ol
Ġcommun ity
Ġ Ã
Ġf ew
ot s
Ġopen ed
A n
ab or
Ġspec ies
ĠB y
u f
por ts
ĠĠ Ġ
ĠQ ue
Ġdeath s
re am
Ġpro p
anc es
ĠN or
Ġoffic ial
ict ion
ĠR ober
Ġw orks
Ġan t
Ġint ro
ree k
ĠP aul
ĠR ed
Ġn ext
Ġex amp
ar i
Ġstr uct
Ġre ad
ourn al
ur b
Ġt w
Ġ199 0
an ish
Ġh ost
Ġt ake
ĠM or
ĠB el
itt le
Ġv ideo
ĠL ou
Ġ201 5
le ment
ĠRec ords
Ġin it
Ġalbum s
Ġh aving
Ġa ward
Ġstart ed
Ð ´
ĠGeor ge
ĠJ ames
a ur
Ġ âĢ
m en
Ñ ĩ
b or
ĠDav id
ber t
Ñģ ÑĤ
ĠR ich
Ġspec ial
Ġg reat
ĠAmer ica
Ġm illion
Ġp e
Ġs ent
l i
ac hed
Ġ [
Ġ199 8
ĠAustral ian
ĠFran ce
ir on
Ġ201 6
ĠAss ociation
Ġdevelop ment
l o
Ġcre ated
e h
ro te
Ġ18 6
Ġpro duc
Ġcon f
Ġst ory
om m
Ġsong s
ĠPart y
o le
L iving
Ġproduct ion
it z
i Ã³n
Ġ2 3
Ġreturn ed
ĠP al
Ġ2 1
her s
ĠD es
Ġh ig
e an
A s
og n
stit ute
ak en
ra w
ip p
Ġt imes
Ġschool s
Ġst ar
Ġdeb ut
est s
o or
ĠH all
Ġcl aim
Ġco ach
Ġbro ad
Ġm ult
Ġcon n
Ġreg ion
m a
Ġt er
Ġh owever
idd le
Ġgu itar
Ġre al
ĠW hen
il es
ol ution
ĠR ev
Ġcom b
Ġ2 2
ĠA nt
Ġhel p
olog ical
ell ow
ĠM al
our ces
Ġsim ilar
se qu
g y
Ġm ilitary
Ġf ull
Ġse e
Ġbe h
Ġimport ant
= "
Ġf ind
ĠD ivision
Ġin fl
op e
i ol
ic le
Ġg l
ĠB as
Ġset t
Ġ z
ĠC ouncil
at ors
Ġm y
Ġl o
ib r
Ġ198 0
Ġ18 7
Ġcont rol
Ġp ri
wo od
Ġannounc ed
ĠM y
in ation
ĠĠĠĠ ĠĠĠĠ
om as
ĠCl ub
Ġre n
Ġ =
Ġf riend
ĠÐ ²
Ġwith out
A fter
r ack
Ġst yle
ar ly
Ġl im
Ġpr act
m it
r ight
y a
n ow
l ess
y pe
Ġre d
r u
ĠC ath
ĠSt ud
ĠThe se
Ġper forman
ra b
Ġro und
ĠGerman y
ĠUn ion
Ġd i
er b
ĠD uring
Ġd est
ill s
l ic
at ch
Ġch urch
i ers
Ġjoin ed
way s
Ġpolit ical
Ġ201 7
ber g
v iew
ĠEurope an
Ġf em
Ġpos ition
ĠR oyal
Ġapp e
ĠG eneral
ash ington
Ġare as
ell s
Ġm arried
Ġ enc
Ġatt em
umn i
Ġr ight
P ro
Ġp oint
g in
oc r
ĠCan adian
ĠBl ack
st on
Ġw rote
Ġin f
ĠV ir
Ġl anguage
ar ch
ĠKing dom
i j
Ġweb site
Ġbro ther
ĠM usic
ĠComp any
u le
an ies
ain ing
et work
y ear
ĠT ex
Ġg en
Ġ2 6
) :
ri an
Ġind ivid
ic ular
3 0
Ġ199 6
c er
g round
ĠT own
Ġ201 8
I t
w h
ra z
stit ut
Ġ199 7
on a
ĠM art
it her
pl ay
g r
Ġ ident
Ġtr ack
Ġrecord ed
ĠB er
ĠP at
ĠT V
oin ted
Ġconsid ered
ĠP ress
Ġsh ould
ric k
Ġpolit ic
u ce
Ġle ague
Ġcontin ued
Ġeduc ation
ĠM ag
Ġprofess ional
Ġind ust
Ġ2 7
Ġpro ject
at ter
Ġa ut
r ay
Ġg ood
Ġe ast
ro ll
il i
Ġ2 8
Ġappe ared
Ġg et
Ġgroup s
Ġatt ack
end ing
P l
is ing
ĠÐ ¸
oin ts
Ġwork ed
Ġt yp
eb all
Ġpro per
o ks
Ġ /
est ed
ĠR ail
ĠS en
ish ing
Ġc aus
x t
Ġnov el
u ter
Ġ1 00
C A
Ġst ations
re land
Ġro ck
Ġdo es
Ġh uman
Ġl ost
ul ts
fer ence
us ed
Ġof fer
ĠL aw
Ġc ross
ĠPres ident
ĠT ur
Ġ197 0
Ġh alf
v al
ĠM ary
ar l
augh ter
Ġl ive
Ġev ents
unct ion
th let
ĠJ os
Ġexamp le
y ing
Ġdescrib ed
Ġec onom
h an
Ġd ays
n el
ĠS l
Ġd iv
h ib
Ġteam s
Ġh on
ĠM ont
ag ed
g es
ket ball
ĠD on
ap t
ĠF ootball
Ġm id
Ġpr iv
ab ly
Ġfound ed
Ġelect ion
Ġ Ñģ
Ġav ail
Ġcomple ted
Ġdirect or
ĠIs land
ĠW e
y m
ĠB u
Ġ20 19
Ġmat ch
c y
ä ¸
C l
ert ain
b urg
ĠW ith
ĠW ashington
s hip
ĠAng el
Ġt en
ĠAc adem
Ġin s
ap er
em ents
ĠGro up
ĠM o
p ro
od es
Ġcon d
Ġh old
2 5
ĠG reat
Ġserv ices
Ġl ess
Ġf urther
Ġex ist
Ġm iss
Ġs qu
r d
r ated
Ġd er
Ġh ow
Ġan im
ĠTex as
Ġl os
W h
he re
us ical
Ġdevelop ed
Ġinfl u
Ġrel ations
ĠF irst
Ġpres ident
ĠC ourt
Ġv ict
le ar
Ġb ody
Ġm aking
ĠL ist
id ence
ock ey
Ġm ot
Ġr adio
ĠM ount
Ġem ploy
r ish
ĠS ing
Ġm ater
ra p
Ġsp orts
Ġplay ing
at ural
ĠN e
Ġv iew
ĠS erv
ĠS im
k y
Ġ199 5
ĠH en
Ġsign ed
cc ording
Ġsur v
m ost
and ing
Ġs ocial
Ġhim self
ac ing
ĠB ay
t ime
Ġn ever
ĠJ ew
Ġass ist
ĠAr ch
i que
ud d
Ġpart icip
Ġadd ition
ol f
y d
Ġl iter
i os
Ġ199 4
all s
Ġw est
Ã ¤
ĠRober t
ĠS ociety
ĠS al
an i
ol it
um p
ĠM ac
ĠP ri
g er
ĠJapan ese
w are
al ign
Ġc ase
Ġc ast
a ign
Ġ #
Ġs er
Ġmod ern
ĠM ex
um e
Ġform ed
ĠSc ott
ĠCent er
p ec
ĠD em
ĠPro v
Ġother s
Ġt ro
c ol
g o
u ation
Ġpart icular
un t
Ġrele ase
Ġmunicip ality
Ġgro w
it ect
ens ive
ĠItal ian
m ar
il ities
Ġ20 20
F ilm
Ġse lect
it ive
Ġw ife
ĠM ad
it ing
at re
iam ent
ĠLou is
Ġ199 2
o ice
Ġbec om
Ġse par
ĠCath olic
âĢ Ŀ
ĠM iss
Ġf ail
ĠT rans
ï ¼
ĠY ear
Ġinv est
Ġgro und
Ġavail able
ĠS am
ĠG reen
Ġeff ect
Ġ2 9
eth od
ou l
ĠFl or
e ep
Ġw eek
ĠU K
and ed
Ġcomp os
ĠP enn
Ġ( )
as ons
an o
Ġin formation
i en
ĠChrist ian
al a
Ġme et
b e
2 4
Ġind epend
Ġa ver
Ġar r
Ġin st
ic les
Ġr ul
ĠB est
| |
im ately
ĠFran c
ĠC ap
Ġbel ie
it ch
ers hip
ĠÐ ½
Ġf ire
s y
Ġto g
ant ed
ific ation
ĠMich ael
est ival
o res
c raft
p ite
ste ad
Ð ·
ist ic
ar ies
g ed
Ġh ous
ul a
ĠG old
ak er
Ġtog ether
Ġres earch
w est
Ġp oints
Ġmod el
ĠI reland
Ġl ight
ut es
u it
Ġd oc
ur a
ĠW estern
az ine
ĠC he
ect or
u x
h i
ĠCh ina
E ng
ĠC ro
ra el
yl v
ro y
er ry
ĠT or
Ġl ow
v iron
b our
ud e
and s
Ġa way
, "
Ġc e
ot ed
ĠV ol
ver t
ent ial
Ġac ross
Ġwork ing
Ġ ide
Ġph ys
Ðµ Ð½
id ing
Ġf ree
ecut ive
Ġvoc als
ĠM et
Ġal umni
Ġal though
l iament
Ġde v
un k
Ġcont ract
Ġrec ogn
Ġepis ode
Ġm other
Ġon ce
ĠOlymp ics
ĠTh omas
ĠA lex
ĠCent ral
ĠB en
duct ion
ĠM ark
ed y
ĠW il
ict or
ĠC ont
Ġmed al
ĠT o
at ory
Ġm ar
ĠVir gin
id s
4 0
Ġ5 0
Ġcol l
ign ed
eder al
ĠGr and
Ġcomp anies
S h
ĠIn ter
Ġestablish ments
Ġy our
T V
ĠComm un
Ġ196 0
Ġf und
c le
is l
Ġm ust
Ġrev iew
ĠC ong
Ġoff ice
Ġpl an
N ew
Ġ199 3
ĠB ill
ĠAcadem y
Ġconstruct ion
ot a
Ġs ound
ĠChar les
Ġrel ig
Ġsuccess ful
j ects
Ġelect ed
Ġstr ong
Ġb i
re y
ÑĢ Ð°
en a
ĠZ eal
Ġa p
itt ee
g ress
ep h
inc ip
Ġt aken
er r
Ġpro ble
at ives
oy s
k ed
Ġph ot
Ġbl ack
ac hes
Ġac cess
Ġbo oks
Ġmater ial
Ġad minist
b ack
Ġac qu
Ġ199 1
Ġapp ointed
ce ed
Ġorigin ally
Ġinclud es
ĠF rom
av es
ĠP eter
ĠCar ol
ĠZeal and
at ri
ab ility
Ġfeat ures
Ġl ab
em or
Ġgo al
Ġperform ed
act ers
S c
ec e
w rit
he ad
el t
ap s
ĠP et
Ġc our
i qu
Ġc ost
Ġkn ow
om s
ĠFran k
ĠOr der
Ġc he
id ents
z a
ri a
200 6
Ġr ace
on n
ann el
ch ie
ĠDep artment
Ġfollow ed
ish op
ffic ial
Ġimp ro
em s
Ð¾Ð ²
a ut
ough t
ell ing
Ġmon ths
ate g
Ġla un
ĠG od
osp ital
e es
Ġpart y
ines e
Ġdirect ed
ad ium
Ġm ix
Ġk ey
f ic
duc ation
Ġ20 21
ĠAfric an
Ġmark et
Ġreport ed
are n
Ġde g
Ġp ut
h ood
nd er
le b
Ġreg ular
Ġal ign
Ġkill ed
F or
ific ant
ĠG ames
ĠM useum
ĠB ut
Ġass oci
Ġ :
ran ch
Ġe ight
ĠR ock
Ġc irc
as c
Ġd aughter
ĠIn stitute
ĠC amp
Ġgr adu
s erv
ĠL ake
Ġcap t
ĠFlor ida
ĠAfric a
J o
ibr ary
Ġan al
Ġse en
l or
Ġto ur
ar ian
ol k
ĠL os
) ;
ec k
if f
Ġshow s
Ġattem pt
Ġle arn
ĠD ay
ĠG o
Ġb ar
ic ago
ant a
ĠT om
Ġcon duct
m b
i ation
Ġag re
Ġthrough out
Ġfeat ured
Ġp ain
Ġf ight
ylv ania
ĠRuss ian
Ġent ire
Ġt est
enc ed
viron ment
I I
ĠM el
ĠR ob
ĠâĢ ľ
Ġbuild ings
mer c
ã Ģ
Th is
Ġperforman ce
Ġd ata
ĠH am
ĠH ill
r as
er c
in i
ro ad
Ġlarg est
ĠC ast
re l
Ġaver age
Ġevent ually
ĠD an
Ġcamp aign
Ġ Â
ĠD o
k m
Ġt re
Ġe ither
ar ter
F A
A t
Ġ4 0
Ġp ast
ĠL eg
Ġf oc
2 7
ĠP e
ĠRich ard
Ġsign ificant
Ġtrain ing
er ous
air s
Ġcons ist
our ce
ug by
ĠPl ay
ach ing
it es
Ġd am
ĠRep ublic
ĠSp anish
u z
Ġ198 9
Ġg ave
Ġrem ained
Ġw id
Ġv iol
ĠI m
ov iet
ĠA pp
ĠSc ot
ĠWh ite
2 6
Ġs ugg
Ġp ress
Ġrepl aced
Ġse ven
Ġst ri
ĠK ore
Ġin j
m on
overn or
Ġ198 8
.. .
ĠF ilm
Ġfr ont
im ate
ist an
Ġdesign ed
augh t
Ġr ange
Ġ3 1
2 8
k i
av al
ĠS ummer
Ġfor ces
ĠF ore
an ks
ĠSm ith
200 0
s ylvania
Ġm ount
ig an
Ġintro duced
Ñ ħ
Ġhe alth
ĠGeor g
Ġa ud
ar th
Ġs il
ĠSec ond
Ġp ark
ĠW in
Ġab le
Ġfin ished
Ġsc ored
Ġst age
ĠV ictor
Ġ( "
Ġw inn
Ġfootball ers
Ġchar acters
om a
ut ure
ĠH istor
Ġ20 22
ĠIs rael
Ġ ill
ã ģ
uf act
ol a
G e
ĠC ons
o ch
k n
Ġab ove
Ð ¿
cent er
Ġh om
ĠK n
v ing
Ġre b
ĠF in
Ġbo ard
ĠH istory
Ġch ampionship
Ġtrans fer
Ġs em
at in
Ġsub sequ
Ġlead ing
Ġc ivil
Ġro ute
Ġg old
Ġch ange
Ġme an
Ġresp ons
ro s
re ad
mp ire
" )
Ġinvol ved
Ġadd ed
S A
. )
end er
Ġp ur
oo ks
Ġ198 7
Ġus ually
Ġsing er
L ist
Ġtrans l
ç ļ
ut ch
Ð ¹
ord er
ers ey
i res
F L
ĠM us
Ġpriv ate
ĠÐ ¾
Ġt reat
Ġd ou
Ġ18 5
I nd
ag on
med i
ĠS ome
h old
ic y
l am
2 9
id ge
Ġbir th
Ġstud y
Ġ198 6
ĠS aint
ian o
out e
ĠB ur
çļ Ħ
ĠItal y
ĠM il
Ġcl os
ow s
Ġprov ide
d en
ul ated
ĠPenn sylvania
Ġcon v
Ġp ot
Ġr ank
Ġup on
Ġcol lege
Ġcl ose
ar io
i Ä
ĠCh icago
ĠM r
ĠMin ister
Eng lish
R ec
ĠHen ry
ĠVirgin ia
it a
Ġwh ite
ĠM ass
c her
Ġart ists
un s
r ad
merc ial
as ing
f ace
Ġtra vel
Ġt ype
Ġst e
un n
Ġwrit er
l im
Ġr ights
ur ity
Ġes c
in ct
ĠT ra
ĠBro wn
6 0
ĠFor ce
Ġj ournal
ĠD el
l a
raz il
ĠS qu
ĠAngel es
Ġne igh
Ġ198 4
at al
Ã ¨
Ġc ourt
ĠWh ile
ic ated
is es
rough t
ĠÐ º
19 0
Ġs en
Ġmed ia
st ant
ĠD irect
ĠG re
ĠSt ev
Ġc op
Ġsp ace
Ġn ight
Ġo pt
Ġair craft
Ġs aw
Ġqu al
Ġdisc over
Ġprov ided
s el
Ġwrit ers
Ã ±
ĠCh inese
Ġact ress
i as
ĠJ ust
he ast
ar ily
Ġd ram
Ġaward ed
p ly
E arly
Å į
Ġj ud
ĠPar is
Ġf low
ay ing
Ġm ethod
Ġarch itect
Ġle ast
Ġfem ale
at o
ist ics
Ġr iver
op er
w ell
Ġst ates
ĠL ove
Ġinter est
ĠC r
ĠSt ar
Ġcent er
y r
bo ard
Ġchang ed
ĠE v
er o
p ts
uk e
Ġcount ries
Ġar g
Ġv ia
end s
Ġrail way
Ġs ch
B A
as k
ĠSup er
r up
ĠW ales
Ġexp ress
Ġc al
Ġa chie
ri al
Ġ198 5
Ġcurrent ly
Ġc reat
Ġpolitic ian
w w
Ġf av
ist ry
ĠAt l
e ated
Ġf ig
Ġmanag er
he st
Ġcent ral
or ing
Ġpar ts
The re
Ġre ached
Ġpo et
Ðµ ÑĤ
g en
ens us
Ġh it
ĠM a
Ġl ower
ct or
por ary
ĠI ll
ĠTur k
A d
A R
Ġs ection
N otes
Ġst aff
az z
Ġact ion
Ġbas ketball
Ġh ard
ov ers
ĠAn n
Ġs us
Ġ198 3
Ġres ults
eng th
Ġposs ible
ï¼ Į
u ff
Ġpr incip
Ġm usical
Ġan c
omet imes
Ġn etwork
Ġc y
Ġ195 0
Ġqu est
Ġin stead
Ġgo als
Ġresp ect
Ġl oss
Ġout side
ĠSw ed
i ences
Ġse x
Ġcl osed
ed s
Ġprim ary
Ġocc up
ĠO ld
ant ic
h ab
w er
Ġbroad cast
Ġmult ip
Ġun a
ĠAr ts
D e
ent h
i ents
u a
Ġdoc ument
ĠM ur
ĠO h
am s
Ġf all
ĠCol umb
ĠDem ocr
ok e
erv e
c a
t a
ell a
ĠE r
ĠN orthern
sy ch
Ġp ers
kn own
ult ural
ĠP ublic
Ġw ind
Ġrelations hip
Ġh or
stit ution
ĠI rish
ĠMex ico
ĠCong ress
ĠO ther
Ġes pec
Ġproduc er
il s
ong s
ĠS ir
ĠP re
rib ution
et te
Ġp red
ĠCl ass
ĠS oviet
Ġg irl
ens ion
Ġk ing
ĠComm ission
Ġcrit ic
Ã §
Ġs outhern
ĠI ts
Ġ197 9
S p
Ġ198 2
ĠM od
ĠK h
Ġde al
b ur
8 0
Ġ ĠĊ
Ġpol ice
id er
ĠA v
Ġcompet ition
Ġact or
Ġocc ur
Ġm ur
Ġsystem s
Ġn orthern
Ġc ut
Ġst re
Ġle t
Ġm ass
w a
ĠM ill
Ġfre qu
Ġman ufact
Ġr ather
cl us
b and
Ġdec ided
Ġ18 4
18 9
i ro
Ġw inning
h ire
Ġme as
Ġf ar
Ġl ik
Ð ±
ian a
b ased
st ra
l ike
Ġp urch
y e
r ig
Ġpl aces
le ments
ĠO f
D uring
Ġpl aced
Ġt ax
Ġb ass
Ġappro x
ĠO per
Ġb rought
o id
ĠO b
ĠT wo
Ġwh ose
m ond
ĠJ im
ĠW ood
ĠCarol ina
Ġgr and
Ġfour th
p eople
sh ire
ĠC D
Ġb en
ven ue
Ġn eg
L e
Ġac cept
Ġsing les
ĠP an
ĠJ ersey
Ġal most
T e
Ġto urn
ĠM er
Ġim m
g ent
ĠJ ack
Ġcomple x
Ġrun s
ĠS k
atri ate
200 5
P h
Ġtrans port
Ġ197 6
l ier
Ġits elf
Ġpar a
Ġpl ann
C an
ĠE mpire
Ġv eh
- -
w ith
ĠO ff
Ġb all
Ġre ve
um ents
ĠR h
Ġhig her
Ġart ist
ĠO ut
Ġ198 1
Ġl ook
Ġcap ital
Ġb ank
ec ess
Ġpl ant
Ġcult ure
Ġsc ience
ĠVal ley
ĠServ ice
Ġter rit
Ġf ood
Ġst ated
ript ion
re me
ur t
erg y
ĠH ow
Ġc ou
Ġperson al
at i
ing u
Ġun its
ĠPar liament
Ġf arm
Ġd en
Ġst op
ÃŃ a
Ġprevious ly
Ġ197 4
Ġfor ce
Ġis land
Ġ197 2
Ġcont ribut
ollow ing
ul ations
ult ure
ill a
emb ly
Ġoper ations
u als
Ġstud io
iet y
ĠA rab
Ġbeh ind
ĠS il
n ed
ĠS ur
or por
Ġn atural
Ġdest roy
Ġc red
Ġto o
Ġmunicip al
if t
Ġk eep
ult y
r or
Ġown ed
all ed
f fer
Ġadd itional
Ġe ver
ĠT echn
anc ed
ĠSc ience
Ġme ans
ĠR adio
ĠN avy
p ut
isc o
ĠH on
Ġpr ison
ĠT our
ĠD en
200 7
Ġreg ard
N A
ĠS eries
oun ter
ent al
Ġ197 8
if y
Ġs elf
Ġs um
Ġcomp let
g l
P erson
Ġ i
ell ed
ch ange
Ġb ase
un ior
Ġbre ak
Ñ İ
en ed
as ion
Ġd u
ĠÐ ¼
Ġb ur
Ġallow ed
p os
Ġsup er
Ġbeg inning
Ġr ate
lect ion
ĠF ort
Ġorgan iz
3 5
ĠA ccording
or a
Ġdef eat
Ġmag azine
Ġse asons
Jo hn
Ġso ft
ĠB razil
Ġmin or
C on
ĠO l
ĠR oute
o ir
is ions
Ġatt ended
Ġso on
Ġcom e
Ġstruct ure
ĠB ob
ĠMart in
he t
ĠR os
Ġnew sp
ĠT imes
Ġs ummer
ĠF estival
r uct
Ġl iving
ÑĤ Ð¾
e ff
Ġmov ement
Ġread ing
Ġco ast
Ġte xt
Ġf if
Ä ģ
ĠG reek
Ġwrit ing
Ġb attle
ly ing
are er
Ġend ed
Ġdet erm
ĠM os
Ġed ition
at form
it iz
ĠSp ain
200 4
a o
Ġw ood
Ġindust ry
Ġwh om
Ġc and
Ġdef eated
Ġob serv
Ġsc ient
Ġd ivision
Ġus es
Ġdeg ree
anc ial
ĠH ot
im b
Ġex cept
Ġpre m
ĠB attle
ĠG overnment
ĠB ig
Ġd on
Ġloc ation
Ġ197 7
Ġf uture
ech an
pp ed
O ther
ĠE ducation
iÄ ĩ
C ol
um s
Ġbo x
Ġcom mercial
Ġtrad itional
Ġn ames
Ġcollect ion
Ġl ittle
Ġc ertain
Ġespec ially
in ary
ĠL ine
/ /
ad d
ĠP o
ĠJos eph
Ġindepend ent
ĠF ound
ĠB us
ĠU p
Ġact ive
Ġindivid ual
Ġ197 5
Ġm ention
Ġrem ov
Ġce leb
aw a
ar r
Ġstud ent
un c
Ð¾Ð »
ic ro
k ing
Ġlead er
ĠF re
Ġin sp
as y
Ġlist ed
ĠIn c
ĠS er
i ography
Ġorgan ization
Ġsur round
Ã º
ĠL ife
ĠL and
ĠOh io
Film s
ĠÐ ´
ĠT ro
ut y
ĠSp ec
B l
Ġac adem
Ġn omin
Ġ197 3
ĠNew s
ĠA p
Ġto wards
Ġacc ording
it ors
ĠA wards
Ġun it
Ġ196 8
b ury
et ic
al ed
ĠP ac
ĠChampionship s
Ġmov e
Ġp ay
Ġappear ance
ac iÃ³n
Ġsh ot
or g
ĠProv ince
Ġt aking
A ll
ra v
w in
ret ary
Ġrequ ired
Ġd raw
ĠScot land
Ġph il
ĠM ost
Ġinvest ig
Ġsch ol
Ġg e
Ġrun ning
st ate
Ġsp ent
re ady
are nt
ĠS ub
ĠS a
ĠH aw
Ġcont ains
ib ility
y th
Ġclub s
ĠRail way
Ġstand ard
A m
7 0
Ġ ens
t rack
ri ef
ĠComm ittee
Ġ er
act ion
ĠYou ng
and a
st anding
Ġequ ip
ÑĤ ÑĮ
ĠD ef
Ġ197 1
ÑĢ Ðµ
n ot
Ġcent re
Ġcre ate
amp ion
Ġgener ally
ĠF r
Ġs ometimes
ad el
ir t
Ġd ig
m ark
à ¹
ĠL ong
ĠD ev
b on
Ġprogram s
ĠA re
Ġl ove
ĠRuss ia
Ġsc reen
ĠD ou
Ġh um
Å ¡
Ġm ission
am ily
ĠG ar
Ġdif fic
Ġmon ey
ĠE c
ry ing
Ġth us
Ġhig hest
ir m
Ġr an
ir it
Ġb ig
Ġapp lic
Ġpro f
ĠS o
Ġopen ing
C C
ol s
Ġen vironment
ĠAl though
Ġl ived
Ġfam ous
Ġs om
ĠS outhern
ran g
ĠF red
ĠII I
Ġh ockey
Ġp i
c el
ar ing
Ġconc ern
ÑĤ Ðµ
Ġbet ter
ect ions
ĠCar l
ost on
ĠP ak
Ġiss ues
ĠT er
ĠBro ad
Ġpract ice
Ġapprox imately
Ġab s
Ġem b
ĠIn t
k en
Ġ196 9
ĠH el
Ġind ic
ĠBo ard
Ġear lier
ĠAl b
Ġj ob
ard en
Ġrel ated
Ġw oman
Ġopp os
Ġfore st
ĠL iber
Ġpro b
Ġad op
al i
Ġatt ract
ĠB ook
Ġpri or
Ġe lev
Ġact ors
Ġin str
ĠL ord
Ġs af
ul f
Ġvict ory
ĠBrit ain
n y
Ġar my
ĠI f
ĠB ow
ĠTh at
ĠD i
f ect
200 3
Ġc ust
Ġnew s
or al
Ð ³
Ġex hib
ĠK ent
Ġg ive
Ġs at
ĠO ver
ĠJ ud
Ġchang es
w an
ĠB ul
Ġnum erous
ĠSt e
Ġsus p
Ġtown s
j a
Ġtr acks
ĠH a
Ġoper ated
Ġconsid er
Ġf unction
200 2
ĠThe atre
ĠC ross
ĠJew ish
3 3
ĠEng ine
im a
ĠO x
Ġsc ore
a res
Ġcomple te
u ild
Ġp en
ĠS ol
Ġo p
Ġr ad
Ġrem ains
u an
bur gh
ĠM ain
ĠS un
Ġsu ffer
Ġal tern
ĠSt ep
ro wn
all ery
ĠM ah
p ing
Ġassoci ated
on se
ans as
ĠM iddle
C areer
Ġactiv ities
Ġrelig ious
y an
ĠB re
Ġw estern
ubl ican
ĠT ri
h ouse
Ġappear s
Ġ196 4
Ġcour se
il ed
arri age
k o
i h
Ġ196 7
Ġprom ot
Ġsub ject
Ġd ate
Ġspec ific
Ġ ut
ac her
k ins
Ġt akes
4 5
Ġcomm and
at ers
ric ket
g ar
ĠC ivil
Ġmon th
ple ment
Ġappear ances
ĠSy stem
ĠG en
Ġfoc us
ĠW eb
re ct
Ġcand id
Ġlim ited
Ġs ize
Ġal ready
ĠS ar
c on
M ar
Ġl ength
9 0
A S
Ġw ord
F C
ian t
ĠL ee
Ġinter view
Ġv en
Ġbecom ing
Ġtr ade
ir a
Ġhe re
et ts
ä º
Ġh ot
Ġst ep
ĠGeorg ia
Ġe mer
o e
ĠB ank
Ġar m
Ġthough t
um ber
200 1
att al
Ġrecord ing
ĠCon n
pt ion
Ġfootball er
Ġmat ches
Ġterm s
ĠBl ue
* *
ino is
Ġmur der
d own
it ation
ĠMich igan
ig a
ĠP rem
: //
Ġfeat ure
Ġtourn ament
Ġch ief
Ġl as
ĠJ ones
Ġ196 6
Ġt rib
ab b
Ġd ed
I S
ĠN ot
ak a
Ġm ach
ic ation
Ġmost ly
Ġstat us
es c
ĠPro fess
em porary
Ġproper ty
Ġnot ed
b ers
av a
velop ment
v a
Ġret ired
vent ion
Ġ194 5
ad or
Ġrecord s
ĠC am
ag n
ay a
ee ks
3 7
Ġstud ies
col or
Ġcomm ission
ĠSt r
emor ial
urb an
Ġbas eball
Ġdec l
Ġpl atform
Ġass ociation
Ġincre ased
Ġed itor
Ġse qu
ect ive
Ġ194 0
Ġcaus ed
Ġiss ue
Ġhistor ical
ĠD utch
Ġmultip le
ĠM att
d s
Ġc le
Ġ20 23
Ġ193 0
in als
Ã¡ s
Ã £
Ġ Ñ
ĠPort ug
A ust
Ġsqu ad
Ġc ases
Ð° Ð½
Ġmanag ement
ĠG irl
ĠT ime
R A
3 6
aren ts
Ġ ver
Ġle aving
Ġleg al
3 8
Ġlin es
Ð¾Ð ¼
Ġn orm
Ġ6 0
ad ing
ĠM id
Ġim medi
angu ages
ĠO pen
ys is
Ġdec ision
Ġ196 5
ĠS at
che n
ear s
Ġd om
Ġs ister
ĠMc C
Ġto day
ort un
Ġlong er
r ast
Ġor d
ĠTe am
ĠColumb ia
ĠT im
is her
Ġrepresent ed
ĠM at
el a
is k
Ġex c
ĠM ot
ĠQue en
ĠScott ish
ĠC amb
Ġgo ing
ĠG ood
ĠS ince
Ġqu ick
mit ted
Ġlaun ched
200 8
Ġin stitut
Ġb ridge
r ac
3 4
w ar
ug e
M ed
ĠG al
ĠA venue
ĠT em
is ation
ad ed
Ġant i
ĠJ ul
ĠEd ward
Ġstruct ures
Ġcount y
Ġann ual
Ġl og
le ft
Ġal ways
ab les
ĠCo ast
Ð½ Ñĭ
T rans
C omp
il ly
S e
ĠW ind
Ġfor ced
ĠL ittle
Ġoffic er
ĠPr ince
Ġsen ior
Ġun iversity
p ress
ĠM en
Ġw ide
ail y
Ġl ay
ĠFranc isco
Ġinit ially
18 8
Ġrem ain
n es
ĠB et
ip l
201 0
Ġl ack
Ġcol on
199 0
ach us
ra f
Ġro om
air man
% )
ĠW ild
Ġdet ail
Ġen ergy
Ġint eg
Ġev idence
Ġ +
i y
B S
Ġeconom ic
ĠC reek
ĠCh ief
ph y
Ġsh own
r im
d uce
ĠO k
ob al
t ained
Ġmajor ity
Ġl ic
oc al
Ġdis e
ip s
os oph
ĠUS A
er em
Ġbel ow
Ġm erg
Ġlarg er
Ġacc ount
l anguage
Ġrequ ire
ĠIll inois
ĠE lect
3 9
ĠW omen
Ġserv ing
Ġrefer red
m m
ĠN Y
ig er
Ð» Ð¸
ĠL ab
ĠE arth
Ġm ight
Ġ ess
ĠIs lam
ĠD is
Ð½ Ð¾
ÑĢ Ð¸
d is
Ġmean ing
ric ts
ian ce
ir ing
ist ers
Ġselect ed
Ġp il
Ġse a
ĠE astern
Ġpass ed
in em
ĠM P
ur ies
Ġent ered
ĠT re
Ġe astern
I s
ph ia
Ġc ell
B rit
ic ations
ĠRes earch
Ġmov ie
ĠAs ia
ĠB C
Ġn ine
M usic
art ers
por ation
Ġf ederal
ĠIn f
ĠD ie
oc cer
Ġsepar ate
Ġvar iety
ĠOlymp ic
t ies
r ich
Ġb rief
ĠL uc
ĠW al
Ġm iddle
ran ge
ĠN ight
struct ion
Ġ )
ĠB oston
Ġtechn ology
res p
ant ry
achus etts
S ports
led ge
N ot
Ġthe ory
ĠU nder
Ġb ound
enc ies
Ġplay s
Ġun ion
Ġdisc uss
ãĢ Ĥ
ĠSt ation
Ã¡ n
iz ing
Ġth reat
Ġfore ign
ran ts
ĠSh ow
adel phia
ä »
Ġsubsequ ently
Ġh ours
Ġmin utes
ri z
a is
Ġprov ides
ĠHigh way
sel ves
ed d
Ġthem selves
u ated
N E
Ġm akes
Un ited
ĠB BC
m ission
Ġf le
ĠJ r
erv ation
g u
199 9
ĠH ung
ĠM ore
itt ing
ĠV er
Ġm er
ĠB h
Ġoffer ed
ĠT w
ĠO fficial
Ġw eeks
ĠW ay
ap ers
w ide
ĠCent re
Ġparticular ly
ĠWilliam s
ont o
itz er
os a
W ith
a ult
Ġs ource
on ic
ĠPac ific
am in
ĠB ern
ĠAr gent
7 5
ĠE ll
ĠL ibrary
Ġob ject
Ġc itiz
ĠAl bert
Ġch all
Ġacqu ired
Ġm em
ste in
Ġlab el
ĠT op
Ġcon fl
200 9
Ġform at
Ġbelie ved
Ġun ivers
Ġf oot
ĠB or
nt ario
F rom
h ol
Ġepis odes
Ġ196 3
ĠSt an
Ġadminist r
ess ion
ag er
ĠL atin
M en
Ġform s
ĠK e
Ġ ice
ĠD et
Ġqu arter
in ent
Ġcom edy
Ã£ o
ur rent
av en
Ġad j
A A
ĠOx ford
Ġg ot
ric e
ĠSy d
ĠB and
ĠS ocial
per or
Ġ3 5
ĠI ran
ĠCon ference
Ġfor t
Ġch art
Ġship s
Ġpass eng
Ġbl ock
che stra
Ġhel ped
Ġ19 20
Ġcap ac
S he
enn is
Ġb omb
Ch ar
W hen
Ġstart ing
m as
ĠHe alth
b l
ĠU r
ĠM ajor
Ġtem per
in et
Ġresp onse
Ð¾Ð ³
u is
ĠSe a
ĠChar l
Ġsp l
ĠSp orts
at ively
ĠE nd
Ġmed ical
Ġtro ops
ran ce
ĠAss embly
Ġc ouncil
Ġhous es
n o
le vel
Ġc ities
n am
Ġrem aining
ĠS und
Ġfin ancial
ĠW ater
Ġincre ase
ast ic
3 2
Ġint ers
3 1
u j
he ster
Ġ196 2
ell ig
acks on
ĠThe ir
im um
Ġse at
Ġper cent
ak ers
ĠT am
N ational
ĠD ar
Ġcomp uter
ing er
ĠMass achusetts
Ġindivid uals
ĠB oy
Ġm useum
il ies
ut s
p ose
Ġpre vent
Ġcommun ities
Ġanc ient
ut en
Ġw ords
Brit ish
Ġhe avy
ag ing
Ġpresent ed
Ġv on
Ġs al
ĠS and
Ġt arg
Ġcre w
U S
Ġturn ed
Ġd one
Ġc at
Ġc ode
Ġoffic ers
Ġdiffic ult
Ġfail ed
ĠCh ild
Ġover all
ĠP eople
Ġd ro
Ġproble ms
ent y
Ġperson nel
Ġl atter
ĠPhil ipp
Ġclaim ed
Ġexper ience
Ġassist ant
ĠR am
Ġcoll abor
ĠC ard
ab eth
Ġg overn
Ġsur face
il a
Ġp arents
ic ks
ĠCor ps
stit u
ĠW all
ĠL ater
ĠJohn son
ĠSyd ney
Ġfin ally
Ġdes cent
ĠMus lim
Ġcover ed
Ġmain ly
ĠO ntario
v ement
Ġnear by
Ġin n
ĠJ ournal
gy pt
ĠEn ter
ĠDirect or
Ġar rest
Ġcom ment
Ġm echan
ĠG ame
he w
ill ed
ĠSpec ial
Ġmeet ing
ant e
te en
Ġspe ed
k er
ad s
and o
Ġdram a
th ur
Ñ Ī
lect ed
Ġh ospital
ĠC at
Ġdou ble
Ġorganiz ations
Ġc arried
o z
Ġres idents
Ġpr in
å ı
ron ic
Ġext ended
Ġde ep
Ġo ur
ĠK enn
ĠE st
Ġam b
og rap
Ġdist inct
ĠF ield
el d
ri ed
ous ly
m ore
id ad
ĠRep resent
Ġsupport ed
A T
Ġneigh bor
y ric
it ude
ĠR ay
y t
ĠV an
un a
Ġst ories
Ġ194 4
o h
Ġb ring
Ġren amed
ub e
Ġprov ince
201 1
Ġcon cept
Ð¾Ð ´
attal ion
199 8
oc ks
ro vers
orn ing
uck y
ĠA z
Ġrec ent
Ġl anguages
Ġo il
ĠM any
Ġmention ed
Ġsecond ary
ion e
Ġp it
Ġp age
H L
ĠP ost
ĠP op
Ġcond itions
ĠÐ½ Ð°
ĠB al
Ġoper ation
Ġp sych
e z
ĠH or
ĠF our
Ġstud ied
on ia
ag ement
Ġ Å
sk i
Ġmusic ians
oun ts
Ġpe ak
T rack
A C
ĠU l
ĠPol ish
F urther
Ġprogram ming
Ġhigh way
Ġart icle
Ġm arriage
Ġben ef
I D
ĠK ar
Ġdep art
Ġear ned
Ġst ay
ĠO s
Ġra ised
g et
4 8
ĠM ax
ĠV en
Ġn ecess
Ġleg isl
Ġmiss ing
Ġsh oot
ĠFound ation
Ġnum bers
Ġcons ists
ol is
ĠHistor ic
ĠAnd rew
est abl
g color
ri f
Ġv oice
S w
Ġsol o
% .
im ated
Ġcontin u
Ġcomp osed
ĠU k
ĠPro t
Ġch arg
l ight
ĠBr idge
Ġn ature
Ġk ind
Ġen ough
ul ly
is hes
199 7
4 7
and on
Ġval ue
Ġpol icy
Ġpl ans
c ul
ĠJo e
Ġle ave
Ġ196 1
ĠUn ivers
s en
Ġc ause
ĠÂ £
ĠK ong
ĠJ ac
Ġpo or
ib li
Ð ¶
Ġh ab
Ġc ensus
ow ers
Ġd iss
rup t
ĠWin ter
Ġp aint
Ġ â
M embers
Ġnear ly
it age
Ġn ative
og ue
Ġprop osed
us band
ĠRep ublican
Ġelect ric
ĠG ra
hen s
Ġc hem
im s
Ġfeat uring
Ġe lements
Ġp ath
b re
Ġch annel
Ġlik ely
Ġdes pite
th ing
ĠPhil adelphia
man n
Ġaut om
v is
ĠC orn
bour ne
ĠO tt
ĠH ome
ĠG overnor
eder ation
Ġc ard
Ġs ociety
Ġs ector
5 5
Ġa thlet
b ec
Ġbecom es
ĠB ir
Ġdirect ly
ĠAlex ander
z ech
Ġb order
anc y
ĠB a
M an
ĠH ind
Ġdis p
Ġin hab
Ġde ad
um ed
ĠB udd
ĠL ight
ĠG h
inn es
Ġaff ili
Ġp ick
Ġag ric
ĠM u
ak h
ĠR el
Ġinflu ence
Ġon line
Ġ195 9
ĠVictor ia
Ġd yn
Ġbel ong
t le
D on
Ġprim arily
Ġ195 6
Ġnewsp aper
Ġto ld
ĠL es
form ed
Ġmot or
ĠM ike
ĠB ab
Ġlist ing
O r
ĠJ ean
D em
Ġrespons ible
it ted
ĠJ eff
Ġsil ver
Ġserv e
Ġun c
Ġm aster
Ġup per
9 9
Ġsuc ceed
Ġan g
l av
Ġ194 8
al le
i i
y er
ĠAir port
ĠOff ice
ou ri
innes ota
Ġse g
ĠS ong
Ġ18 0
Ġc lear
ĠF C
Ġsold iers
Ġquest ion
ob ile
Ġsoft ware
Ġg un
ĠBr ig
Ġnov els
Ġal leg
Ġtrad ition
Ġcol or
olog ist
Ġst adium
ĠJ ackson
ec es
ĠS erb
F F
ound s
Ġmanag ed
ĠBer lin
am m
Ġp al
Ġcon ver
Ġexp atriate
ĠAd d
Ġc orn
Ġd omin
ĠB ell
om er
Ġwho le
Ġ8 0
cl ass
Ġsc hed
Ġ era
Ġ195 8
Ġfac ilities
writ er
ĠT od
ĠPro gram
ĠPri ze
Ġc ars
Ġp or
Ġproduct s
Ġfriend s
ict ional
Ġwe ap
Ġf ace
Ġwhe ther
ic ted
Ġterm in
Ġr ule
E l
ĠAr m
Ġpro gress
Ġf unct
Ġpar ish
Ġdel iver
198 0
Ġfe el
ĠGu ard
C omm
Ġconstruct ed
ĠPak istan
Aust ral
amb ig
ĠM ov
Ġtit les
ĠB ra
r ate
ĠF I
ĠS ant
Ġa wards
Ġs ources
Ġcom es
199 6
ĠL ew
Ġre ason
Ġwork ers
orpor ated
ĠCor poration
ĠR od
w orth
Ġlevel s
Ġide a
Ġas ked
ĠWil son
ris on
4 4
' ,
ĠE gypt
ĠR aj
Ġdiscover ed
ĠTh ree
ĠKore a
r in
Ġcontin ue
ĠMed al
re c
ie uten
Ġhe art
Ġcamp us
Ġdiv ided
18 6
Ġc ateg
ĠE s
onom y
ĠR og
olit an
m ir
Ġl ives
d a
as ts
ĠF ar
Ġ ult
Ġtransfer red
ĠV ill
ĠC ub
Ð° Ðº
ri e
Ã© s
ĠP en
Ġ194 2
em an
igh ter
ĠP ubl
201 2
ĠK en
" |
ĠFore st
st one
os h
Ġinit ial
Ġtyp es
und red
a ith
ĠA k
ĠQue ens
ĠDemocr atic
ul pt
ĠA thlet
Ġr ugby
b a
il ation
æ ľ
Ġcontin ues
Ġhon or
Ġab ility
Ġ5 00
ĠReg iment
Ġincre asing
Ġsc ene
ĠBel g
ors hip
ĠAs h
ĠE p
ambig uation
ĠTor onto
Ġcult ural
iz abeth
Ġmet al
Ġapp l
Ġ195 7
em eter
Ġreg ional
w ick
emeter y
4 9
ic ed
ĠBe ach
il ton
m ad
` `
Ġb gcolor
cl es
ig en
O ne
ist ance
Ġw anted
ĠV iet
Ġdem on
ĠÐ ±
Ñ Ĩ
Ġdr ug
Ġprofess or
ĠCast le
enn ess
ĠIs lands
Ġst ore
L a
Ġnot able
ell o
ĠJ es
Ġ195 5
Ġeff ects
Ġiss ued
v in
ĠL im
oc ated
b it
ce an
ĠR ome
O lymp
ĠS anta
Ġhigh ly
H is
ĠStev e
ay lor
Ġ194 7
Ġremov ed
resp ond
ar ry
Ġmod els
Ġquick ly
Ġn uc
Ġ194 6
Ġdis play
Ġl if
Ġmount ain
Ġk m
N o
Ġsmall er
Ġh usband
yd ro
4 6
he im
ĠF air
ĠM ir
Ġam ount
Ġim plement
Ġcapac ity
ĠS pe
Ġy outh
Person al
ether lands
P olit
m et
Ġsh are
Ġadd ress
ĠReg ion
Ġex ecutive
ar p
ĠB ang
Ġalong side
199 5
Ã¼ r
ĠL i
V D
roll ed
dis ambiguation
Ġrul es
B e
ĠHe ad
S P
ĠC as
ĠComm on
Ġfam ilies
ĠC a
Ġth r
ĠA ut
Ġlet ter
Ġpro duce
ã Ĥ
Ġen em
Ġ194 3
ĠBar on
Ġpre c
Ġadminist ration
in ing
Ġb ranch
Ġmedal ists
ĠSqu ad
Ġp an
Ġarr ived
Ġch ap
re al
Ä ±
G erman
qu arters
iz es
eth ing
ĠC y
Ġn ation
ĠSup reme
Ġproble m
g ing
Ġsy mb
Ġth ink
Ġ194 1
Ġin side
ÐµÐ½ Ð¸
Ġg re
Ġt able
ĠC op
ĠMount ain
Ġdirect ion
Can adian
Ġ193 9
ĠJust ice
Ġd ie
ins on
te xt
ĠSt adium
ĠB oth
ĠCh ap
Ġded icated
ieuten ant
im in
Ġun s
ĠPrem ier
9 5
ed om
N ov
B y
Ġwinn ers
or ado
am ber
lement ary
Ġbl ood
Ġsec urity
Ġpot ential
W orld
Ġ195 2
Ġfollow s
Ġwinn er
Ġ7 0
Ġpart n
18 7
Ġbeh av
Ġequip ment
A c
Ġlaw s
ĠP ower
Ġatt end
Ġg reen
if ying
N e
Ġfif th
Ġoffic ially
ot o
it led
ect ing
y o
ang a
S C
im al
Ġp p
ra q
ar row
Ġdestroy ed
it o
ĠBas eball
tern et
hem at
Ġas p
ĠL ady
g s
Ġliter ature
Ġgrow th
id ae
Ġsp ort
Ġacadem ic
A nd
ov ak
ĠInd epend
E d
ĠF ire
Ġf ellow
ĠPol and
ĠBro ther
Ã ¸
ol es
per ial
Ġdr ums
Ġoper ating
Ġdist ricts
Ġbas is
en es
Ġw alk
Ġbeg ins
Ġcommon ly
Ġtyp ically
ĠD er
Ġpro te
Ġoff ers
ĠT al
ĠS ev
G r
Ġs n
ĠHar v
ĠH ospital
ar o
Ġper man
ĠS om
ĠDan iel
ou d
Ġback ground
Ġf iction
ĠM aster
ĠW ork
en ge
ĠM innesota
A ccording
ĠN etwork
Ġra p
u v
ĠH ong
i ary
Ġdep artment
ĠCh ris
Ġsett lement
Ġpro jects
Ġvers ions
n s
Ġ195 4
201 3
ĠDe velopment
Ġopp ortun
Ġimmedi ately
for mer
Ġ4 5
Ġcont rovers
P op
Ġold er
Ġhost ed
Ġconduct ed
Ġphys ical
ay er
Ġserv es
Ġcitiz ens
Ġd ark
Ġpart ies
Ġre ach
ĠD uke
ic ine
an th
ribut ed
ly n
Ġint ended
O S
ĠCon f
ĠSw iss
ĠB ad
Ġy et
ã ĥ
i at
id o
ĠS us
199 4
Ġ x
iv ity
Ġinter p
ĠB ishop
Ġl yric
ĠL o
201 4
E C
or ation
ograph ic
us c
p art
Ġ9 0
Ġterrit ory
in ity
Ġpurch ased
ĠR em
Ġsem i
Ġreve aled
Ġd ance
ĠF e
Ġmanag ers
Ġbe at
itzer land
Ġpolitic ians
r ical
Ġ195 3
rop olitan
Ġprom oted
iv a
ord in
ĠRev olution
ĠH uman
Ġg as
8 8
Ġre pe
igh th
Ġstre ng
Ġneed ed
a ud
ĠH al
Ġs ens
ath an
b ook
Ġr at
ĠSec retary
Ġbl ue
Ġinstitut ions
t ra
ĠN etherlands
ĠF ox
Ġm ax
Ġplann ed
ap ed
ress ion
Ġo vers
iqu es
Ġdist ance
Ġ ÑĤ
Ġt al
Ġp ra
Ġv ote
Ġres ident
Ġcomb ined
Ġ3 6
u i
Ġco aches
Ġs aying
5 00
Ġw ant
ĠH ay
port ation
ĠAs ian
Ġfav or
Ġs low
Ġp aper
0 6
as ka
Ġsit es
ĠN ations
0 7
u y
ans ion
we ight
Ġengine er
ĠS her
Ġdist ribution
Ġn ort
Ġst reet
ons in
ĠR et
ĠAn th
ĠEl izabeth
ĠP ers
ound ed
Ġtreat ment
ak s
ĠL ive
In ternational
ĠAnt on
Olymp ic
Ġg rew
ĠF ederal
ad er
ĠCl ark
isc onsin
b s
Un iversity
L A
Ġtra ffic
ĠMed ia
ac c
us ion
b ed
op her
ag a
Ġill ust
ov a
ĠAt t
Ġmov ing
Ġl ies
eat her
Ġp urs
ag h
Not able
ĠCamb ridge
Ġtarg et
enness ee
Ġprom inent
Ġlead ers
Ġp iano
out heast
M A
Ġ Ñĩ
Ġ urban
Ġc ounter
Ġass igned
P r
M S
Ġtra ins
i ated
Ġ195 1
ĠB all
Ġw a
ĠB ol
Ġ194 9
ĠSim on
ĠB ooks
Ġgradu ated
ĠBar b
Ġinstr ument
ĠL t
ĠJ unior
wh ich
ĠCommun ity
Ġpl ants
oc ese
it ness
z o
Ġqu ality
ĠF ollowing
199 2
ĠF ame
od ies
Ġwid ely
ren ce
w ater
Ġrec over
ist ed
res h
W ill
W e
le m
ĠSen ate
ĠGold en
Y ou
ĠK ir
Ġet c
Y ear
ĠAl so
E n
ĠDes pite
Ġfl ight
l ers
ĠT ok
ĠMar ine
Ġs earch
Ġst ra
Ġown er
Ġchar ge
ĠC E
Ġactiv ity
ĠPr im
Ġrec on
Ġv an
S R
ĠR om
ellig ence
pp er
Ġh op
ĠAb b
se y
Ġelect ions
ĠAr men
Ġschol ars
Ġb ad
ibli ography
B iography
g n
y al
Ġcon stitu
201 5
p resent
es h
Ä į
Ġcor respond
ĠD own
Å Ĥ
on ents
ĠTechn ology
Ġg raph
b ro
Ġent er
ĠJ on
Ġg iving
Ġb ron
ĠKore an
Ġle aves
ix ed
en ing
Ġappro ach
sk y
5 8
Ġact ually
Ġb oy
ĠA h
Ġsy n
Ġrec ently
og s
Ġwith d
ĠPol ice
Ġorder ed
199 3
ĠT ony
ĠC irc
ä ½
or i
Ġdemon str
Ġpe ace
5 6
Ġsc oring
Ġun known
Ġm ess
Ġpres ence
al o
ol n
Ġimp act
Ġar ms
ro om
ol i
197 0
ĠJew s
Ġf irm
Ġut il
Ġemploy ed
k in
Ġet hn
ĠSw itzerland
Ġdig ital
ĠH y
Ġcom ing
ĠA ff
inn er
Ñģ Ðº
ĠBro ok
Ġagre ed
Ġmix ed
Ġadop ted
Ġfig ure
Ġeff orts
on ent
w eg
Ġsit uated
ain e
Ġmunicipal ities
Ġro b
Ġcont ent
Ġf ast
Ġcon cent
1 00
Ġindust rial
Ġ3 2
ĠB at
ĠOr gan
å ħ
Ġclass es
Ġsuffer ed
ak i
ĠSp ring
Ġanal ysis
Ġp ack
Ġrec omm
Ġsp irit
Ge ography
v est
ac ement
Ġp ued
Ġprob ably
ĠG reg
Ġest ate
Ġret ire
ĠAr thur
Ġport ion
Ġth ings
Ġallow s
Ðµ ÑĢ
Ġp et
if orm
R es
Ġtr ue
ol id
am i
Ġhouse hold
ĠS R
Ġpat tern
ac hel
Ġt ells
Ġch ampion
ast y
ol ved
Ġcapt ured
ed ia
Ġfor ward
Ġro les
Ġatt ention
Ġra re
Ġrespect ively
ord ers
Ġf ish
ant on
Te levision
l ah
Ġw ins
Ġm iles
ĠB ec
Ġvar i
Ġcan not
ĠW isconsin
ĠPr ime
Ġdise ase
ĠIndian a
Ġexp anded
ĠT aylor
i ate
Ġc ells
ĠBu ild
ĠK el
riz ona
Ġex ecut
ib ly
ĠStep hen
t i
ul s
Ġengine ering
Ġcomp ared
5 7
ĠI raq
Ġlarg ely
Ġal g
ĠCount ry
C D
Ġcol umn
enn a
Ġn et
9 8
oot h
4 2
4 1
y es
ĠC zech
0 8
Ġpre p
Ġspl it
ann a
ĠL y
ĠRev iew
S outh
Ġclass ical
Ġcompos er
ĠM unicip
inc ial
Ġsurround ing
Ġtem ple
Ġsc ulpt
Ã© e
Ġs ail
Ġvill ages
Ġknow ledge
Ġg ives
ĠM emorial
9 6
Ġar ts
199 1
or ph
ĠMar c
Ġcompet ed
w orks
clud ing
Ġt ree
ĠS ab
ar on
it able
Ġt alk
ĠI v
T A
Ġthere fore
se x
Ġpos itive
ĠE arl
Ġsh op
ĠH ockey
id ers
ĠLew is
Ġthe atre
al so
Ġc oin
E R
ĠM un
Ġsec ret
ĠSwed en
Ġformer ly
ĠT ennessee
Ð¾Ð ¹
ert o
ĠI d
ĠTown ship
Ġs ales
S S
osoph y
ĠSwed ish
ĠH un
Ġab andon
Ġcr ime
C o
ĠStud ies
Ġc erem
ĠReg ister
ĠD am
and y
ĠP it
ur d
Ġagre ement
ĠInd ust
p ur
ell er
Ġfl oor
Ġrest aur
Ġf ell
ĠW alk
ĠPro ject
l aw
are t
Ġdis establ
ĠW ars
Ġe as
Ġgo es
os en
Ġad apt
Ġh undred
Ð» ÑĮ
201 6
ĠN FL
os is
erv ative
C om
Ġs ays
ĠU t
ĠAn other
ig rants
Ġgen us
ĠOr ig
w ing
anc ing
ĠÐ ·
ĠMel bourne
p o
Ġcont emporary
Ã ¢
Ġconn ected
Ġg ained
Ġfound er
ĠNor way
ik a
rest ling
om ot
ĠAl f
ĠN az
ap ore
Ġprincip al
Ġc am
bum s
Ġnew ly
Ġp ict
Ġsp ons
Ġinj ury
Ġsub s
Ġresult ing
ĠMar sh
Ġd ial
Ġ Î
Ġsp read
Ġveh icles
e en
Ġaccept ed
Ar t
Ġsw im
F ootball
Ġj oint
al ing
Ġvoc al
m ph
0 5
ĠCap tain
Ġtw ice
Ġun ique
ĠS av
Ġarchitect ure
Ġro ll
Ġl ibrary
Ġto uch
ain ts
ĠG er
Ġt aught
reg on
Ġ ir
Ã© t
Ġest imated
p ool
Ġgr anted
or ge
Ġst one
Ġtri al
Ġal t
ĠR ang
a ug
ĠF amily
Ġair port
le ase
Ġdecl ared
Ġpress ure
ĠR oss
Ġr acing
ut her
il ing
Ġb ott
S ources
Ġresult ed
g reg
B ack
Ġm om
m es
De ath
Ġlearn ing
Ġbron ze
4 3
m iss
Ġ193 8
Ġsp ring
Ġperforman ces
9 7
ĠY our
Ġw ild
ĠAre a
Ġre duced
ĠC O
Ġsex ual
o is
j i
Ġtit led
ĠProfess or
ĠCol on
Ġ193 6
ĠMiss ouri
ĠD un
ĠBus iness
Ġh ap
D isc
j oy
Ġprov iding
ĠKent ucky
Ġim age
Ġb al
Ġdesign ated
ĠK ansas
Ġc ricket
A F
Ġdam age
ĠE P
tain ment
ĠLe v
Ġrecogn ized
ĠSquad ron
ĠSc iences
ony m
Ġexper iment
Ġwe ight
iv als
ĠU s
c an
Ġl abor
ĠĠĠĠ ĠĠĠ
m outh
Ġs amp
ĠMar ia
Ġfac ility
Ġmain tain
ow a
est ic
Ġfac ulty
ĠM anc
Ġunder st
ĠB i
ĠL ind
ĠCol orado
D es
ĠÐ½ Ðµ
Ġhe av
ĠTurk ey
ues e
Ġconfl ict
Ġte acher
ĠGre ece
ĠH ou
ur ches
el ine
Ġatt acks
ĠF inal
Ġc arri
Ġg ra
Ġfl ag
Ġgre ater
ur er
h r
Ġcont act
ĠHol y
ĠEm peror
Ġst ars
Ġacc omp
um es
un te
ĠFor m
D ef
ĠAtl antic
I A
h ar
lah oma
Ġenc our
Ġcandid ate
Ġhand s
ades h
ÑĤ Ð¸
Ġrefer ence
Ġstr ugg
ro it
an es
le ep
p a
y ard
Ġk ept
Ġw all
ĠBr ad
ro g
W est
ĠMar g
) "
ĠW at
ing ham
Ġp un
Ġmin ister
6 6
Ġmach ine
Austral ian
å ¤
em ic
Ġparticip ated
Ġprop os
Ġconc ert
ol ished
Ġm ill
ĠH art
Ġh ar
k ey
st ic
und er
ost er
Ġsup pl
Ġact ing
ww w
Ġadministr ative
198 9
Ġpur pose
Ġser ious
Ġf ully
ĠDav is
7 7
a ver
orn ey
Ġchar ts
Ġsim ply
re ll
Ġcre ation
ad i
Ġr ac
I C
' m
0 9
ĠSt at
Ġm ut
Ġg overnor
Ġdef in
ĠH an
z y
Ġthem e
Ġ rom
Ġsl ight
ister ed
Ġb att
ra wn
ĠAd minist
Ġoccur red
inc oln
R ail
Ġres ources
ĠG il
hed ral
Ġl ake
Ġallow ing
ĠChrist mas
ĠC ur
Ġh all
Ġth ous
Ġpos itions
Ġcont est
Ġcond ition
Ġsugg est
ĠCon c
Ġr ural
ĠRepresent atives
S ongs
Ġf air
Ġhous ing
ĠB rian
Ġl iber
Ġanim als
ific ations
' .
à ¤
ĠTr ust
ĠE th
Ġlos ing
cl aim
ig ration
f rom
B as
ĠD iv
im inal
ĠMal ays
ate ur
Ñģ Ñı
ir med
Ġte le
Ġrank ed
P S
m un
Ð½ Ð¸
ĠEngine ering
Ġcast le
Ġnot es
Ġneighbor hood
Ġold est
Ġorgan ized
Ġreg ions
ĠHar ry
er ick
Ġcomplet ely
Ġc as
Ġclaim s
U K
8 6
ĠLe on
Ã© n
Â °
Ġcou ple
Ġsom ething
z en
Ġcont ain
Ġan s
Ġjournal ist
k es
ĠCh ampions
ĠP ass
l ife
201 7
Ð¾Ð ½
ĠJ er
c hers
Ġmark ed
ĠW rit
we alth
Ġcap tain
Ġc art
T o
Ġacc ident
0 1
ĠM ilitary
Ġhistor ic
æ Ī
J apan
Ġback ing
ĠB attalion
ou ts
ĠK al
ruct ure
ĠH amp
Ġj ourn
er al
el le
Ġc overs
ash ion
ĠCol l
Ġident ified
M ay
F ran
Ġgrow ing
ed ing
5 2
ĠK han
c ont
Ġchall eng
Ġpass es
Ġyoung er
se e
ast ers
ĠTem ple
Ġcrit ical
Ġlyric s
ĠPhil ip
ĠCh annel
5 9
ĠFranc is
Ġ19 18
F rench
ar ia
Ġofficial s
Ð¾Ð ¶
Ġrece ive
Ġsaf ety
ac ts
198 8
c ow
Ġf elt
ĠF le
P ar
Ġcust om
Ġf ans
ÑĢ Ð¾
ĠC re
Ġeduc ated
ĠA rizona
Ġre form
um a
Ġinhab it
Ġ193 7
Ġse vent
l an
Ġw ing
Ġcomb at
t r
198 7
enn y
ow nt
Ġcon vers
ubl in
H on
Ġoper a
Ġl ot
w estern
Ġto wer
ĠW eek
ĠB os
ĠB alt
g a
ke ep
j e
w ich
Ġre ports
Ġv ot
ĠO regon
Ġmaterial s
ib b
ra ine
Ġcan cer
Ġdocument ary
Ġch airman
ĠD or
ann ing
ĠN ap
ĠSt ock
A ct
Ġvis it
ĠH ard
ag an
Ġexist ing
G eneral
Ġvol ume
in y
Ġh y
Ġveh icle
Ġexp ected
Ġt im
Ġcons um
ĠQue bec
n et
5 1
Ġw ear
Ġsett led
ĠMary land
Ġ. ..
o es
Q u
ord on
Ġeff ort
weg ian
ĠR oy
Ġlead ership
A b
Ġtri ed
ill er
Ġset s
Ġm ind
ill ery
5 4
ĠF ree
Ġf estival
ĠPr in
A wards
Ġp aid
ic ian
ore n
ist a
Ġc ab
Ġrec ip
ian ts
Ġend s
Ġcor rect
ĠEnter tainment
ect ic
I T
ĠK im
ĠB on
5 3
ress ed
Ġform ation
Ġbrother s
B ibliography
Ġb ow
Ġbe aut
p et
Ġfin ish
ly wood
ĠG i
7 6
Ġsim ple
ĠMin istry
ĠR en
ĠD VD
Ġfight ing
Ġ *
ĠT rain
Ġp air
Ġlo an
m ers
ĠH o
ĠS em
ĠM ic
Ġv ess
Ġpolit ics
Ġsup ply
20 18
Ġt ry
Wh at
ro up
Ġmeas ure
Ġbur ied
us es
ĠPol it
Ñ ī
Ġauthor ities
Ġreview s
Ġch o
= #
ĠMill er
ĠBill board
Ġ3 8
198 6
Ġst ream
Ġm ap
å ®
ial s
Ġgirl s
Ġsqu are
Ġsugg ested
Ġ193 5
Ġf olk
G B
ĠS ix
ĠH ur
Ġtr ust
Ġext ra
ĠB ack
ĠTe levision
ĠB urn
ĠF ederation
ĠM as
is a
ĠSt and
Ġtre es
Ġport ray
Ġ3 3
ĠĠĠĠĠĠĠĠ ĠĠĠĠĠĠĠĠ
ĠSp ace
Ġs ides
els h
Ġs ay
im ens
j o
Ġexp ansion
Ġhor se
tt ers
end o
Ġ Ñĥ
198 4
ind er
Ġnorm al
Ġar rang
Ġocc asion
ĠViet nam
Ġse em
Ġpower ful
ĠS in
tt p
Ġnecess ary
Ġval ley
Ġc ert
ĠS ound
ĠT urn
r um
198 3
Ġhe ro
ĠManc hester
C ont
Ġsit uation
Ġauthor ity
Ġm is
le ased
Ġap art
Ġon to
ĠP ier
Ġs ac
Ġb ought
Ġmethod s
ĠCro at
Ġst ock
ĠM oon
Ġfe et
Ġoccup ied
ĠSt ory
Ġres erv
ĠI r
red ited
" ),
Ġy ards
ĠDo ctor
ĠPhilipp ines
Ġme ant
ĠSing apore
Ġad vert
Ġmusic ian
clud ed
ĠA D
Ġcreat ing
ĠV i
Ġmem ory
ĠF ord
ik h
Ġex change
ĠN ic
Ġsucceed ed
ul ed
ĠPl aces
ĠArgent ina
Ġtw enty
ut t
end ment
ĠH ere
qu es
G u
æ ĺ
Ġdr ive
Ġattem pts
Ġag ent
Ġin form
Ġdou b
ĠN ev
b an
Ġrel atively
S ince
Ġfrequ ently
ap h
in ally
ĠMex ican
Ġd aily
Ġro t
Ġshow ed
or f
Ġh arm
ĠAust ria
ĠHam ilton
Ġte aching
0 3
ĠPl an
ec ond
d ale
Ġhead quarters
in ch
Ä ĥ
ĠSh ort
Ġadv anced
ĠHe art
Ġg od
A M
D av
Ġr aces
Ġm icro
or gan
ĠHon or
E uro
Ġm orning
7 8
Ġa ired
ĠT a
Ġdef ined
Ġaltern ative
Ġeffect ive
am ing
Ġneed s
ĠEc onom
ĠT est
Ġsc ript
Ġv irt
ĠP oint
i ot
ov en
ap olis
Ġmult i
ĠSund ay
Ġro yal
20 19
Ġven ues
Ġsp ot
Ġpromot ion
ĠD isc
ĠD ark
Ð¾Ð ±
Ġart icles
Ġreturn ing
ĠI V
ie val
Ġen joy
ĠE ach
ĠR on
ĠRe al
we et
ĠOk lahoma
re es
Ġfig ures
ĠT en
h u
ĠE ric
197 9
ĠOr chestra
Ġsing ers
Ġcomp ut
Ð½ Ð°
c ar
ou red
Ġappl ied
Ġg ar
ĠD ream
ion es
Ġ192 8
0 4
ĠW olf
ĠF M
ĠDes ign
Å «
198 5
Wh ile
ĠH and
ĠA ud
Ġhold s
ectic ut
Ġsy nt
ac hers
Ġfield s
ĠHow ard
Ġbr and
Ġd raft
Ġp od
ever al
Ġv ent
Ġcom o
ĠC emetery
ĠA M
ĠF er
' re
rel ated
ipl om
ĠS u
in th
Ġd a
Ġhap pen
ĠInf antry
Ġcomp l
it ter
ĠB oys
Ġplay off
B uild
ĠL incoln
Ġact ions
Ġent ry
ĠQueens land
Ġ193 3
Ġro w
å Ī
Ġad ult
ĠO d
ĠO p
Ġs ons
Ġscient ific
Ġs urn
ĠP u
ĠH u
f ort
196 0
ĠG all
b ell
aw n
ev in
ĠMos cow
Ġ19 19
Ġs ense
Ġ192 9
ĠT it
ag u
Ġinsp ired
Ġlaun ch
Ġrap id
Ġmerg ed
j an
Ð» Ñı
D ec
ĠDie go
Ġgu est
Ġsubsequ ent
198 2
Ġim pl
Ġcent uries
Ġpart ner
ĠAd vent
Ġch osen
ĠSt one
ens is
Ġconver ted
Ġend ing
rop ri
Ġ3 7
ĠD ig
ag en
Ġd at
Ġaud ience
ur ance
hip s
ĠInd ones
Ġachie ved
Ġpre par
I tal
w ise
ĠL ike
od ox
ĠAmerican s
Ġres c
Ġk il
ic i
Ġ19 14
Ġnomin ated
Ġ Ä
Ġresp ond
Ġfind s
ĠBow l
Ġcon ference
Ġdro pped
ir ty
Ġmet res
6 4
Ġw ays
ĠN ow
ĠT ai
Ġco al
ĠS on
Ġear th
ç Ķ
ĠN ick
Ġwin ter
C ast
l ines
le ts
Ġb urn
Ġa im
ĠT s
Ġretire ment
ĠL in
Ġle tters
P A
ĠTurk ish
Ġref used
Ch rist
Ġproper ties
ent ed
Ġethn ic
eg a
el ve
Ġn arrow
Ġra in
uc cess
app y
Ġcomp ilation
u ing
Ġpass ing
ul ate
ĠBr on
S ome
ĠR un
g est
Will iam
ĠO t
For mer
Ġr h
Ġcomm ander
ab ama
A ss
ĠWh o
Ġre ject
Ġun able
ul es
v o
Ġv s
ĠD ave
Ġinhabit ants
Ġpro ceed
0 2
ĠMed ical
Ġb ul
F M
if ul
N orth
gl as
if ically
ĠA uthor
Ġperform ing
Ġf un
Ġbusiness es
ĠL abor
ug ar
og y
ĠP ict
Ġstar ring
Ġv otes
u ly
ept ion
Ġcont aining
Ġpublic ation
ant asy
ĠA cc
Ġr ang
Ġ193 2
è ¿
ĠBudd h
b ox
iam i
Ġenem y
ene z
Ġ4 9
Ġprot ection
Ð² Ð°
Ġv ac
Ġex clus
ĠCom ics
Ġapplic ation
e k
Ġext ensive
ĠC ape
ĠMod ern
Ġpi ece
198 1
Ġref ers
ĠB eng
ill ing
Ġbas ic
ĠReg ional
O fficial
ĠServ ices
ol as
ĠR ose
ĠMan agement
ownt own
ograp her
V ideo
Ġr isk
F ollowing
ĠD al
ĠK ey
ĠAnd erson
Ġ193 4
st ream
Ġfunct ions
ĠCh ile
8 9
Ġdr iver
it i
Ġarrest ed
ĠWh at
ĠD ublin
ĠL eb
Ġsp ect
o en
ag ues
Ġwrit e
ĠComm and
Ġcy cl
ad ow
Ġcompet itions
leg es
ĠConn ecticut
r un
ĠM ember
ĠJan e
Ġy ellow
an z
Ġgu ard
Ġstra ight
ĠM ach
Ġmay or
Ġhab it
Ġr ival
Ġv ir
ĠFr ont
ud a
Ġnort heast
Ġloc ations
ph as
ĠAll en
Ġbro ke
Ġn ob
ad os
Ġcom ic
ol y
ĠLeg isl
Ġo x
h o
ĠSil ver
ut ies
ffic ient
Ġdist ingu
Ġel imin
Ġim pr
ĠB ah
Ġ19 00
Ġinst all
Ġm el
P ublic
Ġactress es
ol o
Ġcop ies
ĠMag azine
y st
Ġse ats
Ġ192 4
ĠJes us
at us
in er
pr ise
u ilt
m o
Ġbe y
Ġj ur
ĠSen ior
ile y
Ġjud ge
Ġcon stant
ĠWh it
ĠHou ston
Ġcomp ar
ĠA ge
Ġsign al
Ġj azz
ĠC ost
Ġfl ood
ĠAl an
ĠO ffic
S T
Ġattempt ed
or ough
ts burgh
ĠPortug uese
Ġt un
ĠR eb
Ġnuc lear
ian g
ĠO ak
ĠAb d
Ex p
ĠBrig ade
ĠL as
ĠFor ces
Ġsh ared
ĠT rib
ĠWal ter
ĠRec ord
Ġappro ved
' '
Ġav oid
Ġsix th
Ġrelig ion
Ġset ting
ch a
Ġbey ond
Ġinc ident
ist ant
Ġhot el
Ġent itled
Ġdef end
Ġsports people
Ġin struct
c ome
ivers ary
Ġrecord ings
ĠR ugby
Ġ3 4
ab y
Ġcomm ittee
b ar
ĠS um
Ġf ought
Ġ19 17
Ġpil ot
Ġcall s
ĠD ick
Ġpar liament
ym n
ÃŃ n
av ed
Ġroad s
ĠG ard
ĠR a
act ions
Ġbeg in
ĠPat rick
I N
Ġf uel
pl ace
ĠL ow
Ġmat ter
Ġeconom y
Ġperman ent
ĠG allery
se ason
Ġ vert
Ġapp arent
st yle
Ġ192 7
S ing
all as
iam ond
197 8
Ġhe ight
8 5
un ch
ĠR ad
ĠD u
alle l
Ġref lect
Ġob tained
Ġhom es
Ġh yp
Ġconf irmed
ĠK at
ĠAd am
Ġhistor ian
ond er
ac ent
ĠDet roit
f it
h t
pl es
9 2
ĠL at
ĠA C
b urn
Ġl es
h ing
ĠM it
Ġsurv ey
d o
por ter
th odox
Ġult imately
ĠD ur
ip e
level and
Ġqu ant
Ġland s
Ġpro s
o a
h at
Ġr ing
ours es
Ġad ap
Ġoppos ition
Ġ( ),
s et
ug u
ĠB eat
Ġder ived
r ant
Ġ err
ĠD omin
è ¯
ĠLt d
or age
Ġgl obal
Ġ193 1
p osed
Ġattack ed
ĠB an
inem a
Ġtemper ature
f all
ĠP A
ard o
Ġweap ons
enc ia
ĠAl abama
Ġtechn ical
ĠH ills
ĠL iter
Ġh am
ĠIslam ic
g ers
gh an
Ġ19 22
Ġde ploy
ĠSchool s
ri ff
bo ards
Ġt end
Ġshort ly
os lav
20 20
Ġh ydro
n ight
d ie
ĠB ou
Ġeduc ational
ĠN ik
Ġp owers
S chool
ĠChild ren
Pl ot
ry st
R eg
f riend
Ġesc ape
om ing
ĠJ am
Ġopp osed
p ass
Ġdo ctor
ham mad
O R
ĠS el
Ġcomp ris
Ġgl ass
ĠP ot
s er
Ġact s
og en
ĠS ri
or ter
9 3
Ġfound ing
197 4
Ġconn ection
k h
ar ks
f r
Ðµ Ð¼
Ġ19 10
R ep
ĠL u
en z
G A
Ph il
uss ion
Ġhe ard
au x
Ġ192 6
Ġ3 00
els on
ĠBuild ing
Ð» Ð°
Ġdirect ors
ĠW ell
S up
ang er
å Ĳ
ell i
ĠP ope
197 6
lin ed
arg o
iv ate
act ive
Ġs occer
Ġadv ant
ĠJac ob
w here
ĠSt ew
" ).
Ġac id
ud get
Ġcons ecutive
Ġagric ultural
ac he
Ġplann ing
ĠG ram
im ents
d i
Ġoffic es
E FA
ĠT y
Ġdo ing
Ġ19 21
ĠAff airs
ĠF ellow
Ġro ugh
Ġanim al
E ducation
B orn
Ġad vent
ĠE ag
9 4
Ġrec ru
Ġcons ult
ĠCol omb
Ġpasseng er
Ġslight ly
ĠDe ad
ĠLouis iana
Ġtra v
Ġact ual
Ġprot ect
Ġ( ;
Ġvis ited
ĠV is
im ore
197 7
ition ally
Ġident ity
rop ical
Ġband s
Ġconsist ed
Ġb oys
C ar
ĠCommon wealth
L ife
ic ians
rom e
Ġn ick
ĠC ab
Ġex am
Ġpain ting
Ġheav ily
ĠS ky
f e
ĠM and
Ġp ages
ĠÑ į
O ver
E lect
wh ile
Ġ192 3
ĠE lementary
s ch
oy d
ĠSqu are
ig ation
Ġstar ts
M y
ĠMo ore
Ġren ov
Ġcon ce
ĠLab our
Ġste el
ĠN ich
Ġsp ok
Ġturn s
ival ent
Ġ4 8
Ġcrit ics
Ġimpro ve
Ġpoet ry
az ines
cast ing
z z
Ġ iron
Ġabandon ed
ĠG ordon
Ġre in
Ġkill ing
ipp i
ĠN ag
ĠTok yo
ĠFI FA
Ġt rying
Al though
uss ian
ĠT ig
M ilitary
ĠFore ign
ĠEx press
) )
I f
sc ape
ĠStud ios
Ġre asons
ĠMP s
ĠAnth ony
ism s
Ġext rem
d on
Ġdef ense
ĠAl i
ens ity
Ġv o
iss ance
ord an
Ġre ar
sp ec
Ġexper i
Ġmax imum
ĠPh ill
W rit
ĠIn formation
S I
Ã ł
g ency
oc ation
ĠI mp
g al
å Ĵ
P er
inn ers
ful ly
Ġent rance
idd en
Ġh ired
ĠT el
Ġch ampions
Ġexist ence
ĠPortug al
ovak ia
Ġcl imate
Ġpol l
Ġnorth west
w en
ram a
Ġtechn iques
M ajor
Ġag ed
tt ps
Ġsh ape
um in
Ġch oice
or us
ograph ical
az a
Ġbelie ve
ĠTod ay
Ġ19 12
bor ough
ĠF inn
Ġspe ech
rid ges
olog ies
Ġdec re
Ġprogram me
ang el
eg et
197 5
H ar
Ġpi eces
am o
Ġdeterm ined
Ġ192 5
Ġfail ure
8 7
6 7
Ġw alls
ĠDou glas
ec ution
er ts
Ġpl ot
ur ation
ĠF riend
Ġ4 00
d ied
Ġa uth
ĠL ast
ĠSec urity
Ġindepend ence
Ġhold ing
oth ing
Ġst ores
ĠAd v
v ements
p an
m ith
Ġposs ess
en h
Ġstat istics
W omen
Ġcommission ed
Ġneg ot
197 2
ĠBrother s
T r
ĠK a
T C
ĠAm ong
Ġrecogn ition
l ad
ĠS port
Ġt all
Ġprof ile
å ľ
ot ic
-- --
Ġcaus ing
ik i
ĠDe ath
Back ground
ĠD a
ĠC our
ĠB erg
Ġto ward
J an
ris is
ĠSing h
Ġher self
F irst
Ġequ al
Ġgr ad
Ġp up
Ġcontribut ed
d am
ĠB uck
ĠH ans
Ġdec ades
ĠBe fore
stitut ional
Ġ {
Ġs ust
i em
ĠGirl s
ĠI owa
ri ev
ĠG arden
Ġgener ation
is f
Ġem phas
ĠC ow
ig e
Ġf ram
ĠK ings
Ġ( ,
Ġlim it
Rail way
ĠReg ulations
åĴ Į
ig ious
197 3
ĠI l
Ġsc ale
M on
Ġsol id
st an
Ġb ishop
Ġh ill
Ġ19 15
ic ts
Ġdec or
Ġstand ards
Ġord ers
A f
Ġbrief ly
ĠF arm
ĠJo h
r ine
ur i
Ġenvironment al
ĠL yn
igen ous
Ġmom ent
ap es
L eg
Ġdep end
ĠSt aff
Ġext ension
Ġ7 5
Ġrece iving
Ġt u
Ġmag n
Ġcorn er
CA A
H S
n old
ist ol
Ġloc omot
S te
ter y
Al bums
C ities
ra it
% ,
gr ade
Ġrequ est
Ġm Ã¡s
6 5
Ġpol ic
ĠTh rough
ĠMont real
Ġb illion
Ġbehav ior
Ġh its
b ra
Ġqu ite
ĠVill age
Ġliter ary
Ġm ent
Ġsk ills
E c
Build ings
ĠK am
9 1
Ġlic ens
ĠThe n
ĠTh ird
p oint
Ġar ran
Ð¾ ÑĢ
for c
pos es
Ġr ise
li est
Ġd ies
Ġgr ade
Ġapplic ations
Ġcont rast
Ġg uns
olog ists
Ġ4 2
H igh
Ġan th
Ġval ues
l ast
Ġcar ry
ĠO cean
ĠIndepend ent
Ð¼ Ð¸
ann y
Ġex erc
ĠNor wegian
Ġmain tained
Ġexamp les
ĠF al
f ound
ĠIsrael i
Dav id
Ġide as
ĠBec ause
ĠOn ly
iss ippi
Ġfem ales
Ġdis app
ĠK l
Ã ª
Ġstreng th
Ġp le
or ia
Ġre aching
ous es
b r
ĠV in
Ġs ought
ail ed
Ġsub urb
Ġle ct
ĠAnton io
Ġintro duction
E A
a ire
Ġcollect ed
ĠR ick
Ġalleg ed
in cluding
Ġoper ate
h aps
Ġcont ained
D r
A nt
ann ed
Ġs an
Ġhum ans
os ition
own ed
ĠM iami
Ġinst alled
Å Ł
196 8
ĠP ap
ĠâĢ ĺ
Ġinv asion
ĠM icro
Ġsh all
ĠC all
á »
re te
Ġw or
ĠL ang
ĠN aval
Ġind uct
Ġred uce
ran e
Ġget ting
Ġd ivers
Ġex act
os aur
Ġph ase
Ġ ÑĢÐ°
ĠA BC
ĠT ar
I V
ĠRober ts
ĠEr n
ĠB ry
ĠAr k
ot te
ret t
Ġsupport ing
Ġ190 8
å Ĭ
Ġob jects
Ġfact ors
6 8
Ġgreat est
h ard
Ġm us
s ong
Ac adem
re p
Ġregard ing
b ound
Ġp ull
M ost
ĠTam il
Ġal one
Ġbel ief
Ġocc as
Ġ6 4
Ġf ashion
rast ructure
Ġf ile
ĠW orks
og an
ol ly
Ġb an
yth m
as a
Ġse ems
ĠGu ide
ĠW elsh
et a
ĠL anc
Ġa id
R el
Ġs and
ĠMr s
ic ide
f ather
amp ton
ĠSp r
ĠG ab
ou ver
ust er
al ty
Euro pe
B est
æ ĸ
Ġrepresent ing
Ġdr ivers
Ind ian
ob e
ur day
in burgh
Ġe g
R oman
Ġ19 16
Ġin ternal
ov iÄĩ
Ġth row
ĠU N
Ġus er
uc ks
us al
ig o
l ong
Ġre ign
Ġform al
ĠA P
Ġs ale
ĠS eat
Ġl at
Ġwe alth
Ġconsist ing
s pe
Ġinters ection
el and
19 50
Ġro utes
ĠRail road
Exp atriate
Ġsuccessful ly
Ġdevelop ing
Ġprem ier
Ġsymb ol
Ġpain ter
Ġcaus es
Ġop in
Ġd ates
ĠK arl
e qu
Ġsc enes
ĠL et
ĠN a
Ġim ages
ol t
Ġp ed
Ġvis ual
ĠW y
Ġapp eal
ĠJu an
os m
Ġs outheast
ĠD C
hemat ics
Ġp rice
ĠMatt hew
ĠAf ghan
ĠIm perial
Ġc row
ĠK er
Ġcomm it
ĠJ ay
Ġobserv ed
Sc ott
Ġch urches
Ġd iplom
Ġlead s
Ġf ranch
Ġw atch
Ġentire ly
ĠBelg ium
Ġfin ishing
Ġpat ients
ograph ics
achel or
197 1
Ġe lement
ĠHar ris
oc a
ĠD eb
Ġdyn asty
Ġinvol ving
ĠRog er
Ġch ain
Ġdesc ription
el er
ent ially
Ġh air
Ñ ĸ
Ġv ice
ÑĨ Ð¸
ĠN A
Ġh a
Ġf aith
ĠA st
ĠV o
II I
Ġdom estic
R ober
ter m
d r
ird s
M ich
Ġre ally
Ġh our
Ġk ick
Ġm ist
ĠF all
che ll
Ġcross ing
D A
Ġtransl ation
Ġb odies
Ġst orm
Ġfoc used
Ġin aug
Ġis lands
ars h
ĠBu ff
Ġwh y
a fter
ĠE arly
Ġcop y
ag g
ĠZ h
ĠHot el
ay an
ĠB illy
ĠE ven
Ġanim ated
erv ed
ĠOtt oman
ĠAn ne
Ġinterp ret
Sports people
ĠUk raine
adu ate
ÑĢ Ñĥ
c ell
c ount
ink ing
Ġpr int
ĠMet ropolitan
Ġ19 11
ish ment
Ġpre fer
Ġapp oint
Rec eption
Ġm art
Ġchampionship s
Ġinflu enced
Ġselect ion
L C
Ġstri ke
Ġprov ed
ult an
Ġocc urs
Ġit ems
Ġclos ely
Ġrepresent ative
Ġcle an
l ock
ĠMalays ia
H er
clus ion
ĠIn n
ĠOr thodox
Japan ese
Ġestablish ment
Ġn arr
omp son
i ac
Ġtra ined
il k
Ġpur poses
Ġres istance
Ġadj acent
Ġj ump
Ġprom ote
Ġrail road
ĠK az
st ar
ĠPal ace
Ġadap ted
c ussion
ann els
ic as
rain ian
Ġprofess ion
ĠPubl ishing
Ġ ;
he astern
r ations
Ġed ge
Ġeas ily
ĠPri x
as ure
ob a
ĠPit tsburgh
Ġj unior
Ġpartn ership
duc ing
emb le
Ġm arg
ter ed
ĠHol lywood
ĠR ol
ĠI ron
ĠStew art
Ġspec ifically
Ġsubs id
Ġneg ative
Ġinc orporated
iver pool
C ent
S an
it als
Ġ19 13
ä¸ Ģ
am ic
is er
Ġregard ed
Ġt or
Ġstr ateg
i op
ĠAdminist ration
Ġpasseng ers
Ġf aced
196 9
Ġw arn
Ġreturn s
ĠIn ternet
O rig
Ġexpress ed
le ton
Ġfund ing
ĠS n
Ġlaw yer
H istor
Ġsom ew
ish ops
Ã Ł
Ġsy nd
r m
ab ase
Ġimport ance
if er
Ġw eather
Ġinc ome
Ġhe at
h ost
g ow
t hen
Ġcr iminal
Ġfle et
r at
Ġf ictional
omm od
Ġup d
Ġleg end
20 21
ĠF ac
Ġtra il
Ġtransl ated
ug oslav
Ġla id
Ġinvestig ation
Ġeng aged
ĠM em
Ġfact ory
Ġrul ed
in ter
ĠLaw rence
Ġv ide
Ġm and
Ġw aters
Ġsequ ence
Ġtw elve
Ġc ourses
Ġres ear
Ġc atal
Ġworld wide
ĠBr uce
Ġdetail s
Ġon es
Ġdescrib es
Cl ub
et ry
Ġs ections
ĠOper a
ĠP ur
Ġhead s
is d
ent e
Ġg ain
Ġbir ds
ĠCo oper
id el
Ġa x
ĠA le
Ġnick n
ĠH ig
Ġpar allel
ĠP ear
Ġres igned
anc ouver
Ġbo at
Ġt ail
ĠK y
St ar
ĠDis ney
ĠR abb
ĠN ob
ĠT un
Ġco ordin
ĠKn ight
Ġchem ical
Ġro oms
b i
Ġ4 7
ĠS ac
Ġass ess
ĠK evin
Ġro of
c i
Ġsup erv
O N
Ġsur g
Ġcomb ination
ĠAthlet ic
u its
ĠV ar
Ðº Ð°
Ġb ill
b ridge
Ġent ertain
ĠC leveland
Ġstand s
Ġcompos ers
n ia
d es
ĠCro wn
ĠS oc
I nt
ä ¹
Ġdiv isions
ming ham
ĠR ound
8 3
ot hes
Ġdo or
Ġfound ation
Bl ack
ĠHistor ical
ĠPu erto
ĠH orn
Ġs ell
ãĢ ģ
ĠLa ure
Ġ3 9
enez uel
6 2
or ig
Ġeng ines
Ġemploy ees
ĠR oc
Ġresident ial
ĠPh ys
ĠP a
Ġbro ken
ĠR ey
Ġint elligence
Ġquest ions
Ġrele g
ĠMiss issippi
È Ļ
Ġf resh
Ġprote in
ĠG a
ic it
ĠEd inburgh
ĠAm b
Ġpers ons
r ong
ĠP ed
Ġimpro ved
Ã ´
Ġbott om
Ġs ave
Ġed ited
ĠH ell
ĠD ance
ĠR ights
an ch
p re
ĠC ook
ĠTer rit
196 7
Ġmer ch
ĠN ort
Ġadv ance
ĠBas ketball
ĠAtl anta
om y
Ġlook ing
ĠMc G
Ġfl u
ĠS ee
Ġview s
Ġv oted
ĠGl as
v ant
r Ã©
ĠPl ace
à¸ ²
Ġsk i
Ġopportun ity
ĠT reat
ĠM ission
Ġcon qu
ĠMc K
l en
Ġa str
ĠW he
Ġposs ibly
Ġcerem ony
Med al
ĠR ain
us hed
ĠPlay er
Ġproduc ing
ĠMount ains
Ġcon sequ
uk i
Ġfund s
Ġcont rolled
r ons
Ġc ore
ĠBroad way
196 4
ĠP C
Ġinj ured
ou stic
A thlet
Ġvol unte
Ġs oci
ĠB ull
Ġp ione
Ġexp ed
ud i
Ġtri es
cl op
on i
8 4
ĠFred erick
Ġear liest
Ġjoin ing
Ġrepl ace
ĠV ers
Ġdef ensive
rop s
Person nel
Ġ ille
Ð¾Ð³ Ð¾
Ġsh ut
Ġg ets
Ð¾Ð» ÑĮ
ĠPrin cess
ĠP as
ĠHaw ai
em en
y ers
P ort
Ġre ality
ĠE ver
Ġground s
Pop ulated
Ġd og
Ġguitar ist
D P
ĠAg ain
Ġgood s
Ġret ail
ĠRep ort
Ġoper ates
b ishop
ĠN ord
Ġcompet e
T reat
ak ed
ro c
Ġsched uled
ner gy
aval ry
Ã ¥
Ġliter acy
S ch
y les
ĠHer itage
ĠCl in
ĠWeb site
7 2
Ġlin k
ĠG ran
ĠHarv ard
Ġdev ice
Ġsing ing
Ġanc est
w all
m ont
Ġneigh bour
Ġstr ing
Ġviol ence
ĠSur v
196 6
GB T
ĠH om
Ġfl at
Ġcon vent
P art
M P
Ġte en
Ġ ri
ĠD ak
Ġinv ited
P ol
Pl ay
ĠKenn edy
ĠH op
Ġso le
6 1
b ach
ol ph
ĠDe an
Ġem ot
ĠÃ ī
Ġregular ly
h op
Ġsepar ated
ĠC ru
Ġtyp ical
Ġpri est
iv o
Ġb orders
ĠF und
Ð¾ ÑĤ
Ġacc ommod
Ġus ers
ish ments
ĠV ic
ĠRuss ell
ace ae
ant ly
Ġrepe ated
f ile
ĠF urther
t own
ĠB ox
Ġelect ronic
Ġv ary
ĠF il
Ġb rain
ĠW ing
Ġinter ests
ĠD ue
ĠR yan
R C
Ġtermin us
ĠD allas
att an
n i
Ġ4 4
m illion
ic op
Ġoppos ite
Ġacc ur
Ar ch
Ġcal c
ten ance
Ġw orth
Ġphil osophy
ĠK o
ins ula
ĠA qu
ĠBalt imore
ĠY outh
Ġunder standing
Ġequ ivalent
duc ational
Ġun iform
Ġarg ued
go ing
Ġco oper
Ġm ole
ĠYear s
es ter
cept ion
ĠF A
Ġcateg ory
Ġb ond
7 4
Ġcor por
Ġcl imb
ĠAg ency
Ġens ure
æĺ ¯
8 2
act or
c ious
B I
or row
ĠA I
Ġpro ced
Ġnot ably
n ers
od ge
c ient
ĠBrazil ian
6 3
am an
J ames
Ġrev olution
Ġk id
al y
le te
Ġt ur
A ugust
ĠBl ues
ĠC her
ra k
et ime
ĠM aur
z er
Ġpl us
ail and
S pec
ĠCh ampion
Ð°Ð½ Ð¸
Ġr ich
In ter
Ġen l
Ġtouch down
8 1
Ġe ye
Ġsouth west
Ġpurch ase
le ans
Ġter ror
v i
ĠL ieutenant
196 5
Ġsub stant
edd ing
ĠG ib
T S
20 22
ÑģÑĤ Ð²
Ġc rown
ĠTai wan
Ġf ine
ĠL ov
Ġthe ater
Dem ographics
Ġa f
Ġg ang
ĠEx ecutive
ĠR ub
Ġar med
ĠNor man
C al
E S
ĠGr ant
Ġg arden
Ġcon cluded
l iving
ĠJ ordan
Ġc u
ĠOn ce
ĠLeb an
og le
ĠDen mark
ĠB omb
ĠAnd re
ĠSh ah
Ġv eget
ĠMor gan
p ower
Ġz one
ĠW ard
ell ite
ĠPet ers
ri k
Ġnot hing
ĠE nt
ĠPro duct
ĠC ra
ĠSam uel
f inal
Ġclass ic
ĠMarg aret
Ġme ets
ĠHung arian
ĠR ow
ĠB ush
P aul
ĠH ug
ather ine
ĠB ed
ĠG et
and om
og ether
ĠTra il
Ġcharg es
Ġsurn ame
ĠC are
Ġown ers
Ġw itness
ĠB art
Ġexhib ition
Ġre action
sp an
aster y
ate gy
Ġb ed
ĠMil an
Ġaccomp an
B ur
Ġ189 0
Ġ5 1
m i
el ess
se a
Ð´ Ð°
ic ial
Ġ4 1
ĠKel ly
Ġcont ext
ut ation
ĠU pper
ĠL I
ĠP ir
Ġcar bon
ty pe
ĠL iverpool
Ġb udget
Ġche ck
ĠF ern
ĠAlex and
ĠAlf red
R ich
ĠM ethod
het ic
Ġadvant age
? "
ĠEv ans
Ġdoc uments
aught ers
aw are
Å ¾
Ġproduc ers
ĠK u
ĠG ill
ĠHamp shire
ĠRoman ia
Ġd uty
un ting
Ġag ency
ĠPe ace
ĠDef ense
Ġf lying
e as
ash i
ĠO ri
ĠFin land
ĠAust in
Trans portation
ĠN BA
B r
on ian
ĠD anish
S ub
ĠJohn ny
Ġdiffer ence
ĠJim my
l ie
Ġte x
wh o
ĠCent ury
Ġb ra
ĠHung ary
ors es
Ġsurv ived
ĠWalk er
ĠAb out
ĠRes erve
ĠRang ers
Ġadv oc
ĠO ur
ex ual
Ġbro wn
å Ń
ĠW a
Ġ190 6
Ġrest ored
Ġd ry
7 1
d y
S im
l ig
ĠL ank
Ġfl o
ew ay
ĠChrist opher
Ġa er
Ġsecond s
orks hire
E p
W orks
ĠK now
Ġcall ing
ĠE very
Ġjob s
St ate
V ill
Ġcost s
ok ing
Ġ15 0
Ġob tain
Ġst ating
ĠF ive
Ġshow ing
J ew
Ġcom ed
Ġt ank
or er
ĠJ ess
Ġnot e
ĠLiber al
ĠBar ry
Ġcol leges
ĠH end
ĠW oman
u ins
Ġmot ion
ĠOper ation
ic ate
ac le
Ġdist ributed
Ġstar red
ĠS ax
7 9
ĠTh ompson
Ġb it
Ġstat ement
Ġc aught
Ġbroad c
ill o
Ġcred ited
Ġunivers ities
Ġpaint ings
Ġun f
em pl
ĠTh us
Def unct
Ġm ort
Ġev olution
ĠM ess
Ġover l
ĠOr leans
Ġapp ropri
Ġdid n
E P
et on
ers e
Ġarch ae
or ro
ĠV erm
Ġimpr ison
Ġcapt ure
P res
ĠV ik
Ġst ret
mph ony
ĠL l
ĠG ary
Ġ4 3
ĠBrook lyn
ĠDon ald
ĠEn vironment
Ġaff ected
ĠL ith
aw ay
ĠOffic er
ĠMunicip ality
ure au
ĠL ocal
Ġs ession
Ġst orage
ĠBet ween
b al
ĠTr ade
od a
Ġf an
Ġfav our
M arch
Ġtransport ation
ĠG on
Ġcompos ition
B ar
Ġjourn ey
B el
Ġout put
Ġres erve
ĠCon stitution
Ġfe ed
ĠMet ro
ĠBroad casting
! "
m at
ĠN av
Ġbelong ed
ĠJos Ã©
Ġaud io
Ġdr iving
ĠFrank lin
Ġtri p
ĠSeat tle
ĠV ice
Ġn om
Ġdam aged
P re
Ġr ivers
Ġconstitu ency
at ures
ĠCamp bell
Ġgradu ate
Ġstand ing
ĠSat urday
se ud
Ġm ine
in ian
ĠV ancouver
ĠComm ander
Ġdeg rees
A N
ĠVol ume
Ġrequire ments
os ure
Ġdis pl
Ġass ass
Ġkil omet
Ġc ards
Ġplan et
ĠTro phy
Ġdesign s
Ġper cussion
ĠBir mingham
Ġste am
ocr atic
Ġb ran
ĠS ud
Ġm ilit
Ġp ool
Ġinter ior
ĠPal est
Ġf ly
Ġch annels
Ġb atter
Ġch ance
Ġrequ ires
ĠÐ¾ Ð±
Ġ5 2
Ġmy th
D F
ran ean
Ġann iversary
Ġcolon ial
Ġch ose
ren e
Ġinit i
ĠW ol
`` `
c ia
H ow
C rit
ĠS hip
Ġres idence
Ġv eter
Ġrestaur ant
Ġret ained
ĠN elson
ĠBor ough
I P
Ġ <
ĠS af
l on
Ġcour ts
Ġbig gest
Ġking dom
ĠN atural
Ġfre edom
Ġe yes
Ġ190 5
Ġd owntown
Ġinstr uments
ĠTh ough
7 3
ĠR ap
6 9
Ġacc used
; "|
Ġm ir
ĠConf eder
Ġt ack
ĠF ather
Ġ190 9
ĠPrim ary
Ġfact or
Ġpopular ity
Ð» Ðµ
T wo
at ur
Ġ5 5
M L
M c
res ents
ĠY orkshire
Ġdec ade
writ ers
f ish
om pl
Ġcover age
Ġn or
Ġt ell
ĠStan ley
ĠUt ah
u ous
ab ad
Ġdeterm ine
Ġhousehold s
Ġown ership
ĠWind ows
ĠL ower
ĠCh all
ĠÐ· Ð°
ia h
Ġa ware
ast e
Ġs un
D ist
m ary
Ġis ol
est yle
Ġcharg ed
ĠL ane
inc inn
Ġcl in
ĠSt ars
ĠV ideo
ĠL am
ĠCh art
O C
ĠO m
Ġpol y
i ors
Ġdo ct
i ece
Ġd oll
Ġ6 5
ĠAuthor ity
Ġcommun ication
Ġt ick
Ġmed ieval
à¸² à¸
Ġunderst and
Ġ **
ĠN ar
Ġpo em
Ġmed ium
ĠIndones ia
ph one
ĠBl ood
ĠN iger
Ġreject ed
Ġg olf
O M
Ġprison ers
so ft
196 3
Ġcirc um
Ġsugg ests
Ġm outh
ĠC atal
Ġte achers
ĠÐ »
ĠT ower
anc er
i ere
ĠD J
Ġp arent
ĠN ash
Ġjur isd
c ons
ov o
aj a
Ġrece ption
ĠS i
ĠN CAA
Rober t
ch i
Ġ190 7
ĠTh ailand
ĠJ erry
Ġg ene
incinn ati
Ġcomm itted
A pp
ro ke
ĠR acing
E D
ĠD om
Ġstop ped
Ġsevent h
ĠC ass
ob by
ĠMor ris
ĠUp on
is hers
ĠAnd y
Ġdif ferences
Ġextrem ely
ĠP un
Ġassist ance
ple te
lo ad
ĠM ind
Ġ190 4
Ġpra ised
ĠH old
ag ar
ĠHind u
ĠGlas gow
m od
ĠJ azz
ro t
Ġp hen
Ġspe ak
Pro duction
ĠColon el
ĠMot or
f are
Ġro ut
Ġb anks
ĠN ative
Ġatt ached
Ġc up
M od
Ġopt ion
Ġcy cle
Ġany thing
ĠSup port
or ith
ĠGl obal
M al
ro v
196 2
ĠF ood
ĠL ib
Ġdiv or
iv an
194 0
Ġsignificant ly
ĠV enezuel
ĠArmen ian
ĠInd ians
Ġprov incial
Ġf est
ĠCol lection
ĠM ans
D esc
Ġphot ograph
Ġd uties
Ġexperi enced
ĠM ix
ĠM ond
Ġl iqu
Ġre ferences
oc ol
ĠÐ ³
Ġdisestabl ished
M C
he me
Ġsynt hes
ĠMark et
Ġd rawn
t op
Ġl ov
Ġcap able
194 5
Ġcontribut ions
L ater
ĠI an
Ġrep resents
Ġs elling
St ation
Ġad mitted
Ġp itch
ĠU EFA
Ġpublic ations
z i
ĠCE O
ĠRob inson
ĠAlbert a
S U
Ġsound track
M in
Ġhost s
ĠC rit
ĠD aily
Ġunder t
Ġc old
Ġlearn ed
ĠS everal
ĠAust rian
ph a
ac on
Ġfin als
Ġnewsp apers
' ll
ĠP sych
ĠG ulf
raf ted
Ġass umed
Ġprep ared
Ġinf rastructure
Ġpresident ial
Ī Ĵ
ak u
Ġbr ig
ĠB ible
Ġparticip ate
Ġc ous
Ġen h
ĠAll iance
ĠC hen
Ġlin ked
ĠJ un
Ġuns uccess
Disc ography
ĠB ase
ibb ean
h attan
Ġ Ã©
ĠVi enna
Ġappear ing
fess ional
Ġrepl acement
Ġexpress ion
Ġdel ay
Ġdesc end
Ġsome one
Ġtest ing
Ġ5 9
ĠAss oci
Ġmag azines
ĠDer by
m ate
Ġt ennis
op al
Ġpict ure
ĠD yn
ĠBern ard
ĠL uther
Ġdis miss
Don ald
Ġtechn ique
ĠG ener
enc ing
ĠY ugoslav
ĠSar ah
Ġcollabor ation
ĠF ried
Ã¶ r
Ġf ired
Ġswim ming
h and
ĠR y
Ġother wise
Ġs ort
ore t
Ġf alls
ind ing
ĠSec ret
m aster
ĠM all
Ġpract ices
f iction
Ġdev ices
Ġin stitution
Ġent ering
Ġmount ains
Ġe mp
Ġoffer ing
Ġm anga
ĠCommun ications
Ġmanufact uring
Ġcomp onents
Ġ4 6
Ġreg iment
ĠÐ °
Ġseg ment
Ġshe l
Ġan ch
ib l
Ġterrit ories
ĠN ever
are st
e o
A P
Ġw ave
ĠM es
Ġfranch ise
Ġdi agn
in ces
il st
ot ten
ĠJ ose
Ġs now
Ġun us
Ġpubl ishing
ĠGu y
ĠF el
Ġrece pt
ling ton
ik o
Ġarr ival
Ġvide os
ol ia
Ã¨ re
J une
Ġadapt ation
Ġre nd
Ġch air
Ge orge
Ġabs or
Ġm ales
ĠL ad
Ġde leg
ĠB eg
A ng
pp ing
ĠS C
Ġag greg
ĠAdd itionally
ĠCar ter
Ġdem and
L P
abl ed
E v
ĠLegisl ative
for ce
Ġw ine
Ġqual ified
Ġarran ged
ĠCh amber
ĠT ob
Ġcar rying
ĠMur ray
Ġsec retary
Ġacc ompl
ĠAng l
Ġpeak ed
re hens
ur ers
i able
Ġdesign er
Ġw ounded
ĠCh and
Ġth ick
ur u
Ġa head
Ġoff ensive
d oor
Ġrest rict
ĠTrain ing
Ġexecut ed
Ġinv ent
Ġin her
ro ck
ĠH um
Ġst ood
is b
an ian
Ġs leep
re leased
ĠH as
B M
it ars
M usical
196 1
eng er
Ġspirit ual
Ġin put
ĠSc ient
Ġrun ner
Ġkey boards
ĠCo le
Ġweek ly
ĠTig ers
Ġ ign
Ġexpl os
Ġcandid ates
Ġ188 0
Ġstre ets
Ġinn ov
ri p
as hed
yth on
Ġt ask
ot an
ĠMay or
Ġf ishing
Ġl it
f inals
h ill
Ġscient ists
ĠW right
Ġprot est
forman ce
C urrent
ri x
Ġal co
Ġreg istered
re nd
Ġst ages
Ð° ÑĤÑĮ
ass ador
ĠWay ne
R o
eg as
Ġmed icine
ĠG riff
A ir
Ġenc ounter
Ġconcern s
Ġcoach ing
ĠL ost
oen ix
m osp
ab ilities
Ġor chestra
ab il
Ġtrans ition
Ġplatform s
Ġinter ested
Ġmembers hip
Ġ190 3
iss ue
Ġmess age
usal em
Ġres ign
ut ions
Ġass ault
Ġ190 1
Ġviol in
Ġs in
E T
ĠF alls
Ġdeliver ed
ĠT ak
Ġsc heme
ĠM ap
ĠS aints
ail s
Ġsuccess or
t ure
u er
Ġcoast al
is ode
Ġan ime
Ġpl ane
th a
Ġim ag
Ġel se
j amin
F ictional
st ances
f eld
Ġachie ve
Ġs ed
Ġgr ant
Ġd ating
Ġsign if
ĠMu hammad
Ġaccompan ied
ĠJoh ann
Ġhead ed
ĠIn vest
Ġasp ects
ÑģÑĤ Ð¸
d in
Ġadd ing
ĠN on
Ġpl ate
Ġm ental
ĠAd ams
195 9
Ġsever e
Ġc atch
Ġclass ified
ĠGra ham
Ġto ols
amp s
ĠColl ins
Ġpri ze
iter ranean
ine a
ĠCar n
ĠC ulture
Ġso il
Ġbe ach
ĠJ ason
J uly
ĠNov a
Ital ian
Ġceleb rated
ĠCon vention
al ia
Ġcover ing
ip h
Ġpr ime
A pril
av an
Ġper haps
Ġfilm ed
Ðº Ð¸
Ġland ing
ĠH it
udd en
z h
Ã¶ n
Ġ190 2
' ve
Hon ours
ict ions
com mun
ant ine
Ġinc orpor
Ġn aval
Ġprot ected
Ġb at
ĠSerb ia
Ġprocess es
ĠCarl os
Ġint el
ament al
ĠM i
E N
ry pt
Ġsol ution
ĠA R
ĠP age
ch ang
ĠM ort
ĠC BS
ĠE mer
Ġf al
Ġjust ice
oph one
o ard
ir i
Ġshoot ing
ela ide
ific ial
ess ions
195 8
Medal ists
ĠD NA
ĠCom b
Ġt as
ĠS occer
S eptember
Ġmeas ures
Ġpre ced
Ġrepl acing
Ġb on
e lection
am ents
Ġsub d
193 0
Ġren ew
Ġans wer
ĠSe ason
w inning
b oy
ican ce
Ġsk in
Ġre un
ĠP ad
ri el
Ġpo ets
Ġmin ing
ĠCub a
Ġc ool
ĠP rom
Ġev al
Ġfr ag
Ġsub jects
ew ork
D C
Ġ eth
ĠN HL
Europe an
iv ated
Ġwe ak
b uild
Ġdep ending
oth y
ĠM L
Ġmed als
Ġh ang
Ġlegisl ation
Ġexper t
O ctober
ĠProt est
ĠR ef
ĠR ud
E m
Ġmin ute
ĠM ack
Ġf illed
Ġlic ense
Ġf ixed
ĠMarsh all
Ġj unction
ef ul
ĠAn na
ç »
Ġc ited
ub le
ĠS oul
ĠSpe ed
Ġrel ative
pro fit
T ax
Ġhor ror
ĠS ite
ĠM other
ĠR est
ĠHun ter
B us
d ers
Ġchap ter
Ġin sc
ud es
Ġd ream
att ers
ĠK on
ĠB ranch
ĠF ight
iel der
ĠMed icine
ĠN eg
ĠPar ish
w eb
Ġt ied
Ġstay ed
ĠRich mond
ĠE ss
f olk
ĠL anguage
Ġpen alty
ĠCont rol
ĠT an
back ground
Ġag o
ĠMad rid
Ġsup posed
ĠAg ric
e ed
h um
Ã «
ĠAl aska
ĠNaz i
Ġh ur
ĠC art
Mich ael
Ġinst ance
u in
ĠIn s
as i
ĠSev en
ach t
Ġmod ified
ĠHe b
os ph
Ġval id
Ñĩ Ðµ
Ġl ists
ĠE qu
Ġpr on
or ial
Ġorgan isation
Ġdem olished
p erson
Ġeven ing
Ġcol our
Ġbran ches
ater n
ĠCam er
Ġchall enge
Ġspok en
rib ute
ĠSp irit
Ġmain tenance
Ġb es
ĠThe ater
ĠAthlet ics
ĠRob in
Ġindic ate
Ġpolic ies
å Ľ
Ġgr ass
195 6
Ġthous ands
l og
Ñ Ħ
u est
ĠK an
ĠMan hattan
ĠD ub
ĠUk rainian
ĠA y
ug s
ag s
M ark
Ġprom pt
ĠS ongs
ĠO range
Ġmiss ions
å °
Ġbusiness man
apt ist
p at
Ġinj uries
Ġtem porary
ot ype
Ġbroadcast ing
Ġf iled
at ically
195 7
or o
ĠBang l
is ations
Ġoccup ation
h us
ĠA ld
Ġcritic ized
Ġ id
Ġar c
Ġexist ed
ra ham
ĠE nergy
ĠSy mphony
195 5
as p
ĠB enn
Ġrough ly
. âĢĿ
Q ue
app ing
a ired
I m
ster y
ĠNev ada
ath y
Ġman ner
ĠJud ge
ct ic
ĠR ena
Ġdefeat ing
Ġdest ruct
R ed
Ġmon arch
ĠAfghan istan
Ġr ates
eop les
ĠK r
k now
ĠN et
ĠMod el
ĠCat hedral
ĠS S
Ġh ip
Ġexcept ion
ĠSoc orro
ĠS ie
Ġkn ock
Ġentertain ment
ĠH ud
m ates
Ġf ear
c m
ĠÐ¾ ÑĤ
ĠJer usalem
ĠMit chell
Ġfrequ ency
O per
ĠD og
Ġsu it
N or
ens es
ĠCommun ist
us ing
Ġrem ember
ĠN BC
P C
claim ed
r ating
is ition
l ater
Ñĩ Ð¸
ric a
Ġw arm
ren a
ang erous
d ef
ĠB ud
Ġher itage
Ġcr ash
Ġstr ategy
ĠB aker
ĠR and
Ġ5 4
our g
Polit ical
os ing
Ġa qu
ĠW W
ar us
Ġsquad ron
Ġper fect
ĠL ud
ĠÃ ł
Ġwind ow
ĠS ign
ĠC hem
Ġsurround ed
St ud
Ġe asy
Ġalg orith
ub b
ĠArab ic
re ation
ĠBuff alo
ĠCharl ie
S o
h aw
Ġhelp ing
ic on
ĠL ock
Ġportray ed
Ġrespons ibility
op es
ĠTe le
U p
ĠDak ota
ĠR io
ĠA T
Ġsign ing
E ast
b ut
Ġf il
ÑĤ Ð°
Ġam ateur
b ody
ress es
ĠV el
ĠS id
ĠM aj
Ġwhe el
h arm
ĠBr istol
Ġpro hib
Ġcred it
ĠZ one
ĠG un
ĠMar ie
Ġcred its
Cl ass
Ġrom antic
ĠS ultan
cy clop
Ġmov ements
ĠPre fect
ĠLI NE
Ġcrow d
Ġp ian
ĠLim ited
ĠCar ibbean
ĠEd ition
m und
Ġm obile
Ġ rif
un es
Ġpar ks
Ġauth ors
ĠSecond ary
P ost
Ġag encies
ĠG iants
Ġagric ulture
W ar
Ġgro wn
Sp anish
ĠRoman ian
Ġinvest ment
ä» ¥
Ġs oul
Jew ish
ĠArch itect
Dec ember
og a
Ġjournal ists
ĠUn it
ĠClass ic
duc er
Ġcirc uit
ĠF rid
Ġc risis
ĠJ enn
Al umni
h l
Ġstr uck
ot al
mir al
Ġven ue
ter ior
Ġcollect ions
Ġflow s
Ġsomew hat
ĠMe an
Ġm ac
ĠB urg
ĠÐ µ
ĠDr ive
ĠLINE AR
N C
Ġstep s
C ons
ĠPict ures
Ġsan ct
e enth
rib ed
ier ra
Ġg a
uk a
Treat ies
Ġsec ure
Desc ription
Ġvict ims
em a
Ġr ating
Ġcan c
ĠAl t
ĠC ricket
mer ce
Ġcontrovers y
iv ation
ĠMuslim s
Ġfind ing
Ġcritic ism
Ġext ens
en berg
Ġph r
Ġdisc ip
" :
Ġbir d
Ġcom ics
ĠB ureau
le an
Ġoccasion ally
Ġv ic
ĠE sp
ĠEx t
Ġm emorial
ĠAd elaide
S W
Ġsu ff
G l
Ġinter change
ĠN ep
Ġjud ges
n ce
Ġn av
ĉ Ċ
Ġmod e
Ġm it
ĠSte el
ĠTrans port
st ers
ĠR av
Ġschol ar
Ġathlet es
nt il
ĠA er
Ġperson ality
forc ement
Ġvis itors
Ġm ob
ĠÐ² Ñĭ
Ġ5 3
ens on
o j
ĠCons ervative
com ing
at ar
Ġchang ing
cast le
Ġcomm emor
it ime
Ġ189 8
Ġlong est
Ġbe ar
ann er
S O
ĠCh airman
ĠMic hel
R et
Ġ1 000
Ġstri p
H owever
ĠLe eds
P R
à ¦
inc orporated
t rans
Ġexper iences
ĠHar rison
Ġwood en
p op
Ġh at
ĠF ull
unn y
ĠMar s
Ġor ient
Ġd aughters
Ġser ial
ĠSt ra
let t
Ġr ide
M ale
Ġsh if
S econd
ĠPat ri
ĠGl en
ĠAm az
ĠSing les
p ir
Ð¾Ð ·
Ð¾Ð º
m el
ĠM eg
_ _
ont in
ul u
iz a
ĠAss istant
ĠT ype
Ġnet works
Ġelev ation
R adio
ĠD ays
ĠSt re
Ġte ach
Ñģ Ð¿
Ġpain ted
ad ers
ĠN i
e ast
v an
ri or
Ġexped ition
B et
am er
ĠL ear
h ttp
ĠCh ang
Ġbatt les
ir k
ourn ament
erb ai
Ġh uge
Ġsh ore
ĠPh ot
i est
ark ed
Ġ1 20
Ã± a
ĠFle et
Ġturn ing
Ġsw itch
ĠF itz
Ġform ally
Ġshe ll
Ġsaf e
G allery
Ġdebut ed
Ġmet ers
ĠT erry
em ale
ĠDr agon
Ġadop t
ĠElect ric
ĠArk ansas
ul um
al ph
Ġdr um
Ġphil os
Ġinstrument al
Ġsold ier
o om
ĠC ensus
ĠSl ovakia
Char ts
ounc ed
M I
ĠB eck
Ġcomplet ion
Ġrele ases
keep er
Ġra ise
ĠT ol
; "
R ussian
ÑĢ Ñĭ
Ġvol umes
V P
v ision
et o
ĥ ½
F l
Ġs ter
ĠC incinnati
ĠL P
Ġhappen ed
ĠW restling
Ġatt orney
Ġbu y
ĠAbb ey
Ġs ax
195 3
Ġpo ems
Ġopin ion
Ġn one
ĠU nd
Ġdec line
Ġwithd raw
ĠF ab
Ġn ations
Ġremain der
Ġconv icted
ĠP av
" ;
w ers
Ġfr ame
ĠDig ital
Ġsh ares
Ġaff airs
ĠB ass
Ġrep utation
Ġ187 0
b ow
ĠPer u
N orthern
Ġro se
iction ary
Football ers
ryst al
Ġinflu ential
Ġg ender
Ġprocess ing
Ġcount ies
gress ive
gar ia
ig rated
st ad
Ġrep ro
ĠI ce
Ġsent enced
Ġmiss ed
ac re
ss on
ĠDef ence
A g
The se
Ġv e
Ġforest s
M e
C ount
The y
Ġhe ar
ĠCap ital
ĠP ack
Ġl ap
Ġcon st
. '
Ġg ather
Î ±
Ġtem por
enc er
ĠN ation
Ġbound ary
ĠP ant
ĠR ico
iv ia
Ð´ Ðµ
ebr aska
Ġgu itars
Jan uary
Vill ages
Scott ish
o i
Ġp apers
Ġrel ief
Ġeffect ively
ĠDep uty
O ut
è ®
ĠL iving
ush ing
ĠPri or
ĠGo ogle
Ġt act
Ġf old
Ġcon gress
u art
ĠU C
c ut
Ġdescrib e
Nov ember
Ġform ing
mar ine
Ġmark ets
ĠÐ¿ Ð¾
h ai
Ġac oustic
Ġconsider able
Ġcous in
ĠA ber
p m
um i
Ġne ut
ig s
Ġann ually
Ġexpl ained
Ġsat isf
ĠMov ement
Ġth in
ĠL GBT
Ġadv is
Ġmon ument
Ġsignif icance
Ġdep os
Ã© r
ĠAl bum
193 9
n ic
Ġg ay
ĠK ap
ĠR oll
p ers
ĠJ ava
ip er
il ty
ĠSen ator
ĠOrgan ization
Ġequip ped
ĠCont in
m usic
al g
Ġ189 9
ĠPort land
ach i
195 4
ĠL arry
unc redited
Ġweap on
al ities
à¸ Ļ
Ġunder ground
Ġdec lined
Ġus eful
ĠKe ith
Ġre nt
ag ers
rac ts
195 2
Ĩ Ĵ
b rid
ob b
Ġdepart ure
Ä «
Ġhel icop
k ov
Ġchild hood
p ent
ĠL ions
Ġevery thing
ĠPolit ical
An other
ĠS ic
Ġd ub
ing ly
Ġ( ).
Ð² Ð¸
ig g
Ġcam era
Ġlicens ed
ab a
Ġbi ography
former ly
Ġel der
Ġvess els
iz er
Ġbring ing
ok ed
Ġart illery
Ġlast ed
ff ield
Ġinvol vement
ĠSal v
Ġincreasing ly
Ġcho ose
l s
ĠF isher
Ġt ests
and al
r ity
ul i
Ġmov ies
ĠGr ay
ĠM ong
ac o
Or gan
ed a
ĠApp le
count ry
D S
en eg
C ap
Ġrelationship s
ient o
Ġemer gency
ke ley
Ġ2 50
Ġdeb ate
ĠÐ¿ ÑĢÐ¸
ar at
ff ee
ĠCon stant
Ġactiv ist
ed ed
ĠGre ater
ĠS r
Ġth ing
Ġclass ification
Ġcontinu ing
Ġat mosp
he red
ant o
ĠIs a
Ad d
Ġbeaut iful
ust ed
Ġc able
ĠJ ama
ĠW or
ĠBuddh ist
ĠC R
Ġ189 5
c alled
ĠY ank
ÐµÐ½Ð¸ Ñı
Ġsu icide
3 00
ĠColomb ia
T our
ĠCroat ia
Ġf antasy
ĠMain e
c ks
Ġd ensity
ĠProfess ional
Ġst yles
ĠCh ron
ell ion
ĠSerb ian
Ġfr uit
ĠV as
h or
Ġw orship
im o
Ġloss es
te enth
Ġse es
Ġcent ers
Ġpar am
ĠCan al
ic us
ĠUl t
Ġresc ue
Ġsw it
Ġthe at
iz ar
Ġn urs
194 8
Ġmarket ing
ĠEn cyclop
Ġex ternal
ric ane
iz ations
Ġex ists
ĠWar ner
ĠAt hens
ĠBy z
Ġpop ulations
Ġhistor ians
Ġpropos al
ann on
19 20
ĠEth iop
is ch
s uch
Ġconc rete
ĠY am
Ġthem es
ĠM ak
Ġcharacter istics
ri pts
Ġv ision
T op
ĠM ult
ĠDel hi
F lor
ĠStud io
Ġsurg ery
Ġbl ocks
medi ate
ĠSo ft
Ġinvol ves
ĠC hel
ĠB orn
er ia
Ġterm inal
ĠStand ard
b b
Ġo d
ĠSpr ings
ĠP in
ĠP il
ok a
Ġ189 7
Ġp ric
Ġcontrovers ial
Ø §
Ġcomp onent
Ġacc ounts
Ġw rong
ĠBarb ara
Ġconn ect
Ġsusp ended
Ġexc ell
æ Ŀ
ĠC ultural
ĠL uis
ot ton
Ġpubl isher
Ġeff ic
ĠFre edom
ĠWar ren
Ġmod er
Ġsp aces
Ġap artment
Ġ5 6
Ġpremier ed
ah a
Ġ189 6
ĠH ab
Ġbenef it
or ous
Ġd rop
ew here
Ġfl ed
ent o
od ore
Ġsur f
Ġpres erved
ett a
Ġass ign
ĠPr adesh
ĠFinn ish
Ġille gal
Ġdom ain
á ¹
ĠSystem s
st own
Ġdefin ition
ĠS now
Ġent ers
ĠMed iterranean
ĠPark er
or p
Ġreb uilt
che ster
Ġsu fficient
ĠC ode
M art
Ġp ap
Ġcross es
Ġw rest
ĠPl ant
ĠK it
uk ee
ĠB ey
er k
Ġass embly
Ġmov es
ĠVictor ian
ĠB uch
Ġden ied
Ġthe rap
y ll
M any
Ġe at
f ire
Ġrecomm ended
ĠDi ocese
Ġmass ive
bre ak
Ġadvert ising
re z
Ġrecomm end
H z
ig ion
Ġgreat ly
Ġphot ography
Ġtrib es
ĠBob by
ab el
Ġkn ew
Ġ Ñı
åı ¯
ip per
Ġident ify
T om
ĠHawai i
194 2
ĠVerm ont
ann i
ge on
ir ation
amp a
ĠBr isb
Ġs end
ĠC old
ĠBen jamin
Ġre pr
ĠF ace
ĠN orm
Ġ188 5
Ġsched ule
ĠUr ban
Ġres emb
l ar
it is
Ġsp r
Ġtun nel
ĠMar vel
Ġpers p
Ġd ated
ĠT as
rupt ion
ow ell
Ġg one
Ġman usc
Ġph one
ĠGu inea
Ġag ents
194 9
Ġqual ifying
ĠC ork
rick eter
ĠL ux
Ġvis ible
J os
ĠPh oenix
ĠC elt
ht m
E L
er ted
L ive
az e
ĠL ate
Ġjurisd iction
% ),
Ġt ip
in ations
ĠKir k
ull ivan
ĠN am
Ġrep air
J ust
Ġattract ions
f oot
ĠP erson
ĠIran ian
Ġsett lements
Ġbenef its
ĠBrisb ane
ĠD iamond
Ġsee k
ab et
Ġs ure
195 1
a uc
p ine
Ġstrong ly
Ġrat io
ro ph
Ġelimin ated
l ane
Ġmin imum
Ġne uro
Ġperiod s
en os
ĠC row
art ing
W A
Ġelect ron
ĠĠĠĠ Ġ
ĠIv an
ur ring
rehens ive
Ġcol ors
Ġtex ts
O T
ĠAv iation
C y
Ġb ridges
os hi
ĠP ra
Ġelev en
Ġdistingu ished
ĠTr inity
Ġas ks
Ġpit cher
Ġarrang ement
Ġpued e
ĠG round
Ġhon our
ĠTreat y
il ia
ĠJos h
Ġtrans form
ĠM aced
ĠMag n
oc ument
ley ball
Ġt ort
ĠE ug
ĠK um
S D
Ġdetail ed
Un ivers
er i
ĠVin cent
K ing
ond uct
Ġsim pl
vers e
ster dam
Ġad ults
Ġhel ps
ĠPr incip
wh ite
s a
ut ed
o ons
Ġoccas ions
ĠChristian ity
ĠAl ice
uz z
Ġcon j
w orld
ĠEx per
ĠH unt
ĠAct ion
ĠHud son
L ou
ĠM erc
ĠSt orm
m pt
Ġtre ated
ĠC A
ĠNor folk
Ġopportun ities
B ig
Ġrel ocated
Ġevery one
on na
Ñģ Ð¸
ĠS ox
i ya
Ġw el
Ġparticip ation
g arian
Ġz u
Ġs udden
p read
ĠB ird
Ġun cle
Ġart istic
at che
Ġh al
ĠStev en
ĠNich olas
ĠB rew
ĠG ate
193 6
C onn
ĠTurn er
Ġ186 0
ist ical
ĠCra ig
ĠSh a
D an
Ġt ie
ĠHol land
I L
y g
ĠS ide
Film ography
R ock
Ġcomp lic
ĠFran ces
ĠS ad
Ġ6 6
j ab
Ġpass age
ĠG rey
ĠEconom ic
æ ķ
194 6
Ġf a
194 7
Th omas
ĠB und
ides pread
ĠPier re
ĠS P
M et
Ġpre gn
ĠR AF
Ġcompet itive
ĠBeng al
Ġatt ributed
ro se
Ġtr uth
et ition
ĠFl ight
v ol
Ġintel lect
l ik
c ular
as m
Ġten ure
d est
lev ard
ĠCost a
Ġpercent age
Ġprin ted
ch t
ath a
Ġsat ellite
Ġsuper ior
ip ients
Ġsurv iving
ĠR ace
oss ible
ĠSer ge
R oyal
Ġrh ythm
Ġpat ron
wa ukee
äº º
ok o
ple x
Ġch amber
] ,
Ġgrad ually
Ġwhere as
Ġin ner
onym ous
ĠÑĩ ÑĤÐ¾
ĠG ot
ĠD od
Ġplayoff s
ript ions
ar an
w as
ĠV iew
anc ell
ĠSus an
ĠG or
194 1
ĠL og
Ġfriend ly
Pro fessional
n ew
Ġaffili ated
Ġs i
ĠAz erbai
æľ ī
Ġf ix
ĠS che
Ġland scape
Ġchap el
Ã ¦
Ġg ate
Ġinf antry
ĠT on
ĠJon athan
ĠDe ep
T ur
ach ment
Ġpaint ers
P at
å º
Ġsign s
Ġsuppl ies
ĠY e
os es
f ly
' d
est one
Ġind icated
ĠBangl adesh
Ġres id
Ġoper ational
n on
F ebruary
ĠIn stead
Ġabs ence
Ġac know
Ġt ribut
Ġmix ing
é Ģ
ĠG oth
ĠN ebraska
Ġv ast
ĠHor se
ĠP ay
u h
born e
Ġpat ient
Ġs ie
ĠPrefect ure
h igh
ij i
Ġcr imes
ĠP ast
Ġl ieutenant
Ġf urn
pt y
ĠSm all
Ġtrad ing
Ġunus ual
Ġdep th
Ġrepresent ation
Ġpal ace
oc c
Ġmon itor
Ġsent ence
ĠMov ie
ĠEx pl
Ġyoung est
Ġh olid
ow ski
ĠN ature
ĠBr ight
n ik
Ġf oss
re ck
Å Ħ
Ġg rav
iz z
Ġg ard
Ġappro val
G o
Ġapparent ly
ĠCharl otte
E st
ĠTh or
h our
å ¹
ĠJ oy
Ġattract ed
c ase
ur as
ĠOb last
Ġfest ivals
Ġl oyal
Ġdr ummer
ĠComp uter
Ġconf ig
Ġ7 2
g ate
r ative
ol ar
ric ted
Ã± o
ĠOn line
w yn
ĠT err
Ġint ent
Ġtrans mission
Ġmon astery
ĠM ann
Ġdon ated
c are
Ġcl an
Ġh orses
ĠMag ic
Ġappoint ment
om on
Ġco at
ĠPers ian
Ġw ants
Ġappropri ate
f low
S l
re nder
Ġas c
Ġs alt
Ġw ars
ol ition
ond a
Ã© l
Ġess ential
Ġpattern s
Ġint ention
Ġindic ates
u able
Ġext inct
ar c
ĠZ e
ĠGerman s
g un
ĠEgypt ian
Ġf ighter
ĠCl ay
w ig
oun sel
ÑĢ Ð¾Ð²
Ġgr ades
ap se
Ġl ibr
ĠE vent
Ġce ased
Ġpred ecess
uct ion
Ġ189 4
osp itals
Ġassoci ate
p in
ĠA rena
Ġcont roll
ĠS ah
ĠOl iver
Ġw at
æ Ĺ
Ġto ured
Ġwrit es
Ġcon vention
Ġt ropical
ĠLiter ature
Ġ5 8
194 4
Ġear n
Ġn eck
ĠJ a
end ar
Ġnegot i
ĠSt age
ue z
oll o
Ð½Ñĭ Ñħ
Ġhabit at
Ġle agues
Ġ5 7
Ġdiscover y
193 7
ĠL ion
Ġmerg er
ich i
il er
ĠBer keley
ĠMon te
Ġcol ony
Ġcol le
Ġdisestabl ishments
Ġgen re
Ġc inema
am ics
ĠD raft
Ġcompet ing
Ġ189 2
ĠChall enge
B O
i u
ĠV I
ric an
Ġvis iting
Ġenc l
Ġd ress
Ġpan el
ĠS alt
Ġwind ows
Ġw edding
ĠN C
Ġgu ide
ĠÃ Ĺ
on ly
G old
ĠH av
Ġ ÑģÑĤ
our se
w right
ĠT ournament
Ġdestruct ion
at ra
Ġconc erts
F amily
Ġsuffer ing
Ġr it
Ġnorm ally
ĠV egas
V ID
U s
Ġpro port
ract ion
Ġdoes n
over y
P al
ĠFriend s
ĠS ay
ĠShe l
it ects
Ġwh ilst
ĠD ennis
ĠR idge
ĠB ath
ĠChrist ians
ĠBul garia
ect ors
the less
port ed
ĠDen ver
Ġf it
h al
Ġg iant
Ġsup ports
ĠBelg ian
H A
S al
ĠR ic
ber ry
Ġ188 9
cel ona
Ġshop ping
ĠP el
Ġt orn
ĠB ond
on ies
Ġre ady
ul ating
Ġatt ending
193 8
Ġm ines
ĠT u
Ġl ingu
Ġvess el
Ġfem in
Ġpred omin
it ations
Ġfrequ ent
Rec ipients
Ġtrib e
ĠC ou
ĠGil bert
Ġd ual
Ġd iam
ĠHe avy
Ġem igrants
Ġtrans c
Ġthous and
ĠTerrit ory
Ġmart ial
Ġart ificial
Ġth irty
Char les
b oys
ĠW es
ath on
Ġkeep ing
Ġrepresent atives
uck land
ĠMin or
Ġ189 3
Ġconn ecting
Ġe ighth
U C
ĠM ick
Ġopt ions
ĠArch bishop
Ġd rew
ag ons
P eter
Rich ard
Ġamong st
Ġalco hol
ĠH ope
Ġreve als
Ġp ip
pe are
Ġext ent
ĠComm ons
Ġexperiment al
Ġg all
Ġcustom ers
ur st
Ġprincip les
Ġphen omen
Ġrapid ly
R T
U nder
ĠNe il
Ġw restling
åľ ¨
Ġc ul
Ġp ure
ĠEd die
à¹ Ī
à¸ Ń
ä ¼
ĠF ine
Ġimmedi ate
S ong
ro oms
Ġ189 1
ĠAngl ican
Ġsp in
Ġgener a
ĠClin ton
ĠM A
Ġcas ual
ĠLl oyd
Ġtrad itions
Ġm all
ĠW ang
Ġb anned
Ġref ug
Des pite
ap ped
ĠS ection
ad as
Ġclaim ing
ĠLeban on
s or
m aker
ri en
N T
Ġlocomot ives
Ġst rict
c at
ĠVenezuel a
ĠJeff erson
Ġdec ides
akes peare
Ġ6 3
et ers
Ġsp oke
Ġre porter
Ġany one
Ġw idespread
Ġemploy ment
Ġh ope
ĠBr and
H ung
Ġthreat ened
Ġdrug s
as ant
Ġk it
Ð¾ ÑĤÐ¾
Ġg ram
Ġrem ix
Ġround s
ĠP att
ĠS ig
c ing
ĠC ad
ang le
Ġlim its
Ġflow ers
Ġer ected
Ġdeploy ed
ĠH ear
Ġfal se
ult ane
Ġdep uty
f ers
194 3
Ã¼ n
Ġwas te
V ol
Ġf ur
Ġfac ilit
E ducational
n an
sc ar
om ic
Ġsamp le
Ġfunct ional
Se ason
Ġconcent ration
t ers
ĠLank a
qu ir
Death s
ash a
Ġmat hematics
isc opal
Ġenjoy ed
ĠS eb
Ġcons ervation
ĠMun ich
ĠR ing
Ġb attalion
M ont
ĠS et
Ġsy mpt
Ġrul ing
ĠMor oc
Ġconcern ed
vious ly
Ġw ings
ag re
Ġliqu id
ĠM asters
ĠL an
O ld
Ġm ile
ix on
193 5
Ġto ol
Ġdu o
Ġup gr
Ġl ose
h y
ĠTr ack
Ġpat rol
ok er
Ġf ee
á º
em ed
m ill
s ub
Ġrem ove
Ġhundred s
ĠW alt
ag i
enn ial
Ġstat ue
Ġcont ribution
ĠBar n
hol m
B ut
Ġind igenous
ĠMicro soft
ĠG ang
iven ess
Ġaffili ate
ĠH ann
Ġathlet ics
Ĥ ¬
ĠF a
Ġr andom
Ġv el
ey er
Comp anies
Christ ian
ren cy
19 18
ĠHeb rew
ĠK os
b acks
v ar
ili ar
ĠH ad
Ġcl ar
ĠUnivers al
Ġinduct ed
au er
it ially
ĠB ert
ĠWall ace
ĠP or
Ġdraw ing
Ġmurder ed
Ġemer ged
Ġo t
orig inal
ĠR ac
Ġadv ice
H en
ĠC P
ĠB aptist
: #
4 00
S E
ĠA round
Ġst ress
L and
op y
Ġact ed
ÑģÑĤ ÑĮ
ĠL iga
ring ton
Ġtrad ed
ĠHer z
Ġill ness
ĠP ul
ah l
Ġmeet ings
ĠMach ine
S port
ubl ished
e lect
am ous
min ute
f ilm
j u
ond e
ĠW onder
ĠEag les
ĠFac ulty
Ġh orn
ran o
Ġapp ly
ex p
Ġb id
Ġarg ument
ol en
im ir
Ġcharacter ized
m ath
r ise
ĠB achelor
Ġbas es
ĠMc L
Af rican
in us
gr aduate
ĠB og
Ġelect rical
Ġbound aries
Ġad min
Ġloc ally
r ont
g ame
Ġb aby
ur an
u ations
Ġorig ins
ĠT ib
Ġbo ats
ĠH em
Ġafter wards
ĠC urt
å ¸
Ġex cess
ĠHer bert
Ġconn ections
Ġinteg rated
Ġre aches
Ġmuseum s
Ġcateg ories
ĠR overs
Ġsub stitute
ici ency
Ġbeg un
ĠH ugh
Ġ6 9
ĠPen insula
en burg
Ġrank ing
Ġoper ator
Ġconvers ion
M unicip
Ġ186 1
Ġman age
Writ ers
ĠShe ffield
b ie
S ir
ĠCr ime
ĠS ask
et ies
osp el
ĠBr un
Ġsubsid iary
ĠCommission er
Ġmanufact urer
S am
Ġnomin ation
ĠPol icy
ĠBaron et
Ġcap s
Ġrest oration
M ount
Ġdef ence
Ġtravel ed
ĠM ig
Ġg ran
ĠO il
ant i
G ame
D o
he ro
Ġro ots
ĠTrans portation
ĠP i
Ġ ib
ĠÐ¿ ÑĢÐ¾
Ġfall ing
ĠRog ers
f ielder
ab ric
Ġcl othing
ĠBab y
er ie
Ġ188 8
av or
Ġstud ying
Ġhe aring
ĠEd wards
hel m
æĪ ĳ
Ġed itions
Ġl akes
w ent
Ġphys ics
Ġbal ance
Ġr anks
ev a
M iss
ĠM ason
ĠProtest ant
is iÃ³n
ĠBou levard
Ġy ield
Ġgen etic
ĠMur phy
Am endment
ĠS F
id al
Ġw ire
Ġm asc
Ġass ets
ĠColumb us
Ġp eoples
hemat ical
ĠR alph
ĠAm sterdam
Ġh app
Ġcorpor ate
Ġsupport ers
el i
Ġreg ime
ĠC urrent
ĠScot ia
Ġthr one
Ġdr iven
os l
Ġdivers e
Ġvar iant
Ġmanufact urers
ĠG ay
Ġpick ed
ĠT erm
ĠProduct ions
è ¡
Ġst able
Ġparticip ants
ĠR ight
Ġem peror
Ġproduct ions
Ġscient ist
ĠAtt orney
ĠP ont
193 3
T or
Ġc od
it ure
Ġab use
Ġsee king
Ġcon stitution
ĠHar old
Ġeg gs
ĠFrid ay
Ð¾Ð ¿
Ġdisc ontin
ĠF err
Ġm al
at on
Ġcanc elled
est ers
Ġmar ry
art en
20 23
Ġpost ed
ĠDel aware
Fran k
leg iate
Ġacc ord
ĠFor mer
Ġcivil ian
. ),
ing en
Ġtown ship
Ġsum mary
ist ani
Ġerr or
Ġunivers e
Ġexp ect
ĠRo om
Ġp and
ou ch
agon ist
elt a
I rish
ivid ual
ĠBut ler
s is
str ong
ĠB ald
Ġ7 6
193 2
Athlet es
ĠG olf
p age
ĠV lad
Ġsp ending
Ġd angerous
ĠCont emporary
Ġclos er
Ġencour aged
et e
ĠPer ry
B L
ĠBe aut
ĠT ech
Ġext reme
Ġsp ell
ĠM D
ĠM embers
Ġdat abase
ow ed
Ġ186 2
Ġapart ments
Ġo cean
Ġspe aking
cul es
Ġreg ulations
ĠW as
ab e
Ġab b
Ġpart ially
min ster
M ag
i w
itar ian
Ġminor ity
ig ible
ĠSc out
ÃŃ s
ĠSurv ey
Ġconv inc
Ġgu ilty
is p
Ġgradu ating
L ove
Ġm atters
I M
Ġhon ors
Ġexc av
im ation
Sw iss
Ġdis b
arg ed
ĠE g
L aw
Ġm or
Ġh ttps
l u
d isc
Ġ `
Ġsu itable
ĠT ag
ich t
Ġ8 5
Ġbon us
Ġqual ify
Ġfac ing
est on
ĠB od
ub a
SP N
Ġrecover ed
é ĩ
Ġcreat ive
B ooks
est e
Ġview ed
ĠMunicip al
è ĥ½
Ġcl ock
Ġmin isters
ĠBar celona
âĢ ľ
ĠIn v
Ġrel ation
N ote
ĠSh aw
Ġ186 5
Ġpart ly
ames e
Ġspons ored
E E
Ġo uter
Ġgovern ments
Nov els
E nd
Ġd rafted
Ġleg s
sc ale
ĠGh ost
em pt
Ġ9 5
Le ague
A lex
W eek
ĠK ur
ĠGr ade
ĠIndian apolis
Ġsurv iv
Ġin tern
Ġstud ios
Ð¼ Ð°
al ysis
ers et
Ġre ven
å ·
ĠL omb
Ġcontinu ous
Ġgrand father
ot yp
ĠAr c
Ġposs ession
ĠBr id
ĠC er
Ġprov inces
Ġsubstant ial
g om
h aus
ĠEx change
ri er
Ġorgan isations
ĠD at
Ġarchitect ural
Ġlaw yers
C P
E s
c ano
art e
ĠY u
Ġdes ire
ĠPhilipp ine
ĠStud ents
J im
ĠP le
Ġprov ision
oren ce
Trans port
Ġtre nd
I reland
Ðµ Ð¹
ĠK le
Be fore
re a
ĠChe ster
Ġimm igrants
ĠHarv ey
ĠS ak
ant es
Ġdec isions
w ald
ĠD est
ĠSh akespeare
ĠÐ¼ Ð¾Ð¶
D ou
Ġw et
C amp
ĠIn sp
M r
p res
Ġdisc rim
ĠW inn
Ġclos ing
Ġs essions
Ġwear ing
Ġstrugg le
Ġc ash
b us
Ġst im
Ġse ed
Ġexpl o
Ġmanufact ured
% ).
Academ ic
ĠD in
Ġcou p
amb i
Ġtw in
Ġinc idents
Ġprote ins
R L
ĠRabb i
D ep
ĠA uckland
Ġeffic ient
Ġf at
193 4
Ġunsuccess ful
Ġb rick
Ġn a
Ġsequ el
ĠArgent ine
Ġne ither
Ġrestaur ants
ĠF if
ĠT oy
Ġ urg
ĠCon struction
Ġc ricketer
Ġp seud
Ġso ap
ot ion
ĠNew castle
ĠM orning
Ġ9 9
Ġimp ress
Ġins urance
Ġdomin ated
Ġathlet ic
Ġresear chers
Ġdise ases
Ġ els
ĠB M
Ġposs ibility
Ġres olution
Ġtal ent
Ġ6 1
Ġ6 7
ĠPeters burg
ĠR ot
act ory
ĠB ear
ĠConfeder ate
v et
ah o
ĠF ly
ĠS eg
st ance
ĠRet urn
Ġr is
com p
Ġb oss
Ġ186 4
raf ts
art et
Ġnob le
Ġh ttp
Ġl ib
Ġn ut
Ġimplement ed
E M
Ġ186 3
Pro t
O L
Ġf ill
Ġs ang
Ġbre aking
Ġ188 7
Ġmechan ical
ĠC atherine
ĠOper ations
å ¾
um er
an ne
ĠK ay
Ġbeh alf
Ġaccess ible
ĠM alt
Ġbr ight
Ġ6 2
Ġproduc es
ĠGon z
ĠH amb
ĠD anny
ĠLe o
Ġmag ic
193 1
ĠSa udi
M ad
ut ton
Ġsee ing
al am
ĠR u
Ġgener ated
ĠChap el
ĠY ale
Ġ18 50
Ġmechan ism
ÑģÐº Ð¸
Ġ6 8
ĠC e
ĠD ata
if ies
ĠCons ervation
T ube
19 28
sequ ently
uns wick
S k
ĠAng lo
ob re
Ġpublic ly
19 22
ĠSt uart
Ġab road
Ð´ Ð¸
ä¸ Ń
ĠMethod ist
R S
Ġaim ed
Ġmount ed
Ġsurv ive
r us
Ġ188 4
cy cle
ild ren
Ġcomm anded
Ġind ex
å ¯
ĠHel en
z es
iv ic
ĠR ivers
Ġreported ly
Ġdiam eter
ĠK id
Ġex ceed
he nt
sh aped
Ġlay er
ĠS uch
ĠAr nold
Ġcr uc
ĠOtt awa
ac ional
ĠI b
Ã© d
19 29
Ġm eat
C he
re ts
Ġlat est
Ġweek end
re f
Ġaggreg ate
Ġh unting
Ġelect oral
ock et
Ġtop ics
Ġm o
il o
Ġch oir
ĠAl ong
play ing
c os
Ġnot ice
m aking
Ġc anton
Ġf iles
onom ous
Ġto uring
H F
i our
Ġexclus ively
K n
ack ed
Ġexp osed
Ġconduct or
l iga
Ġhigh light
Ġag ree
ĠSw an
G overnment
anc he
ĠK ill
Ġinn ings
Ġper ce
Ġt ale
Ġaltern ate
ĠCO VID
s he
Ġkid n
en o
ĠL amb
Ġsh ock
Ġc a
c ore
Ġn inth
ĠÅ ł
Ñ ĳ
ĠW el
Ġnovel ists
Ġ ÑĤÐµ
om i
ĠAll ied
ĠQ ual
T im
d ist
Ġ188 6
Ġv ul
af e
ĠKn ights
Ġexerc ise
Ġide al
ĠI C
ĠN ext
Ã¡ l
Ġnomin ations
ograp hers
ĠT ang
Ġdesign ation
g i
çĶ ¨
Ġt anks
ric ks
Ġt ons
ĠL ac
å ¼
ip ped
Ġtr uck
ĠVen ice
Ġd iver
over e
Ġass emb
emb ourg
ĠMont eneg
L ondon
or ious
Ġpr ince
hem atic
ĠIndust rial
Ġtri als
Ġlow est
Ġc rops
ĠTom my
Ġsim ultane
ac a
it ol
Ġus age
Ġcom une
At l
Ġ um
Ġinaug ural
Ġvot ing
Ġb in
ert iary
Ġopp onent
Ġpict ures
ĠCo ach
ep hew
ok u
Ġpre t
Ġsec ured
Ġsol ar
r ator
p y
ĠBen ed
ĠM S
ind a
ĠAn cient
Ġchalleng es
Ġlo op
ĠGreg ory
ij ing
Ġexp ensive
Ġsc ope
19 14
Ġacqu isition
Ġparliament ary
Ġcle arly
ĠH erman
Ġd iet
R I
Ġthe rm
ĠF ighter
Ġmar ks
Ġ7 7
ĠPet e
G reen
Ġman if
ĠE U
19 27
qu er
ĠG T
ĠArt ist
b as
Ġorigin ated
ĠMah ar
Ġcamp s
ĠMean while
ut o
pr ing
Ġimplement ation
ĠGr ace
ĠIndepend ence
ro st
Ġnuc le
ĠE sc
Ġvari able
ĠR uth
Ġab ilities
Ġas k
m its
Gr and
an ion
ort ion
Ġlab els
Ġmach ines
ac iones
ĠSh in
ĠCroat ian
rep rene
ĠM ol
Ġrele vant
cel and
uss ia
ĠI ss
ĠV illa
Ġim perial
riev ed
ĠS uz
Ġcircum stances
ĠS or
ro d
ĠUn like
ĠCo x
( )
Ġin hib
ĠÐ¸ Ð·
ĠCons erv
k g
ĠOrig inally
ĠV e
Ġdisp ute
ĠIndust ry
Ġhy per
Ġon going
end a
inc eton
Ġess ay
ploy ment
Ġprincip le
Ã³ w
Ġbelie ves
Ġb acter
ĠPed ro
19 25
em e
Ð½Ñĭ Ðµ
Ġdomin ant
M ass
ĠBr unswick
Ġnickn ame
uc c
ĠEncyclop edia
ra h
Ġlab our
Ñĥ Ñİ
S m
Ġ6 00
h istor
Ġm aps
ient e
Ñĩ Ð°
ĠP y
ĠÐ Ĵ
ĠThere fore
anth rop
ook ing
Ġl eng
ĠAct or
Ġestablish ing
ĠTechn ical
gom ery
ĠR at
ĠD ame
iss a
ĠP rice
ĠAg es
Ä Ł
ĠF oster
ĠSh ang
Ġf itted
osoph ical
Ġexp and
Ġcon clusion
Ġbut ter
ĠA aron
ĠW ald
19 24
und a
T own
Ġvirt ual
un ning
ĠN umber
ĠÐ± Ñĭ
Ġmar ine
ĠPo etry
Ġcomp ens
ĠM ik
th lete
Ġgard ens
Ġin ternet
Ġfor g
Ġbe ating
L et
el in
Crit ical
ĠInt elligence
es is
onom ic
ĠR ou
Ġhor iz
st and
Ã ī
ĠK un
Ġr ub
i ology
ent le
Ġal ter
Ã§ Ã£o
ry s
Ä ĩ
d ess
ĠT ed
Ġev ac
Ġ188 1
Ġclos ure
Ġr ated
Ġcan al
ĠGro ve
ĠL is
Ġsound s
Ġdiscuss ion
Ec onomy
g ary
if fer
ĠPer formance
è ¦
ass y
Ġphotograph s
Ġto mb
Ġal ive
Ġchar ity
ĠByz antine
ĠA S
ap ur
Ġdo ors
m other
y gen
ĠM uch
ign ated
Ġper mission
Ġhous ed
ĠClark e
b ul
Ġbeaut y
Ġcon greg
Ġdr ink
Col umb
Ġsust ain
Ġb ishops
ĠS oon
ĠBul garian
ĠS Ã£o
ĠP ick
Ġarrang ements
Ġ7 8
Ġincre ases
Ġb orough
ounc ill
Ġnovel ist
ĠF low
Ġadvent ure
ĠN ear
Ġcommun ications
ĠQu arter
Ġbi ological
19 19
y stem
Ġfarm ers
M ain
Ġpers u
Ġhonor ary
Ġs isters
ĠT ree
Ġdeb t
f ree
Ġc argo
ĠP rest
et ing
ag ram
Ġc attle
ĠMad ison
Ġs ugar
Ġga uge
om o
ĠL uke
Ġexpl ain
ĠF uture
ut a
ĠPr ivate
ĠMil waukee
Ġpract ical
Ġsympt oms
b es
ĠB att
Ġdisplay ed
Ġconn ects
ir ts
Ġsup press
Ġtas ks
Ġd in
Ġres ol
writ ten
ĠYugoslav ia
atche wan
Ġex it
ĠPun jab
ĠR us
amp les
ĠL ag
ĠC le
Ġbank rupt
Ġtrib ute
an j
CA R
Ġp ul
Ġwalk ing
Ġgraph ics
r ates
Ġtradition ally
ĠCirc le
Ġev il
ĠAl ger
Th at
arm a
V al
Ġt urb
ĠP ep
Ġhe ir
Ġen roll
ĠM ul
ĠD rama
Ġg allery
ĠAb raham
Ġliber al
ĠU g
ĠT ogether
Ġstret ch
Ġcricket ers
ra ud
Ð³ Ð¾
ent ry
Ġpo le
Ġto t
ĠB anks
Ġj u
over ty
ĠCol lect
U SA
Ġform ula
ĠBat man
Ġident ical
Ġs ung
ĠÐ´ Ð»Ñı
Ġorgan ised
ĠR ams
Ġ7 9
ec a
Ġbroadc asts
Ġcons ervative
ĠM ust
Ġs ight
Ġab olished
Ġtem ples
Ġunc ertain
Ġe in
up t
d irect
Ġre duction
ĠCard inals
Ġor n
ef ef
elf are
ĠCar r
ĠL az
ĠLe ad
Ġtreat y
ĠÃ ģ
à¹ Ģ
Ġphot o
Ġsm ooth
ĠPhill ips
H ere
ä¸ į
Ġdist ribut
Ġ188 2
ir th
ĠCirc uit
end ers
Ġrev ised
Ġr ising
H ol
ĠS yn
Is rael
Ġvir us
song writer
Ġelectric ity
Bas eball
Ġlin ear
Ġreleg ated
ĠT ong
Ġdiscuss ed
ad ows
ĠP and
19 26
ä¸ ª
Ġtour ist
fr ont
Ġswit ched
Ġgu ests
Ġacknow led
ĠSt ories
l ia
el o
ĠS T
ĠF eat
el ia
ĠW ed
ĠStud y
Ġcomp rehensive
Ġtrans mit
Ġexpl an
av ia
ĠÐº Ð°Ðº
Ġbus es
Ġrun ners
Ġav iation
ĠProt ection
p ost
Ġsett lers
duc es
ĠPlan et
ĠO ber
od ay
tr acks
ĠHe in
ft en
Ġassist ed
Ġs aved
ans k
Ġviol ent
ic he
ĠE ston
ĠMan uel
ĠRh odes
ch o
Ġpark ing
Ġb one
Ġb ull
Ġsc ores
Sw ed
ig u
Ġt ram
ĠM ath
qu est
ric ulum
è §
Ġin cl
Ġrare ly
Ġcab inet
Ġlog o
ro id
ĠBro s
ocr acy
Ġvict im
ĠSte in
Ġor che
Ġanim ation
L ittle
Ġattempt ing
ett i
ars on
S il
Ġcom fort
al m
Ġprop ag
eth yl
uck er
Ġfund amental
ĠS ang
ĠTod d
Ġear ning
Ġs ket
S aint
ĠF lying
Col lege
c over
f in
ĠN at
ed o
out heastern
ĠBos nia
e ing
ĠV iol
Ġpurs ue
Ġco ached
mon th
ĠC reat
Ġth ir
Ġconcern ing
19 21
Ġvert ical
ĠC ov
ar u
Ġinterpret ation
on ial
ap pe
Ġp unk
Ġm arch
ĠSe an
w ord
Ġpri ests
ip ino
Ġreport ing
ĠA x
oot s
Ġsh ift
Sh ort
Ġcomment ed
Ġfl ights
Ġav o
Ġ8 8
B en
Ġout standing
Ġh idden
Ġro ot
M ac
Sup er
h all
Ġcorrespond ing
Ġvers e
He ad
Ġm ilk
ĠF ish
R O
Ġfund ed
ĠRay mond
Ġ7 1
Ġstrateg ic
ĠGu itar
Ġw ard
ĠSer ie
Ġm os
Ġtemper atures
Ġ9 6
Ġmin i
Ġcross ed
al og
Ġre op
ib ilities
Ġsil ent
ĠB iography
ĠM usical
Comm un
l ist
å į
ĠH us
Ġf lex
Ġret reat
ick en
ĠSt ill
le ph
ĠS A
ĠAng els
j or
ĠS z
ĠJ e
int endo
Ġalt itude
Ġland ed
Ġbr ands
ĠFl orence
Ġc emetery
Ġcon vert
i ast
ĠL en
Ġindust ries
im m
orn e
ces ter
Ġmanag ing
ĠP ut
ĠS ullivan
B ill
19 23
Ġpart ial
Ġmerch ant
htm l
Ġg ymn
Ġrecip ient
om es
ĠHug hes
ĠK rish
N Y
Ġf ib
ĠYou Tube
Ġactiv ists
Ġâ Ĥ¬
ĠO g
ĠÑ Ħ
id ency
Ġcarri es
ament e
ingu ished
Ġovers eas
ĠN AS
ĠJ unction
off s
H C
ic ity
ĠA ires
Ġrest ricted
we ep
fl u
ancell or
Ġf asc
Ġst yl
Ġbelong ing
att a
ĠÑĤ Ð°Ðº
ĠLeon ard
W estern
ott ingham
Ġex ecution
ĠMan ager
ie u
iss ions
on ed
Ġphys ician
Ġtourn aments
Ġcirc le
Ġrequ ested
ol ics
ĠK ath
ov an
B razil
Ġb arri
il ian
Ġext end
ah an
Ġsl ave
ĠWork ers
h ttps
Ġabs ol
ĠM ills
ear ing
Ġsp end
Ġsl aves
l ive
Ġview ers
ro at
Ġ187 6
Ġge omet
ĠGard ens
ĠP eng
Ġform ations
Ġman ip
ĠBe h
ĠArab ia
ro duction
Ġsynd rome
t wo
ĠL em
ĠE mp
Ġengine ers
ĠR aid
Ġres umed
B E
Ġe lementary
Ġt ight
uc lear
ĠArt illery
ion ed
Ġpre st
ĠPal mer
Ġillust rated
ĠArchitect ure
ĠWith in
Ġtherap y
es ar
en ic
ĠM idd
Ġ8 00
FF FF
Ġel dest
Ġsong writer
Ġf ulf
Ġcon stitutional
Ġrem ote
Ġphot os
L ong
ĠPer th
Ġhy brid
Ġre venue
ĠN athan
ĠGu ild
Ġwid er
Ġpartn ers
Ġvocal ist
Ġm oral
ĠY ang
ĠSom erset
ĠB ears
Ġtravel s
ov ich
er ic
Ġdep icted
o que
ĠS ierra
ĠTas man
Ġt ens
ĠPr act
Ġd im
ĠJ ar
Th ree
Ġkey board
Ġis t
ill es
Ã© m
l ength
b el
g ie
Ġco ffee
Ġ186 7
an im
is che
ic ing
Ġels ewhere
ĠS I
ail ing
Ġaff ect
ĠVers ion
k ar
Ġb ath
Ġchar ter
Î ¿
Ġr ig
yl er
ĠBro oks
S erv
Ġre act
ĠW ag
19 17
ĠTh ai
Ġcon stitut
ĠÐ² Ð°
Ġn ephew
Ġrespect ive
à¹ ī
ul us
ĠB elf
Ġrece ives
ĠIm m
ĠDev il
Ġphr ase
um ps
ov ina
Ġprepar ation
ĠE ight
G P
Ġspecial ized
Music ians
Ġtr ump
ĠArch ive
ĠNash ville
K O
R ugby
tern oon
ĠPro duction
Ġinterview s
ĠPear l
Ġrang ing
m id
ĠWell ington
Ġ7 4
æ Ģ
Ġcompar ison
ĠO ct
ĠP ic
ĠHar bor
Ġcent res
st ory
ĠErn est
Ġt ape
ov anni
Ġper mit
Ġprefer red
i eth
V A
ĠCh a
Ġ1 10
ern ess
Ã ½
Ġf er
ad ier
Ġenem ies
Ġanth rop
Ġdi ocese
Ġib n
oc ene
ac les
Ġev olved
onn ie
ĠCru z
ĠK rist
ĠB av
ĠSocial ist
ĠRena issance
Ġdescrib ing
f urt
ĠT ax
ĠA way
ĠP ython
Ġ187 8
Ġrespond ed
esters hire
ĠSp encer
G en
ĠM ut
ĠCamp aign
Ġearth qu
ĠM TV
ĠHen ri
Ġcomplet ing
s econd
form ing
ÃŃ as
Ġaff air
ĠNew ton
as ia
Ġh appy
Ġfeel ings
Ġte eth
ĠÑĢÐ° Ð·
Ġsh ops
ĠPan ama
Ġwealth y
Ġ187 5
N S
d al
Ġa st
ym ph
h m
ĠL A
Ġun ions
Ġlook ed
ĠGuard ian
Ġ ÑĢÐµ
Ġinflu ences
ĠRepresent ative
Ġopp onents
ĠMond ay
Ġsh r
az i
Ġ7 3
S oviet
ĠAzerbai jan
Ġre ct
ĠL or
f efef
Ġun like
fefef e
Ġcomp iled
v ia
art a
qu arter
Ġhard ware
Ġr iding
Ġper mitted
f irst
t ains
Ġextens ively
Ġare na
Ġto urs
ĠD ictionary
ĠMont ana
Ġe j
l ights
19 10
th an
str ument
Ġdec ide
Ġwrit ings
ĠĠĠĠĠĠĠĠ ĠĠĠ
Ġthink ing
Ġcert ified
Ġin g
ĠS old
el ing
Ġscholars hip
j oin
. :
Ġf Ã¼r
Ġpro x
ĠRe ed
s m
Ġus ual
Ġdeliver y
ĠE SPN
Ġdismiss ed
ĠBe ijing
Ġm emor
Ġg al
ĠD ol
ĠKer ala
ĠV ict
v or
ĠA j
ĠB our
ĠIs le
B ob
Ġgold en
ĠK il
Ġpand emic
in ated
e lected
ĠB ach
Ġsur pr
Ġcomment ary
à¹Ģ à¸
Ġ8 2
Ġmet ropolitan
Ġvis its
ĠPe ak
ĠSy ria
Ġ187 1
p ath
ĠR ange
ĠG ene
Ġsport ing
Ġpric es
ĠIsa ac
Ġfif teen
Ġwithd rew
amm als
Ġexp osure
c ott
ur se
Ġun less
rup ted
ĠAnn ual
ĠKen ya
Ġres ort
ĠBu enos
Ġpromot ing
ĠEag le
Ġspe akers
Ġ186 8
Ġdepart ments
ĠHe ights
Ġperman ently
r ace
id en
Ġf abric
Ġ187 2
Ġsamp les
ro us
ac co
ess ed
ĠSp ider
Ġconce pts
Ġcomput ers
le e
Ġgu ar
Ġrul er
19 15
ia o
R ivers
k an
Ġrecogn ised
Ġconvent ional
ed e
ĠH az
Ġcon fess
Ġthe ories
ĠMont gomery
ĠSask atchewan
Ġle af
ÑĪ Ð¸
ĠAdvent ures
Ġthere after
ĠProv incial
ĠChap ter
æ ī
Ġt el
D utch
ĠR if
o fficial
ĠTr ump
Ġcampaign s
E r
Ġmarg in
ĠNap ole
Ġst eep
Ġ187 9
Ġasp ect
h is
ge bra
N D
Ġinit iated
ĠFin ance
ĠCub an
ĠLux embourg
Ġb ay
ĠS aw
j et
Ġslow ly
vel t
Ġdev oted
Ġarr ives
Ġappro aches
Ġhyp othes
ĠC ase
ĠPro p
al is
Ġl ooks
19 16
ĠArmen ia
Ġman s
ĠMal ay
ĠNiger ia
ri ft
Re lease
all ing
Ġpersp ective
f our
C ath
Ġref ere
Ġdial ect
ec raft
ab ul
Ġcontrol s
ph ib
Ġsy mp
ĠO wen
Ġ187 4
ĠS weet
ĠG P
int end
ĠÐº Ð¾ÑĤÐ¾
ac er
Ġneut ral
è Ģ
Ġlist ings
Ġconsist ent
Ġ18 40
Ġr um
ĠSc ar
ĠOrig inal
Ġb low
Ġam pl
Ġexpl ains
Ġinternational ly
Bet ween
ĠVal ent
Ġred es
ro e
ĠB ak
Ġesc aped
ĠM ang
An n
bro ok
Ġtempor arily
S ur
Polit ics
ĠWeek ly
Ġfavor ite
ĠI celand
bor o
Ġski ing
ĠPl at
J ack
Ġh ills
ĠT alk
Ġbl ues
Ġburn ed
ĠE ld
ĠD h
ub s
Ġham let
Ġisol ated
ab out
ĠY ellow
Ġre ducing
Ġcons cious
ig ue
Ġfram ework
ĠOut standing
Ġang le
imens ional
ĠBenn ett
ĠV oice
Ġab oard
Ġd as
und o
ĠG ust
U r
Ġquarter back
on so
Ġt y
Ar gent
Ġjourn als
F ore
ĠS oph
if ier
mon ton
Ġkilomet ers
Ã¡ t
ĠHer ald
ĠWat son
m and
est y
Ġappro ached
ĠArt icle
ĠDemocr ats
ĠCelt ic
ĠH ob
Se lected
ĠF olk
ĠPar ks
School s
ĠHig her
Ġattend ance
fer red
Ġfocus es
w eek
Ġclin ical
re ated
' )
D et
ĠAb u
ĠLi u
Ġal ien
Ġann ex
Ġ rib
Ġprem iere
Ġexact ly
ï¼ ļ
up s
Ġrel ay
Ġlo ad
Ġfun eral
Ġre organ
ĠJ en
Ġall iance
ĠT ales
ĠRe ading
Ġfeel ing
Ġcal cul
ess e
ĠCo al
Ġ188 3
Ġpl astic
Ġw orn
ĠStan ford
E very
Ġn am
ic os
oc o
Ġopt im
Ġexcell ent
Ġpro l
ĠStud ent
Ġreserv oir
ok es
ĠF aith
qu is
Ġr id
ins ky
uan ian
Ġrecover y
Ġst ops
Ġde emed
Ġch ron
Ġprov e
Ġcompet itors
Ġc odes
ĠBel grade
Ġk ings
th rough
ar ians
Ġp our
ĠS outheast
ĠN as
Ġbrig ade
M or
Ġsub mitted
ĠScient ific
Ġnegoti ations
ĠAct ress
Ġupd ated
å Ĩ
ĠO cc
ĠSh op
pr us
Ġrev ers
ĠF ras
Ã¤ r
ov sky
Bl ue
Ġcart oon
p son
Ġleg acy
Ġbirth day
ra ve
ĠAnt i
ĠD aw
å ĩ
Ġstreng then
Ġs obre
Ġthan ks
Ġt ies
ĠA FL
iz ard
Ġatmosp here
Ġmat hematic
ĠSim ilar
Ġdiffic ulty
Ġexclus ive
L os
Ġc avalry
ĠAd vis
ĠW ells
ĠPlay ers
ĠMar ines
ĠDes ert
Ġinterp re
â ĪĴ
Wh ite
ĠR ah
Ġcomm enced
Ġfl ash
ott o
Ġcoll apse
es a
ĠAm endment
Ġen forcement
ĠFran Ã§
Ġdemonstr ated
ĠO pp
mar ks
ĠSh ir
ĠOak land
Ġcomp ounds
ĠCl are
Ġ8 1
Ġfarm ing
Bur ials
Ġ }
Ð¾ Ñģ
ĠP ath
ael ic
sen al
Bus iness
Ġa w
Ð½ Ð¾Ð¹
Ġlay out
ĠGe off
ĠAp ost
ĠTre as
ĠH at
im ates
ĠO wn
Ġhe nce
Ġin formed
im en
Ġpil ots
O h
Ġeconom ics
Ġs oc
ĠI g
ev en
in os
Ġd ogs
Ġz ero
ĠWil helm
Ġvent ure
Ġ187 3
in as
ĠAl tern
ĠSt ef
a ude
Ã¡ r
omp ass
ĠOver all
ic ia
ĠF iction
ĠPar ad
ĠQu est
writ ing
ter bury
Ġcons olid
apt ers
Ġn it
Ġchem istry
ĠOr d
Ġwa iting
Ġsub sc
Ġcomp ound
ĠAp ollo
ĠEconom ics
ĠEnvironment al
n amed
Ġsub t
Ġc ave
Ġpre v
ĠC ob
Ġcoll aps
Ġinsp iration
Polit icians
F I
Ġsum mit
g ence
f ast
uc he
Ġelev ated
Ġdepart ed
M el
th at
Res ults
ĠH D
Ġcon ven
å Į
ĠJo an
F orm
ĠL ex
ĠAc cess
os exual
ent es
Ġ186 6
ĠGab riel
er as
ĠNorth west
te am
Ġesc ort
A v
ĠL ie
ij a
Ġqu ad
t z
ish i
Ġcond em
Ġm as
ĠTrans it
Ġsusp ension
ĠTr ad
n otes
ĠN y
ĠB eth
Ġspe aker
Ġtrav elled
è¦ ģ
red it
b one
le z
Ġaccommod ate
R em
ĠC raw
Cent ral
ĠLeg ion
id i
ĠW atch
Ġ10 1
Ġtechn ologies
ĠÑģ Ð²
Ġpredecess or
D ay
Ġpo ison
ĠWood s
Ġem pty
ĠHar per
Ġprom in
ĠEs sex
ster ious
Ġcont ested
Ġfoot age
ĠSch ol
Ġâ ĨĴ
Ġcarri er
Ġt elling
ĠFried rich
æ ³
ĠC hes
ull ah
A cc
C ity
Ġv ow
Ġout door
R oute
ĠL ak
Ġgro ss
Ġret iring
Ġent hus
Ġrefer ring
Ġro cks
ĠCamp us
ĠK ate
Ġsp ir
Ġdis ch
Ġpost er
ĠR oth
ik ing
O P
Ġhand le
ĠD elta
ĠP ink
ĠAr g
Ġrad ical
osaur us
l ain
Ġ9 2
Ġmeas ured
w ind
ÑģÑĤ Ð°
Ġdisb anded
Ġanal y
Ġcitiz en
Ġsculpt ure
it an
Ġrev ol
m unicip
Ġalgorith m
! !
19 12
ĠMar io
Ġhistor ically
Ġdiss olved
ĠIn g
ĠHe aven
ĠK in
Ġass um
M ult
Ġst ick
Ġpower ed
r and
ĠAndrew s
atter ed
ĠTh ose
Ġpl ain
Ġch rom
sk a
ç Ľ
Ġwor st
Ġdes ert
ĠAd miral
ĠJ oint
u ador
Ġob lig
ĠMo z
Ġpup ils
Ġiniti ative
ĠFin ally
s ur
Ġf ert
ĠLomb ard
it ic
ip eg
Ġbox ing
Ġdifficult ies
Ġbatter y
Ġrem ark
ĠOb serv
O pen
Ġg ear
ose velt
r ar
ĠCorn wall
l t
ĠK arn
Ġb ars
P an
ĠW als
Ġcat hedral
appe ared
ord ed
Ġby pass
ĠMan it
Ġadj ust
Ġf aster
om ed
ĠL akes
Ġinher ited
Ġbl og
in yl
Ġw ick
ĠJ ur
ĠFin ancial
ĠRon ald
Ġnarr ative
Ġpro sp
ĠComp etition
Ġdescend ants
ĠHamb urg
B ro
spe aking
Ġ9 3
ĠK ra
Ġbreak s
ĠDomin ican
Ġ9 8
ĠForm ula
Ġa y
im mer
Ġdec k
Ġdis order
Ġcomm une
Ġimpro vements
om orph
ict ing
Ġfe ud
Ġvar iation
ĠR aw
ĠTra vel
Leg acy
N on
ust rated
ĠFurther more
6 00
Ġm ig
ir ms
Ġe mpire
ap ing
Ġdisc overs
ĠSh ar
ĠLeg end
ĠYank ees
ĠM C
ific ate
is ons
ĠTib et
Ġn inet
ĠInter state
ĠM az
Ġret ro
Ġ187 7
Ġvot ers
u ania
ĠC S
ĠDav ies
Ġdistinct ive
s i
ÐµÐ½Ð¸ Ðµ
Ġdis aster
ĠN ine
Ġsh ield
ĠRes ources
ili ary
Jos eph
G C
Ġto x
Ġ8 9
it us
M a
Ġfin ance
Ġenc ompass
Ġph arm
Ġrang es
Ġreg ul
ĠHigh land
Ġparticip ating
ĠF u
Ġvict ories
D irect
F inal
ent on
ĠLa ura
ĠB es
Ġst em
Ġa thlete
om ber
ist ration
ĠArt ists
Ġb io
19 13
ĠCh an
so le
Ġrif le
r ary
ĠS isters
Ġac res
Ġguitar ists
Ġdistinct ion
á ¸
Ġbl ind
by ter
ĠTh om
Ġfriend ship
unc an
ĠS H
ĠC and
G M
Ġm erc
ĠK ash
Ġtick et
ĠC ut
ĠL ess
Ġcl ergy
add y
ĠD ra
Ġneighbor ing
Ġt ub
ĠA ch
Ġfle w
ĠW here
i ott
ĠDe uts
Ġtour ism
ĠL ok
ĠV ern
Ġind oor
ĠT ake
Ġrev ival
Ġprot ests
ĠLiber ty
ĠRel ations
ĠCa uc
Ġg rey
atin um
Ġdem ands
O s
b en
Play ers
Ex t
Ġacc eler
ĠCath olics
ĠW orth
ĠArch ives
ish a
Ð½ Ðµ
ĠAbd ul
b eat
Ġastr onom
Ã© c
Ġorgan ic
D is
P e
el ly
ighth ouse
h in
aj e
Ġt ertiary
Ġess entially
ĠG as
Ġmain stream
ats u
ĠBel arus
Ã Ĺ
Ġpull ed
ĠO scar
ph is
Ġhelicop ter
Ġc oc
Ġp as
Ġemphas is
ĠN ancy
Ġfam iliar
ona ut
ĠCal gary
k t
ĠP od
pir acy
Ġ9 7
Ġd rain
for ced
Sc ot
Ġdr inking
Ġc ogn
ĠMig uel
ç §
âĢ ł
T T
Ġexpl icit
ops is
ĠMos es
Ġdis pos
Ġdiscontin ued
ĠG amb
ĠUnivers e
Ġd eter
Ð½Ñĭ Ð¹
Ġlegisl ative
ĠBa iley
Ġam ounts
e or
St ep
ĠDemocr at
Ġanch or
Ġass ists
Ġcolumn s
Sing les
v as
ist ing
ĠPr ison
ĠHind i
Ġt one
H am
ĠC ome
Ġart work
ĠMot ors
ĠPir ates
Ġdelay ed
f amily
ĠCh air
ai ro
Th rough
Ġel abor
Ġprogram mes
Ġobject ive
G ood
Ġconstitu encies
r age
Ġpack age
Ġp y
ĠE in
l ich
ĠAr med
ĠIraq i
Ġtele phone
Ġra ising
ĠBl ock
yl an
ra pped
B ec
av ier
ĠStev ens
ĠEvent ually
Ġvar ied
Ġp ale
cl ing
ber to
uch y
Ġcomed ian
Ġadmin istered
Ass ociation
Ġc Ã³
if ax
ĠLe ader
ĠJama ica
Ġimprison ed
W ashington
ie ve
Ġm orph
Ġg host
Ġbel t
Ġforest ed
l as
Ġl ights
ĠG az
Municip alities
on ica
ĠF un
ĠInter view
ar is
ĠBr as
Ġel igible
ett ers
oy age
ĠC C
ĠPaul o
Ġcoin c
Lou is
ĠC F
Ġover t
umber land
Ġcongress ional
r ag
R ob
Ġfilm ing
Ġanal og
M ur
Ġs ick
um en
Ġto ll
am ation
Ġval uable
Ġrat ings
ç Ń
Ġrec alled
i ago
od ed
is an
ĠT all
hib ition
Ġmus cle
Ġpet ition
S mith
Ġc yl
ane ous
ĠPhil osophy
Å Ļ
Ġarr iving
Ġdecor ated
s burg
ĠPlay Station
spe ed
ĠS ex
Ġsign als
Ġbre ast
ĠCy prus
Ġd os
ĠH ood
Ġmin istry
Ġimp ossible
Ġh ospitals
Ġport ions
Ġresign ation
Ġres ource
ĠTrans l
Ġexhib it
ĠT ir
Ġcharacter istic
Ġremov al
Ġwas n
ĠT iger
Ġsie ge
ĠHend erson
R ound
ĠF oot
str act
ĠW u
ĠCol in
Ġarr ive
ĠKaz akh
19 00
ĠV ent
ĠRevolution ary
Ġcop per
H P
Ġout break
iet ies
al ks
F our
Ġlist en
ĠSl av
ĠMaur ice
Ġsim ul
ĠRh ode
D en
ol in
ĠP iet
Ġveter an
ĠC ec
I ce
ĠRem ix
Ġcooper ation
ĠAir lines
ĠDev on
Ġvel oc
Ġs itting
Ġrecru ited
Ġb ell
Ġtax es
Ġl ig
Ġdebut s
Ġdram atic
ĠPr inceton
ĠWild life
ĠM ull
m ons
Ġgener ate
Ġtarg ets
G roup
Ġin struction
ĠRe form
Bas ketball
Ġimm igration
b et
arm s
Ġstruct ural
ĠB ag
Ind ia
Ðµ Ð»
C or
ĠS ter
ĠN ottingham
Ġacadem y
Ġrad ar
Hen ry
od ia
al us
Ġas king
ĠCzech osl
Ġbelief s
Tax a
Ġpresent er
Ġsoci eties
ĠM end
ĠSeb ast
Ï Ħ
Ġmaintain ing
ĠW ings
Ù Ħ
Ġg ift
Ġinter face
et ary
icy cle
Can ada
Ġcoin s
G reat
w id
Ġw arri
ĠS ony
Ġque en
col m
ere k
Ġeff iciency
oc ent
ĠFran z
Ġne arest
Ch inese
ĠConc ert
ĠSch w
ĠNA SA
8 00
ĠC avalry
uis ine
ĠE C
Ġaccomp any
Ã© g
ĠBelf ast
ow der
M ah
Mod ern
ĠJ erem
ĠF at
land o
Ġaccur ate
Ġholid ay
ĠHit ler
P o
um ph
row s
ĠC ant
ĠV II
Ġwind s
à¸ £
W ind
amp ire
Ġf erry
ĠCom edy
ĠC ust
am ine
ener ation
ĠM ade
ĠD as
hold ers
Ġconsum ption
s up
art ed
n amese
ur rect
Ġprep are
Ġst ored
R E
on te
Ġch orus
Ġpar ishes
ĠBre ak
ĠM ine
Ġ8 4
Ġgl ac
ĠU ntil
o il
in ery
te es
Ġinterest ing
Ġpres ents
Ġdoll ars
Ġche ss
b in
ĠP ain
ar in
Ġcompos itions
Ñİ ÑĤ
ĠL isa
Ġrel ating
ĠAh med
ĠG and
ĠR ice
Î ½
ine e
ĠLear ning
L ike
Ġconf used
à¸ ģ
ourn ey
ĠS ikh
Ġsimultane ously
ore m
Ġsh aring
ĠFour th
ĠLuther an
M ary
ĠTh under
Ġfight ers
id ance
Ġpl acing
P rior
ĠSh ield
Ġjud g
O f
Ġno ise
ĠLuc as
am y
Ġcult ures
M ex
ill on
p iece
Ġpredomin antly
ĠS ou
ÑĢÐµ Ð´
it udes
ĠÐ Ł
Ġphot ographer
ĠCamer on
æ Ń
Ð¸ Ð¼
ĠX I
Ġfail ing
ĠE t
Ñĥ ÑĤ
O W
ĠA ur
Ġh yd
ĠPro file
Ġgrand son
ð Ł
ĠH aven
ĠX V
ĠFilm s
ak k
ĠAr d
Ġattack ing
Ġs weet
Ġh ole
ĠÐ ¶
Ġgra ve
Ġext ends
qu et
ĠAll an
Ġvo iced
Ġexper iments
Ġsub marine
any on
ĠT ab
ĠV il
Ġ8 7
ĠAnt ar
ĠBened ict
| }
ĠMet al
B rien
Ġwill ing
municip ality
ĠPr ague
Ġseem ed
ĠO w
Ġsh orter
ĠRo osevelt
ĠEv angel
h orn
Ġt ested
Ġf ame
aid en
Ġp ill
ĠDur ham
F ac
Ġt um
ĠK as
Ġbomb ing
Ġarchae ological
ĠComb at
Ġtri ple
Ġspe aks
erv es
z ig
Ġm emb
Ġj ury
ie v
ĠCr us
ĠThe ory
Ġph osph
Ġemot ional
Ġphilos opher
n ick
le w
clud es
l ived
Ġinhab ited
ĠS ep
19 11
Ġvolunte ers
ĠF uj
ond o
Ġapp rec
Ġport rait
Ġsk ill
A tt
Ġt ut
Ġinter cept
Ġpione er
ig ure
ĠCard inal
å ¥
ĠK or
Ġanal yst
f ight
Ġg at
Ġox ygen
Ġl iv
Ġpro of
ĠBrad ford
Â ²
ĠEd itor
ĠPublic ations
ĠGram my
Ġtribut ary
c ock
Ġtravel ing
Ġproced ure
g roup
intend ent
Ġsail ed
ĠCh ad
ĠH ous
ĠAmaz on
T echn
ĠShort ly
Ġun em
M E
Ġben ch
Ġbre eding
ĠX X
in ts
ĠH im
umb ent
ĠL ot
Ġinter action
oc als
Ãº n
Ġinstall ation
Ġsol utions
Ġ186 9
aj i
Ġent re
Ġbel ongs
Ġp ir
ĠJ ung
Ġseg ments
---- ----
t es
ĠAdv anced
Ad minist
ĠSud an
spec ies
b ank
Ġrestrict ions
Ġintellect ual
ĠS ul
ĠI T
Ġsp ots
Ġdef ended
Ġprin ting
Ġ ),
F rance
st ock
Ġ8 3
Ġor ange
ang ular
Ġdocument ed
ĠC inema
ĠA w
ĠP ent
ĠWar ri
is i
on al
ĠWith out
ri o
uss els
Ġcolon ies
Ġautom atic
N N
Ġp ointed
ĠJac ques
Ġaut ob
Ġfor th
ens en
ĠWest minster
ĠHer o
iat ric
Ġc ow
Ġbe ars
ĠDou ble
ÑĤÐµ Ð»ÑĮ
ĠKenn eth
M ore
r h
Ġfl our
Ġacc um
m ade
ÐµÑĤ ÑģÑı
ĠR af
ĠWars aw
ĠS ey
Ġsuppl ied
åı¯ ä»¥
D E
Ġtro uble
Ġmonth ly
ĠB ark
Ġreb ellion
Ġ( #
ĠW inners
Ġvul ner
i ability
Ġs av
Ġen rolled
int ers
ic ious
ĠN ame
Ġdoub les
p her
ĠRail ways
ç İ
Ġcoal ition
ina e
ĠT ampa
Ġhe m
B a
ĠD y
ĠF ul
Ġprison er
kins on
æ ł
Ġ18 00
ĠL ar
ĠMan ila
Ġren owned
Ġp overty
ĠR he
Ġp el
ĠLouis ville
Ġf iring
ĠK ol
ish n
eg ovina
Ġrac ial
ĠN E
c al
ĠK iss
Ġcollabor ated
ĠH od
ĠCard iff
ĠGib son
Ġex ha
ĠCor p
Ġprogress ive
Ġtack les
Ġcom ments
Ġdevelop ments
Ġ9 4
Ġmiss ile
ĠNap les
Ġdivor ced
uch i
ĠAn at
Ġequ ation
äº Ĩ
T ime
ĠOt to
Ġneighbour hood
Ġmem oir
z ed
ĠAr ms
ĠT rent
Ġre ward
Ġpe er
âĢĿ .
Ġb rew
Ġsk ating
epend ent
Ġvari ations
Ġeas ier
Ġindic ating
um m
ment e
Ġtrans it
Ġrecip ients
Ġl aps
Ġ- -
ĠLith uania
unn ers
M att
ism o
ĠWarri ors
Ġc ad
ec ca
og g
Ġsac rif
ĠAir craft
ĠTri ple
ĠEp iscopal
nes day
ĠAn y
Ġstat ements
Ġr ivals
Ġtor ped
Flor a
Ġthr iller
Ġcompris es
Ġent ity
ĠFor um
Ġimpro vement
ä½ ł
Ġl ift
Ġquant um
op t
ĠSt ri
Ġed itors
Ġent reprene
Ġp ushed
os c
Ġspec imens
Ġsit uations
ĠEll is
ĠMoroc co
Ġhigh ways
ĠEm my
ĠP ied
Ġunder went
Ġsup plement
Ã¡ nd
Ġche st
hab ilit
Ġceleb ration
oy le
ae us
f eat
Ġst olen
pr int
com mon
Ġpian ist
oun s
Ã ¯
ĠI P
Ġst ake
ĠK ind
ĠC itiz
ĠL if
Ġdest ination
Ġput ting
Ġr ice
Ġcr u
Ġb orrow
Ġread ers
Ġ8 6
St at
ber y
Ġ184 8
Ġtheat rical
ĠCom merce
Ar thur
ĠPo ems
Ġpsych ology
C ultural
ĠEx ped
Ġgoal keeper
W in
ĠB ran
ĠLe ft
ĠArch ae
ĠSab ha
g el
Ġattract ion
Ġnam ely
ad al
Ġw ish
Ġ ?
ot ing
ĠR ut
Ġst eal
Ġcasual ties
S ec
ĠMar x
Ġconvinc ed
Ġneighbour ing
M o
ar ts
Ġreg ulation
Ġsw ord
Ġvo ices
j ud
ĠFran co
ateg ory
Ġmid field
Ġvar iants
ĠMo h
em in
ble m
è¿ Ļ
ĠGi ovanni
Ġhand ling
ĠD und
ĠO z
oc es
ĠMer it
ĠMon ey
Ġp airs
S everal
enn ium
Ġlibr aries
ri fic
Ġin stitute
Ġcont ribute
ĠHol mes
D R
ĠC yr
Eng land
ph abet
Ġcivil ians
Ġs ending
Ġre ver
Ġkill s
ĠArm strong
Spec ial
ĠAgric ulture
is le
Ġkn ee
Ġoper ators
Ġaf ternoon
ĠSim pson
c iÃ³n
Ġor b
m ount
Ġdro ve
F oot
p es
ç ī
Ġt enth
at ics
ĠDist inguished
ĠStat istics
Ġmix ture
F re
L ocal
ig i
ap a
Ġrefug ees
Ġs ab
ĠIn itially
Ġcut ting
Ġunderst ood
aw s
de en
Ġy ard
ĠR ab
M at
and ra
ĠCan terbury
ĠH aving
ĠBl ake
Ġcust omer
ibl ical
as hes
Ġd ict
ĠN intendo
B road
ĠÑį ÑĤÐ¾
é Ĺ
ĠNew port
ĠNot re
Ġprofession als
Ġ. ...
ĠManit oba
or ient
id ades
ist ent
Ġcons ent
he ld
Ġbehav iour
al in
aur us
B N
W ater
ro x
ĠPict ure
ant om
ĠTr in
arch y
anc a
ĠMc N
Ġment ions
on ey
ĠDiv isiÃ³n
k ers
ĠCh i
Ġwar fare
K A
ĠGrand e
iers hip
ĠDou g
nold s
B re
ic ism
Ġevent ual
ĠGl ass
c ard
Ġman ages
reg ular
Ġf aces
Ġf isher
c or
ĠCl if
Ġb ord
ĠMonteneg ro
ĠB il
Ġdefend ers
ĠEn s
D el
Ġlocomot ive
Ġsk ull
Ġdest ro
Ġgraph ic
found land
G S
w he
Ġfre ight
F red
Ġ9 1
ĠCro s
m al
Ġf raud
ĠMarc us
Ġl iver
Ġl ie
ap est
ĠJul ian
Ģ â
ĠD im
og o
ĠNep al
ĠP iano
ax y
onn y
Ġc iting
ĠM obile
us a
ĠTr ue
ĠStock holm
Ġcre ates
Ġphys ic
B o
ĠI F
st ed
Ġmat rix
V ir
ĠD oll
Ðµ Ðº
ĠSh adow
Ġab und
Ġtal ks
Ġfast est
ĠB erm
ĠPal m
b ian
Ġsc iences
Ġarg ues
ĠC rist
ĠL iv
ĠEd mund
ĠE state
op hers
Ġun p
Ġder iv
ĠEc uador
f red
Ġperce ived
ĠN ak
ĠWrit ers
Ġrenov ation
found er
ĠFras er
Ġto wers
ash ire
iff e
n ame
eng ers
Ġair field
Ġlearn s
ĠS oci
Ġs oph
ĠD ale
Ġthe oret
ad h
Ġconfl icts
v ard
ID S
ĠW ord
Ġvol leyball
ed ge
Ġpit ched
Ġcollect ive
ĠWinn ipeg
in f
ĠSh ore
Ġmain land
Ġte a
on o
ĠKing ston
ik es
à¸ ±
leg raph
ĠM echan
Ġprot agonist
Ġshif ted
b ot
Ġcomple ment
Ġpost hum
ĠSl oven
Ġl obby
h art
Ġm a
æ ŀ
Ġar ray
raz y
Ġdispl ays
Ġfor ty
ĠAh mad
Ġconsum er
Ġsax ophone
ĠHerz egovina
c ity
ab we
ĠJust in
Ġdiplom atic
amb ers
Ġgu ards
arch ive
Ġser ver
Ġthere by
Ġassoci ations
ĠEthiop ia
Ġb otan
ĠD uncan
ĠSp ect
ä¸ º
ĠPrest on
S at
ĠLabor atory
ĠR ush
Cath olic
âĢ ¦
anc ers
Ġreform s
Ġfall en
ĠC ly
un ter
Ġconf ront
Ġstory line
Ġord inary
Ġs overe
Ġ185 9
Ġpun ishment
ene ath
Ġhoriz ont
ĠLin ux
Ġaware ness
Ġjoin s
Ġcan on
Ð½ Ð¾Ð³Ð¾
a que
Ġin ject
ag ger
iff s
ux iliary
ĠPalest ine
build ing
ĠÐ¿ ÑĢ
er os
Ġreleg ation
ĠML B
Ġext ract
Ġcont racts
ild a
Ġqu iet
M D
ath i
Ġpre y
Ġwarn ing
H E
n ut
M ike
ur ated
Ġwid th
av ian
ĠCont est
qu in
m ail
Ġarch ive
U T
Ġc ounsel
Ġsuccess ion
a very
Ġd ra
il ion
Ġcontribut ing
Ġnational ly
Ġassess ment
Ġwork er
Ġnumber ed
Ġdep ends
C ross
H ome
et ics
S L
Ġpay ment
d em
ĠJ al
ĠE ff
ok ie
Ã ²
Ġse eds
Ġcl ient
Ġs ulf
ĠUr ugu
w oman
au f
ĠK och
Ġret ain
c u
Ġc osm
en i
Ġre de
Ġ185 7
ĠGoth ic
Ġth rew
Ġpot entially
ĠId aho
ĠShang hai
Ġinv ented
ĠC u
oc he
ĠRom ans
ĠE is
Ġto ler
ne apolis
å ¦
ĠK em
C arl
h as
< /
Ġdep ression
j ar
ato es
aj o
Ġeng age
Ġpart icles
Ġrun way
ĠBron ze
erg arten
quir y
s outh
ĠA A
ĠSaf ety
Ġh ier
ĠC ort
à¸ ĩ
Ġd ur
Ġsur prise
ĠRol ling
Ġt i
ĠH ir
ĠAl bums
Ġ12 5
ĠGram mar
ĠE ye
imb abwe
Ġcon stitute
isc her
Ġwid ow
m itt
ĠC anyon
ĠN adu
uk u
Ġop ens
Ġadministr ator
ĠA ub
Scot land
è ĩ
Ġinter act
ĠA chie
C oll
ĠW ool
Ġpass ion
Ġpat ent
Ġc raft
Ġv inyl
Ġimprison ment
Ġachie vements
ĠR ank
ĠEngine er
] .
ĠC ann
Ġair line
Ġperform ers
ĠM ake
Ġsc r
ĠEngine ers
ĠBund es
h ad
Ġfor cing
ov i
Ġtrans formed
ices ter
Ġs le
ĠC ond
im er
âĢ ¢
Ġpresent ation
b ird
ang ered
Ġhead ing
e on
f ol
Ġc inem
Ġ( '
t ar
Ġlight ing
ĠChel sea
Ġa us
Ġj ew
Ġown s
Ġrecon struction
S em
v y
Ġb er
Ġr uins
Ġall ies
Ġind eed
ĠAdvent ure
Ġproced ures
f old
Ġor bit
Ġcolle agues
à ®
Ġrev erse
Over view
byter ian
Ġarch itects
n al
F in
M il
ĠAnd ers
ig ate
ĠCl aud
ĠR ib
ĠBur ton
Ġ18 30
all a
over ed
miss ions
ĠBas il
oca ust
ĠM Ã©
ĠPl aza
stad t
ĠP orter
Ġt ag
ust ers
Ġsurviv ors
Ġcur riculum
Ch icago
ĠSant iago
ĠAmb assador
Ġn atur
um ble
ĠAl pha
Ġdies el
S yn
b uilt
ĠJ ak
Ġn est
Ġcor ruption
Ġhydro gen
Ġtransmit ter
Ġsh arp
Ġbr ings
ĠVir t
Ġgrow s
im ming
ĠPubl ishers
F ort
ang o
ĠGer ald
Ġpriv ile
u ate
Ġindepend ently
l ov
at z
Ġs a
Ġd iamond
Ġearthqu ake
ĠJ in
Ġdial ogue
Tour ist
ĠCurt is
histor ic
ol an
ĠM is
ĠAb original
Ġcut s
J ud
Ġtim ber
ĠGu ards
ator ies
Ġcr ashed
B ox
m akers
Ġ" [
Ġpres erve
Ġne ur
ĠEd monton
Ġleg it
ĠCong o
ĠM iles
âĢĿ ,
ĠS ons
Ġfew er
Ġc ant
ĠÐ ¡
Ġrequ iring
in op
Ġmid fielder
D i
Ġpr ayer
B er
ĠI TV
ĠDr um
Ġdepend ent
Ã§ a
à ¥
ĠPh D
Ġtri o
ser ver
N P
S pe
Ġs id
( "
ĠAd rian
Ġsurv ival
ĠHar bour
alt ies
ĠÂ «
Ġlif etime
Ġsem if
ĠP resent
ĠR an
m ud
ĠL ords
op rano
Ġmain tains
Ġpros ecut
Ġl ad
ĠI gn
Ġg ap
on ne
ĠP owell
Ġhand ed
ĠC av
Ġloc k
Ġlaws uit
g io
ar am
ident ial
bo at
ĠLes lie
Ġmoder ate
ast ics
Ġbankrupt cy
ĠPol l
ĠCom plex
ĠP orts
let te
Ġfair ly
mun ition
ĠExped ition
ĠH iro
Ġdef ender
Austral ia
V ictor
and ro
Ġdist urb
ĠÐ¸ Ð»Ð¸
Ġdef ending
din and
Swed ish
U P
reg ation
ĠFellow ship
Ġent ries
à¸ ¡
ĠHal ifax
Ġcr uis
Ġgradu ation
Ġfif ty
ick ing
Ġsymb ols
Ġgat hered
duct ive
ĠO st
ĠR achel
Ġenroll ment
Ġb are
Ġmer ely
Comm on
in ted
Ġd iversity
ass is
ĠSol omon
ĠBC E
ĠMon th
Ġreal ized
f ive
ett es
Ġlabor atory
Ġref lected
Ġphil anthrop
ĠVol unte
wa it
stan bul
Ð¾Ð»ÑĮ Ð·
st able
ot he
un ted
Ġbo ards
Ġeng agement
Ġt issue
ag le
ĠViet namese
ĠRoc hester
Ġremember ed
Ġw aves
es ch
ĠInd ex
G od
ĠP ine
ĠG em
ĠRe ich
ĠSur rey
ĠG am
ĠN g
ip her
Ġcommun ist
ater al
ĠNew foundland
Ġflu id
ĠS ent
ol ine
viron ments
clus ive
h im
È Ľ
ess a
Ġch apters
g reen
ĠIn stitut
Ġex port
ĠV id
ĠRec ording
Ġp ush
ah u
ic z
ib a
Ġrequire ment
ĠU m
Ġj et
Ġs or
ĠS of
ĠF BI
ĠPolit ics
M er
he y
Ġg if
Ġst ones
Ġgirl friend
Ġsust ained
ambi Ã©n
Ġh az
ĠE ve
Ġlegisl ature
ĠC ore
ĠF antasy
Ġwa it
Ġexam ination
ed uc
Ġfocus ing
ĠAm ateur
Ġbeat en
exp ected
per t
Ġstr ings
ĠSoft ware
ĠI BM
ĠEd gar
wid th
ph an
ung en
b ase
Pl aying
ĠUl ster
Ġdeal ing
Ġsculpt or
ĠLanc ashire
Ġcul min
ĠA ri
ĠAgain st
Ġcal endar
l ay
ä ¾
ĠV ale
Te am
ĠL enn
ĠPl ate
Ġt ill
Å Ľ
isc al
Ġrec re
ellow s
l it
Ġint ense
Ġsimilar ly
Ġunivers al
ĠFight ing
Ġpat ri
ĠBar r
Ġgen es
h uman
m ology
Ġg aining
ol ith
ĠAn a
ott a
ÑģÑĤ Ð¾
v ideo
Des ign
ĠD ylan
Ġch lor
Ġrel atives
Ġdown load
Ġchalleng ed
ch annel
ri um
Ġreven ge
M T
ĠE yes
Elect ions
H a
ad ia
amb a
ĠH arm
Ġemploy ee
ist on
gr im
ĠA B
Ġalleged ly
ĠRoberts on
é ¢
ĠZh ang
ĠW end
Ġsh ots
umb ers
ĠFin als
Ġmy sterious
ro le
Ġmotor cycle
Ġw ore
Ġinter mediate
Pl ace
j ust
ou x
Ġag es
Ġprevent ed
ĠK ang
k u
Ġp orts
ĠS uff
ĠP GA
Ġsign ature
Ġch ronic
pr ises
A D
ord e
sc reen
ĠRod rig
ĠL oren
Ġgener ations
Week ly
ĠR ules
ros se
ĠBet ty
ĠC anton
Ġfound ers
Ġrece iver
d orf
pan ic
ĠH erm
Ġ Âł
Ġrepeated ly
um ped
ĠLou ise
ĠBry an
ĠR ica
ĠNe igh
R ay
h urst
Ġunder graduate
sh ore
ĠN urs
ĠPak istani
Ġd anger
Ġreg ister
Ð· Ð°
# #
ul ous
ĠTh ir
ĠB ever
ly mouth
ĠL ey
Ġun incorporated
ĠR ural
Columb ia
Ġo v
Ġen erg
Ġsur render
Ġc uisine
Ġbar rel
W ork
Ġext ending
ĠLanc aster
D ue
Ġor al
ĠCh ange
Ġdec e
Ġ1 21
ast a
ĠAr senal
Ġra id
Add itional
Ġgu idance
Ġthir teen
A L
Ġre actions
Ġdecl ar
C O
n ai
ĠClass ical
ĠS ett
ĠK erry
ĠU se
Ġsk y
Ġline up
Ġsever ely
Ðº Ð¾
Ġknow s
Ġdiscrim ination
op ing
Ġgovern ing
Ġdecre ase
ĠV eter
Ðº Ñĥ
G reek
ĠA L
Ġshould er
Ġamb assador
ĠF am
arri ages
Ä Ľ
ed ar
it Ã©
å¤ §
ing le
Ġproper ly
Ġrenov ated
Â »
ÅĤ aw
Ġt ube
re cht
ĠS earch
ĠSus sex
Ġupgr aded
Ġen act
Ġvar ieties
Ġden omin
ĠJul ia
ĠFrank furt
Ġbass ist
Ñģ ÑĮ
put ed
ĠFern ando
ĠL ic
ĠMar in
ç Ĳ
pe z
Ġtouchdown s
L iter
ĠW ander
ĠRes p
l isted
ĠG aelic
Ġdel iber
ĠÃ ĸ
ĠWe i
ĠWrit ing
Ġdis appeared
ĠG ren
Ġprot otype
umb ai
e a
e i
ĠL ink
ĠNort on
ĠI L
ĠEll iott
Ġsudden ly
ĠMc Donald
Ġsit com
Ġ/ /
pos ition
Ġdet ect
ãģ ®
Ġalleg ations
man uel
Ġtalk ing
ĠRaj a
H ouse
Ġp icks
et own
Ġa ims
190 8
2 50
h ot
Ġrest ore
Ġprin cess
ĠK ids
=" #
Ġcompris ing
ar ium
Ġart if
ĠBright on
z an
Ġprof it
T ex
Ġsp ac
Ġro ster
av i
. -
Ġh ay
ĠLe vel
Ġinteg ration
W il
Ġd ancing
ĠPro per
æ Ĭ
ĠL ah
Ġsequ ences
Ġmanusc ript
ĠTre k
ĠD ob
Ġmyth ology
Ġinterpre ted
ĠM ater
Ġend ings
bor g
Ġceleb rate
m us
ep age
Ġconsid ering
Ġrock et
enh agen
ĠS ki
ug a
in ite
Ġplay wright
Ġgr id
ĠHop kins
Ġrival ry
Bec ause
ain es
Ġinvestig ate
E th
Ġj ail
Ġend ors
qu al
Ġfollow ers
Ġcap abilities
c ap
Wh o
A I
f a
Ġfl ank
ĠE RA
ĠHe at
ĠPl anning
Ġachie vement
Ġmole cular
ĠG overn
ir ie
C zech
Ġrit ual
b ooks
ĠR ican
Ġpop ulated
Ġobserv ation
Ġserious ly
Ð¸ ÑĤ
ĠCr iminal
ĠC lear
ĠM om
Ġbas in
åŃ ¦
Ġ13 0
Ġvol unt
ĠK w
W inners
ĠRey nolds
ĠKum ar
ĠC rystal
ab i
ĠSac ram
ĠCh uck
pro duced
Ġm ad
ĠA FC
Ġter rain
ĠY a
ĠInt eg
Ġdev ast
ar ius
Ġpsych ological
Ġc ir
Ġin fer
ĠMil ton
ĠF emale
ell ers
ado res
Ġsuburb s
iv ities
ĠH ass
Ġtr ig
15 0
Ġmission ary
ĠGh ana
ocument ary
ro ve
ĠIn side
ĠL oc
Ġsc andal
ĠSc reen
Ġaddress ed
Ġcitizens hip
Ġmess ages
Î ¹
Ġh unt
ent ieth
ch ief
ĠN SW
Ġinvol ve
s ites
ĠM uk
Ġdub bed
S ocial
d ays
at aka
ur ai
Ġdes ired
Ġpersonal ities
e u
f ootball
Ġfor wards
Ġact ively
iÄ į
ĠA str
Ġbre ad
Ġthe olog
Ġsp an
Ġexhib itions
M ot
d ig
ĠLind a
ĠForm ation
l ag
el ong
Ġhon ours
ĠPhys ics
ator ial
Ġf ro
ĠMal colm
ĠBrown s
Ġlegend ary
ĠJenn ifer
c z
ĠT roy
ĠCar roll
Ġinstruct ions
Pol ish
Ġpregn ant
Ste ve
oot ing
Ġant icip
Ġar bit
amp le
Ġm igration
Ġv ector
eg al
Ġman ual
Ġfarm s
Ġver b
ĠW ik
Ġc ouncill
Ġpost s
Ġabsor bed
E ach
ĠTh ings
O ff
ĠD um
ĠMor rison
ĠInt el
ĠMem phis
Ġal umin
ĠV isc
ĠW it
ĠMar l
Ġprom ised
Ġmur ders
L es
am as
ĠDay ton
Ġpued en
ĠVlad imir
S F
Ġd ors
id os
Ġbe er
ĠWed nesday
ay ette
ut z
ĠGl obe
ĠBey ond
c estershire
at um
Ġprov isions
d ing
h ow
Ġf unc
Ġcomp act
B i
i ad
it ory
ĠB ody
ĠGl enn
Ġrecogn ize
Ġm ic
iment al
ĠPop ular
ĠK om
Ġadvert is
Ġoccas ional
Ġexecut ives
L iber
ĠN an
ĠEd ge
erb ack
Ġencour age
Ġconduct ing
. ).
od s
velop ed
ĠC os
Ġal gebra
Ġal tered
De velopment
or um
Ġf ran
Ġalign ment
ĠCh al
Ġwhe els
ĠInd ies
Ġrad iation
ce pts
ĠW ant
Ġun e
Ð¼ Ðµ
ĠF ant
ĠL av
ĠL odge
Ġse ized
J ean
ĠGl ou
ov es
Ġtop ic
Ġfor b
Ġ7 00
Am ong
P M
ĠHur ricane
Ġ3 60
Ġl anes
ard i
ĠY an
ĠBrad ley
ĠContin ental
Ġmin eral
Ġsepar ation
ĠNob el
ĠRichard son
ĠBudd ha
ĠEug ene
in ks
ĠWind sor
Ġencounter ed
Ġen able
ĠH alf
ian e
rid or
st age
Ġth orough
ul ia
Ġes p
Ġspecial ist
ĠH ull
Ġspec ified
Ġ10 5
N ow
Ġas h
az ar
ĠBel le
ĠBr ussels
Ġexplan ation
Ġon wards
lin ing
ĠSing le
ĠK itt
pt on
Ġmy stery
Ġconfig uration
d imensional
Ġdr ag
enz ie
ĠF actory
Ġdif er
Ġimpress ive
d u
ĠCh ase
unt a
s ize
ä ¿
h ra
ĠU tt
f ounded
ĠH ave
uc a
ik er
cles iast
ĠNord ic
Ġdivor ce
Ġch ore
Ġcirc ulation
H el
Ġd ancer
ĠV a
Ġauthor ized
Ġcommit ment
ĠĠ ĠĊ
ĠNever theless
ac ular
ĠK urt
un al
ag ne
Ġfour teen
! ,
Ġb inding
ĠS ap
T oday
ia z
ĠAl g
ortun ately
Ġv ital
Ġclos est
Ġkit chen
ĠÐ¸ Ð½
ĠLuc y
ĠM ale
ep s
Ġstation ed
Ġrob ot
Ġn eces
ĠWag ner
ĠS elf
ĠC ert
Ġserv ant
ĠG Ã¶
M ax
ist o
Ġant ib
Ġaccess ed
g ang
Ġen vironments
Ġeditor ial
Ñī Ðµ
P ak
W ood
Ġde als
Ġrot ation
ĠD iana
Ġst ability
d f
Ġab bre
omet own
l ore
Ġconstant ly
P ac
s ized
ĠC od
ĠRed s
Ġd ying
Ġcrit eria
h ou
uls ion
Dan iel
ar se
Ġexpl ore
Ġpract iced
Ġagre es
Ġreb uild
Ġloc ality
S en
og ram
ĠAlb any
ipl oma
ĠAmer icas
ĠSic ily
Ġcur ve
é Ŀ
Ġt ier
Ġd ella
Ġper pet
ĠBuddh ism
p it
ĠK ann
T ra
æ Ħ
ĠT oo
ĠD w
pen se
C ulture
S er
s l
Ġcor ps
u ber
Ġflo ors
Ġinter vention
Ġex chang
app a
Ġprest igious
Ġvers us
Ġgovern ed
Ġjump ing
rib e
Ġaud iences
ĠMalt a
h anded
ĠB rent
ĠN atal
air y
ĠFace book
Ġf ate
est rian
ĠN ote
Ġlog ic
osa urs
Ġing red
at em
it ious
ĠN ass
à¸ µ
Al so
Ġsix teen
Ġreserv es
Ġo w
ĠA my
erg round
Ġcruc ial
Ġaut hent
Ġflow er
Ġinteg ral
al bum
Ġshe ep
n Ã©e
Ñħ Ð¾Ð´
Ġvolunte er
Ġp ond
Med ia
ard e
Ġapp rent
inn ed
c aster
et z
Ġref uses
Ġassass ination
ĠF erg
ien ne
Ġconcent rated
Ġmut ual
B B
id ay
Ġex ile
Ġinter actions
Ġdesign ers
ĠR T
ĠWes ley
Ġr iders
ĠMidd les
ÃŃ t
Ġrevolution ary
S eries
oy a
ĠTest ament
ĠIndones ian
Ġnot ing
Ġdem anded
Ġbur ial
ĠNew man
Ġdef ine
af ia
ĠEp isode
y on
ier i
ĠPop ulation
Ġnickn amed
am ar
Ġlay ers
Ġhost ing
Ġc er
ĠMin neapolis
re v
Ġm ail
ate ver
ĠCap itol
Ġmagn etic
L E
d istance
ĠW ick
Ġsec ular
erm o
Ġmat hematical
n ote
Ġadvoc ate
Ġgener als
Ġship ping
Ġimpro ving
Ġmin im
Ġcreat or
Ġconj unction
un i
ll a
Ġdoct ors
L ocation
Ġexper ts
Ġinf ection
ĠBed ford
Ġimm un
Ġreve al
Ġvari ables
ĠCow boys
ĠK aren
Ġperson ally
Ġa uf
Ġb ones
ost ic
s elling
Ġm i
Ġdevelop er
Ġexhib ited
Ġconsequ ences
Ġa ster
am os
ĠRich ards
ĠJohann es
b ours
n orm
all i
ĠBl oom
Ġtransport ed
og h
ĠFer dinand
A ut
ĠC H
Ġsc hem
Ġsusp ected
Ġo ct
Ġdis orders
Ġtra ils
ĠÐ¿ Ð¾Ð´
Ġh ung
Ġmed ian
ack ing
ĠÐ Ŀ
Ġfind ings
Ġf ract
190 9
Ġscreen writer
Ġdoub t
Ġacqu ire
I F
Ġspec imen
Ġshel ter
ch ant
Ġens emble
ĠBra ves
h alf
ĠAlb anian
Ġb old
ĠRet rieved
á ĥ
ric ia
Ġterrit orial
M ill
Ġp ump
oun ce
Ch ief
Ġconvers ation
p i
Ġg rants
Ġinsc ription
Ġb ats
Ġr idge
ocol ate
Ġvar ies
Con struction
Ġrecept or
h ops
ĠÐ¼Ð¾Ð¶ ÐµÑĤ
Ġb achelor
Ġcan cel
Ġteam mate
ĠGriff ith
G N
ĠH off
quarter ed
ĠB end
ĠD ud
ĠN acional
Ġen abled
190 5
Ġqual ification
iss ued
ĠCo hen
C R
å ½
in ia
ay ers
Ġcol ours
ĠBl u
Ġob sc
Ġ185 8
attal ions
he rent
Ġbatt ing
Ġle ase
Ġcl othes
Ġrec urring
Ġmon ks
ĠJam ie
Ġf u
row ing
Ind ividual
Ġ ur
ĠT ext
Ġn aming
ĠCh in
Ġconc urrent
æ Ľ
Ġjud icial
Ġ185 4
r ÃŃ
as ium
ĠM am
ĠTe h
Ġstri king
Ġautom atically
Ġbroadc aster
ĠEm b
ĠTw enty
th ree
Ġup set
Ġrev ived
Ġbank ing
commun ications
ĠCar m
ĠTor ah
ĠHead quarters
rew s
ĠHer oes
Ġ185 5
Ġreop ened
ĠC B
Ġsuggest ing
ĠLyn n
an an
que z
ĠD awn
un ar
ĠEm ily
Ġcomp at
he nd
ĠG ospel
Ġprec ip
ĠGener ation
ĠL ogan
ĠK eep
ak o
Ġdecre ased
al id
S y
en ess
Ġb apt
ard ed
Ġel ite
Ġtro ubl
ĠStr at
ĠM old
ĠÐ ŀ
ĠSalv ador
ĠA ce
play er
ĠK ot
ĠParliament ary
Ġsole ly
n ov
ĠGreat est
ĠEx cell
Ġs ou
Ġper former
J eff
ars ity
Ġdevelop ers
Ġthe orem
ĠC ash
Ġmilit ia
Ġprob ability
Ġexplos ion
Ġphenomen on
C amb
F ar
Ġstrong er
Ġc ens
ch ing
Ġst aged
Ġtransl ator
ip ur
ĠAlexand ria
å¦ Ĥ
ĠAg re
Ġdram at
ĠAber deen
ĠP am
ĠMar ion
ĠA F
yl um
b oth
l if
ĠM umbai
atter y
Ġwithd rawn
ĠC el
Ġregard less
Ġdoct rine
Ġc otton
ou ra
ĠJ ourney
Ġtrav elling
ĠCe leb
M id
il ogy
en ary
Ġd ent
Ġcor poration
Ġaut umn
Ġfe els
Ġmans ion
man s
Ġ185 6
ĠBur ke
le en
ash tra
Ġph on
Ġp a
Ġliter ally
Ġn erve
ĠR anch
Ġpl ates
ath am
ĠRock y
Ġsac red
ĠNot able
ĠBurn s
er als
Ġimportant e
Ġenl isted
ĠC lement
em por
Ġstrugg led
ĠPot ter
ĠSpeed way
C r
Ġ u
Ġm ant
Ġtrans formation
ĠH appy
Ġexp anding
190 7
Ġrain fall
ĠAchie vement
M useum
it ely
Ġest e
Ġover w
N ame
Ġdistingu ish
itor ium
ĠBul ld
Ã µ
ĠL ook
Ð° ÑĢ
Ġra pe
ĠChar ter
Ġconf usion
Ġs ke
ran ger
cl air
ĠPres byterian
imens ions
Ġeg g
ĠMar tha
Ġdeep ly
ĠZ imbabwe
abl o
Public ations
ĠStaff ord
ĠY uan
it as
Ġconqu est
ir us
ĠW A
ĠSt ore
ĠV III
Ġfort ress
Ġf ires
ĠG ur
ĠCh amp
Ð¸ Ñħ
Ge org
D I
ĠD j
ĠL eop
ch ar
Ġpriv ately
Ġth rown
Ġcon ferences
ĠZ en
ĠTerr or
c io
Ġpol ar
Ġhon ored
Ġcou pl
Ġcons ec
ĠSup erman
idel ines
Ġfre estyle
Ġstre ak
ro gen
Ġ1 17
ĠM oss
ĠCour se
Ġrenew ed
Ð° Ð¼
Ġrele asing
ari os
Ġjournal ism
orient ed
Ġshe et
che m
ĠUS SR
ĠR oma
irl s
V N
ag ara
Ġdem ocracy
ĠKenn y
ĠPied mont
ĠJud a
C ivil
ĠT ank
Dem ocratic
ĠBar nes
Tur k
Ch arl
à¸ §
Ġins ects
ĠHe ath
Ġmin imal
l ied
ĠLiber ation
Brazil ian
m itting
st op
cl osed
C itations
e als
ĠNAS CAR
B ook
m ember
Ġre join
ĠH il
th is
I ts
Ðµ ÑĢÐµ
L o
t ons
ĠTh an
ĠOr lando
B oth
Ġabs ent
war f
Ġhop es
ĠHeavy weight
Ġh ub
iv as
ical s
Ġcl ients
t el
Ġh itting
ĠD iet
190 6
Ġdyn amic
Sim on
ip edia
Ġkill er
J ac
æ Ķ
Ġp ub
Ġstream s
Ġbe am
Ġtarget ed
Ġaccompl ished
ĠAn imal
Ġcopy right
i ens
add le
B ad
ĠF ut
S M
ĠM ob
ĠM ales
ĠSp art
ĠJ ets
od on
Pl aces
ĠÄ Į
ĠÅ ½
ĠBro ck
c s
Sp ace
di ocese
ĠH IV
ĠRe formed
Ġl ux
yl on
ĠTown s
Ġ15 00
ĠL etters
Ġqu oted
r ina
ĠSpring field
ĠPro ducer
s ince
Ġd uration
ĠRepublican s
ĠCab inet
ĠLud wig
Ġmet ab
Ġâ ĪĴ
Ġst roke
Ġbe aring
Ġthreat s
Ġe ating
Ġvary ing
R h
Ġarm ies
Ġnation wide
Ġa uction
Ġp ig
et ric
ĠJo el
Ġp in
Ġp aying
Ġal phabet
ĠN in
Ġun w
ĠÐ ļ
yt ic
t re
Ġb eneath
Ġpros per
Ġdiplom at
Ġcirc ular
190 1
ĠMur der
Ġaff ord
Ġanth ology
d ad
Ġ18 12
na issance
Ġarg ue
y ch
urs day
Ġgod dess
ĠS ind
Ġhum or
ĠS ard
Ð¸ Ðµ
onn ell
Ġ185 1
Ï ģ
ĠR up
Ġb oot
ĠT anz
Ġform ats
Ġam munition
ĠDor othy
ĠW aters
Ġproport ion
O l
Ġm es
Ġre ass
Ġh ometown
aw i
arth y
ĠEll en
Ġburn ing
ter a
ours elf
Ġtrust ees
Ġs aint
ĠTasman ia
H uman
im an
ĠThe odore
Ġsh aped
Ġrul ers
c ur
Ġaccident ally
ĠB ot
ĠF an
Ġ185 2
ar ag
ĠB alk
Ġmission aries
Hung arian
n umber
Ġsur rend
çĶ Ł
gr and
Ġb ag
ĠPr iv
Ġident ification
iffer ent
B attle
ĠP lymouth
Ġcl ay
ĠPro f
Ġdr ives
ĠPalest inian
v ens
ĠB ased
ĠD id
Ġaut o
Ġ185 3
Ġboard ing
l ord
en heim
Ã °
Ġc rypt
ĠH its
oc hem
Ġrel uct
è¡ Į
en za
lic ation
ĠStr ateg
ĠLe icester
Ġbul k
ĠThrough out
Ġfoss il
ĠÐ¸ ÑģÐ¿
Ġcatal og
ĠS leep
ĠC ool
Ġperform s
ĠFil ipino
Ġtorn ado
d an
ĠO pt
Ġbi ology
N atural
Ġest imate
Ġm oon
Ġv ine
ĠPro cess
Ġsub species
ĠRe id
Ġpra ise
Foot notes
Ġt rick
Jo e
Ġvirt ually
Prot ected
id as
ip t
ĠChron icle
ent a
Ġexpl oration
Ġpurs ued
ĠCarol ine
Ġdisp ers
Ġrecon struct
M us
ound ing
J on
Ġcomp rom
ĠM ing
ĠHaw ks
Ġc ere
Ġimp osed
Ġtour ists
ĠJul ie
ĠChief s
Port ug
7 00
C ert
Ġs outheastern
AT O
ĠLith uanian
ĠM ile
Ġn ights
id an
Mart in
Ġc ort
Ch ris
ĠMid lands
ellig ent
Ġacknowled ged
Ð Ł
ĠB rom
atri ates
C T
act ical
Ġdif f
å ±
im ity
Ð¼ ÐµÐ½
Ġw er
H or
ĠM oor
ov ed
u um
w alk
th al
ĠTr uth
W eb
ĠG ir
Ġtrans p
Ġnort heastern
ĠH els
z ing
Ġsub urban
ord inary
Ġhuman ity
Ġveget ation
ĠT yler
oc ate
Ġinter im
ĠC i
ri pp
ĠBl air
ĠHay es
Ġthe ology
strument al
ist le
ĠRaid ers
Ï Ĥ
Ð² Ðµ
Ġsett le
St an
ĠNapole on
os o
Ġj ack
Ġrecru it
ĠMaced onia
act ic
ĠLiter ary
Ġwatch ing
U N
art z
ount ain
ĠDes c
Ġcollect ing
Ġ ic
ig rant
Ġw elfare
13 0
Ġ184 6
ĠC ay
Up on
ut ing
ĠK i
ĠSc ots
Ð» Ñĥ
rest rial
ĠNe ed
Ġc af
Ġcongreg ation
S um
ung s
ĠBir th
ĠSem inary
, âĢĿ
Ġe ine
Ġr ational
Pr ivate
Ġd inner
ĠCop a
form s
Ã¨ s
Ġpan els
Ġb ore
ree ks
ĠCop enhagen
be k
F ree
ĠK re
Ġgame play
Ġhop ed
Ġadopt ion
ĠPar am
Ġbul let
Ġs hed
Ġspok es
P rem
U k
ĠC ock
ĠR ee
ĠQu artet
Ġgod s
Ð Ĵ
ĠS pl
im i
Ġfe es
Ġa est
ĠIndust ries
ak ov
ĠJohn ston
Ġcompris ed
A z
re ens
as se
ĠC IA
ĠAdd itional
Ġm il
ĠAcc ount
ĠCraw ford
b est
ĠDr agons
ĠLeg al
haus en
Ġf atal
Ġk iss
Ġstand ings
ĠDat abase
clesiast ical
Ġt ables
Ġs ew
Ġd ish
Ġman or
Ġsol ve
ĠOther s
im ony
ĠTun is
ĠB ee
ĠM ant
ĠP all
ĠCom plete
Ġz ones
Ġreb els
C H
ĠD erek
che l
establ ished
k el
ĠPhil harm
Ġsy mm
Ð°Ð½Ð¸ Ñı
Ġread s
asc ar
Ġ184 7
ĠBeat les
ĠP ars
n ie
Ġ >
ĠC ord
ĠSc outs
w ill
ĠV ision
c ats
Ġ ~
Ġor ch
Ġair ing
ĠI z
ĠKrish na
ĠWol ver
ĠBut ter
est o
Ġun anim
Ġed iting
Ġmom ents
ĠUs ing
Cal ifornia
Ġg rain
Ġep ic
G et
Ġpre f
anc ement
ĠMan or
Ġbow l
A rab
Ġsc en
Pro v
Char acters
power ed
b red
Ġ18 37
Ã¸ r
ĠHun ting
Ġco ok
l ass
ut on
Ġab stract
ĠGeorg ian
Ġorient ation
l ies
ĠBe a
l io
st ore
ep pe
ĠEuro vision
Ġerr ors
Ġfurn iture
C op
Ġcollaps ed
us on
ĠEm ir
ĠTri p
ĠEx p
Ġh ull
ch ron
ell ar
ĠRe in
Ð¶ Ðµ
Ġmonitor ing
Ġan terior
Ġeduc ator
Ġn i
Ġam alg
ĠGriff in
Ġreview ed
ĠGen eva
Ġmechan ics
Ġwrest ler
ĠSouth west
ÃŃ ne
Ġhom osexual
Ġ184 9
ĠâĢ ł
Ġlov ed
it ative
Ġinc umbent
Ġc ass
Ġf inger
Ġf irms
ĠI stanbul
ĠD ee
Ġsl avery
ĠRecord ings
ĠW ake
up e
Ġcar ved
ĠMar ian
Ġstrateg ies
. ;
ĠE k
Ġconf ron
Ġ ).
ĠS ed
ual a
ĠĠĠĠ ĠĠ
ĠCar lo
Ne igh
ord ination
ah r
ĠSouth ampton
rit z
ĠMat hematics
Ġc ub
Ġannounc ement
ĠConf ederation
ĠÐºÐ¾ÑĤÐ¾ ÑĢÑĭ
Ġex terior
ĠMc D
ĠHol ocaust
al ter
Ġra bb
H ot
+ +
Ġdepos its
ĠKle in
S ide
on ing
Ġs its
190 3
F ellows
Ġsuper hero
æ °
ind s
å ¿
ĠMon roe
ĠBron cos
e ur
ĠC ul
ĠH oll
Ġback ed
Ġemer ging
od or
Ġalg un
Ro ad
ĠJerem y
ĠS as
ĠL ap
ĠBra h
Ġsail ing
d ate
Ġm arsh
od ing
ĠU FC
Ġcle ared
ĠV ij
Ð ¡
Ġin clusion
Ġl ac
Ġelect ro
Ġabb ey
L uc
g art
Ġorche str
Ġ ion
ĠV at
Ġse al
le igh
Ġsett ings
Ġgar rison
st en
Ġst int
Ġun expected
ace ous
Ar ts
omin ated
Ġtro phy
P ier
iv ided
ĠF eder
Ġhealth y
cha ft
ĠS ugar
Ġcomp anion
Ġair ports
Ã ®
ĠTh ames
ĠBas in
Ġc ock
Ġro okie
Ġcons piracy
ĠOb ama
Ġwe igh
SC O
W here
Ġto d
ev o
ĠApp eals
Ġsn ake
Ġfil ter
ĠInd igenous
You ng
Ãº s
Ġabsol ute
Ġt aste
Rep ublican
atern ity
S erb
Ġmass acre
m ile
Ġvol t
B ul
I ran
Ġte lev
Ġunder lying
fl ies
189 5
Ġdep ot
n is
Ġterror ist
Ġs unk
ĠH ack
é Ļ
ĠMalays ian
Ġth read
Ġaut onomous
Ġhand led
ott om
