{"<pad>":0,"<eos>":1,"<bos>":2,"<unk>":3,"<sep>":4,"!":5,"\"":6,"#":7,"$":8,"%":9,"&":10,"'":11,"(":12,")":13,"*":14,"+":15,",":16,"-":17,".":18,"/":19,"0":20,"1":21,"2":22,"3":23,"4":24,"5":25,"6":26,"7":27,"8":28,"9":29,":":30,";":31,"<":32,"=":33,">":34,"?":35,"@":36,"A":37,"B":38,"C":39,"D":40,"E":41,"F":42,"G":43,"H":44,"I":45,"J":46,"K":47,"L":48,"M":49,"N":50,"O":51,"P":52,"Q":53,"R":54,"S":55,"T":56,"U":57,"V":58,"W":59,"X":60,"Y":61,"Z":62,"[":63,"\\":64,"]":65,"^":66,"_":67,"`":68,"a":69,"b":70,"c":71,"d":72,"e":73,"f":74,"g":75,"h":76,"i":77,"j":78,"k":79,"l":80,"m":81,"n":82,"o":83,"p":84,"q":85,"r":86,"s":87,"t":88,"u":89,"v":90,"w":91,"x":92,"y":93,"z":94,"{":95,"|":96,"}":97,"~":98,"¡":99,"¢":100,"£":101,"¤":102,"¥":103,"¦":104,"§":105,"¨":106,"©":107,"ª":108,"«":109,"¬":110,"®":111,"¯":112,"°":113,"±":114,"²":115,"³":116,"´":117,"µ":118,"¶":119,"·":120,"¸":121,"¹":122,"º":123,"»":124,"¼":125,"½":126,"¾":127,"¿":128,"À":129,"Á":130,"Â":131,"Ã":132,"Ä":133,"Å":134,"Æ":135,"Ç":136,"È":137,"É":138,"Ê":139,"Ë":140,"Ì":141,"Í":142,"Î":143,"Ï":144,"Ð":145,"Ñ":146,"Ò":147,"Ó":148,"Ô":149,"Õ":150,"Ö":151,"×":152,"Ø":153,"Ù":154,"Ú":155,"Û":156,"Ü":157,"Ý":158,"Þ":159,"ß":160,"à":161,"á":162,"â":163,"ã":164,"ä":165,"å":166,"æ":167,"ç":168,"è":169,"é":170,"ê":171,"ë":172,"ì":173,"í":174,"î":175,"ï":176,"ð":177,"ñ":178,"ò":179,"ó":180,"ô":181,"õ":182,"ö":183,"÷":184,"ø":185,"ù":186,"ú":187,"û":188,"ü":189,"ý":190,"þ":191,"ÿ":192,"Ā":193,"ā":194,"Ă":195,"ă":196,"Ą":197,"ą":198,"Ć":199,"ć":200,"Ĉ":201,"ĉ":202,"Ċ":203,"ċ":204,"Č":205,"č":206,"Ď":207,"ď":208,"Đ":209,"đ":210,"Ē":211,"ē":212,"Ĕ":213,"ĕ":214,"Ė":215,"ė":216,"Ę":217,"ę":218,"Ě":219,"ě":220,"Ĝ":221,"ĝ":222,"Ğ":223,"ğ":224,"Ġ":225,"ġ":226,"Ģ":227,"ģ":228,"Ĥ":229,"ĥ":230,"Ħ":231,"ħ":232,"Ĩ":233,"ĩ":234,"Ī":235,"ī":236,"Ĭ":237,"ĭ":238,"Į":239,"į":240,"İ":241,"ı":242,"Ĳ":243,"ĳ":244,"Ĵ":245,"ĵ":246,"Ķ":247,"ķ":248,"ĸ":249,"Ĺ":250,"ĺ":251,"Ļ":252,"ļ":253,"Ľ":254,"ľ":255,"Ŀ":256,"ŀ":257,"Ł":258,"ł":259,"Ń":260,"Ġt":261,"he":262,"Ġa":263,"in":264,"er":265,"on":266,"Ġthe":267,"re":268,"an":269,"or":270,"en":271,"at":272,"Ġs":273,"Ġo":274,"ed":275,"is":276,"es":277,"al":278,"Ġw":279,"ar":280,"it":281,"Ġof":282,"nd":283,"Ġc":284,"Ġin":285,"Ġf":286,"Ġb":287,"Ġp":288,"ic":289,"as":290,"ing":291,"Ġand":292,"ion":293,"ro":294,"le":295,"ĠS":296,"Ġto":297,"Ġm":298,"Ġd":299,"ou":300,"ĠC":301,"ĠA":302,"il":303,"Ġh":304,"ent":305,"ĠT":306,"Ġ1":307,"am":308,"st":309,"el":310,"ĠM":311,"om":312,"ol":313,"Ġ(":314,"Ġre":315,"Ġl":316,"ac":317,"ĠB":318,"ad":319,"ur":320,"ĠP":321,"et":322,"ec":323,"Ġn":324,"iv":325,"ers":326,"ation":327,"ĠH":328,"ig":329,"Ġth":330,"ĠI":331,"Ġ2":332,"id":333,"Ġwas":334,"ir":335,"ot":336,"us":337,"Ġe":338,"ĠR":339,"ay":340,"im":341,"Ġfor":342,"ly":343,"Ġon":344,"ter":345,"Ġ19":346,"ĠD":347,"ĠL":348,"os":349,"Ġg":350,"ch":351,"Ġis":352,"ut":353,"un":354,"ĠF":355,"ow":356,"em":357,"Ġas":358,"ist":359,"ĠG":360,"ĠThe":361,"ith":362,"ĠN":363,"ĠW":364,"th":365,"Ġst":366,"00":367,"her":368,"and":369,"ct":370,"ul":371,"ag":372,"ce":373,"Ġwith":374,"âĢ":375,"Ġal":376,"ĠE":377,"Ġby":378,"um":379,"ĠJ":380,"'s":381,"ra":382,"ver":383,"rom":384,"Ġbe":385,"op":386,"est":387,"Ġat":388,"Ġwh":389,"Ġan":390,"ri":391,"Ġcon":392,"âĢĵ":393,"ĠO":394,"oc":395,"Ġhe":396,"Ġv":397,"Ġfrom":398,"od":399,"Ġ\"":400,"Ġthat":401,"ain":402,"all":403,"ab":404,"ian":405,"ĠK":406,"av":407,"Ġcom":408,"ity":409,"res":410,"ts":411,"Ġde":412,"Ġpro":413,"ies":414,"if":415,"ate":416,"ia":417,"ĠU":418,"ew":419,"ill":420,"up":421,"ber":422,"Ġit":423,"ud":424,"ard":425,"art":426,"ĠSt":427,"19":428,"igh":429,"ak":430,"Ġpl":431,"qu":432,"ub":433,"ip":434,"ap":435,"Ġor":436,"Ġhis":437,"ort":438,"ear":439,"ore":440,"ich":441,"Ġr":442,"ĠĊ":443,"ld":444,"ess":445,"Ġ200":446,"ov":447,"The":448,"ated":449,"Ġare":450,"ĠIn":451,"Ġ20":452,"our":453,"ish":454,"ary":455,"ment":456,"ug":457,"mer":458,"ive":459,"ong":460,"Ġch":461,"ĠCh":462,"end":463,"nt":464,"ial":465,"og":466,"Ġex":467,"ant":468,"ĠV":469,"ge":470,"Ġse":471,"se":472,"ast":473,"ks":474,"ine":475,"ell":476,"und":477,"ere":478,"Ġy":479,"ust":480,"ame":481,"fer":482,"ord":483,"uc":484,"ran":485,"so":486,"ep":487,"ect":488,"ure":489,"ire":490,"ost":491,"),":492,"Ġle":493,"Ġwere":494,"ue":495,"ions":496,"ical":497,"enc":498,"ĠâĢĵ":499,"Ġsp":500,"Ġwhich":501,"ack":502,"tern":503,"ie":504,"Ġalso":505,"ther":506,"Ġcomp":507,"Ġsh":508,"Ġun":509,"are":510,"ĠHe":511,"ĠUn":512,"Ġk":513,"rit":514,"age":515,"Ġplay":516,"pp":517,"ry":518,"ign":519,"ff":520,"ass":521,"Ġ201":522,"ric":523,"ight":524,"cl":525,"ous":526,"irst":527,"ĠĠ":528,"ide":529,"man":530,"Ġcl":531,"iz":532,"ork":533,"ond":534,"eos":535,"Ġnot":536,"ĠY":537,"Ġar":538,"per":539,"ave":540,"ations":541,"land":542,"ory":543,"erv":544,"Ġ3":545,"Ġus":546,"hed":547,"Ġhad":548,"Ġhas":549,"ang":550,"ok":551,"own":552,"ount":553,"Ġ199":554,"Ġ18":555,"ome":556,"ational":557,"ng":558,"Ġwhe":559,"amp":560,"ool":561,"Ġfirst":562,"act":563,"Ġro":564,"Ġcont":565,"Ġres":566,"ican":567,"fter":568,"ice":569,"Ġint":570,"ach":571,"ey":572,"orn":573,"ater":574,"ember":575,"ĠIt":576,"ib":577,"out":578,"ĠTh":579,"ĠÐ":580,"wo":581,"ĠAl":582,"Ġad":583,"In":584,"Ġte":585,"uct":586,"ition":587,"ult":588,"ime":589,"ph":590,"Ġj":591,"Ġtheir":592,"Ġits":593,"ens":594,"Ġab":595,"ence":596,"ree":597,"pl":598,"ee":599,"ates":600,"Ġwho":601,"ited":602,"port":603,"ik":604,"chool":605,"lect":606,"ace":607,"20":608,"ences":609,").":610,"Ġbut":611,"ound":612,"aw":613,"ĠAr":614,"ath":615,"ark":616,"low":617,"merican":618,"Ġac":619,"Ġone":620,"Ġapp":621,"Ġpart":622,"Ġ-":623,"eg":624,"Ġyear":625,"ugh":626,"clud":627,"Ġman":628,"ubl":629,"pt":630,"ite":631,"ould":632,"Ġrec":633,"ally":634,"ild":635,"ors":636,"ile":637,"Ð¾":638,"eop":639,"ilm":640,"over":641,"for":642,"Ġher":643,"iss":644,"wn":645,"ents":646,"Ġper":647,"ivers":648,"les":649,"Ġag":650,"Ġhave":651,"eb":652,"ĠNew":653,"Ġthis":654,"Re":655,"ress":656,"io":657,"ade":658,"eople":659,"hn":660,"oy":661,"Ġ4":662,"Ġbec":663,"uring":664,"Ġen":665,"Ġsc":666,"Ġ198":667,"old":668,"Ġinclud":669,"Ġtwo":670,"ferences":671,"ob":672,"ased":673,"ons":674,"te":675,"ind":676,"oot":677,"Ġ|":678,"ĠMar":679,"vel":680,"oin":681,"Ġother":682,"urn":683,"uch":684,"gh":685,"ail":686,"Ġdes":687,"ward":688,"als":689,"Ġim":690,"hip":691,"able":692,"References":693,"ings":694,"ied":695,"ss":696,"Ġdis":697,"Ġbeen":698,"ĠCom":699,"Ðµ":700,"Ġcomm":701,"Ġafter":702,"way":703,"Ġact":704,"ely":705,"we":706,"ball":707,"ted":708,"ics":709,"Ġup":710,"ood":711,"Ġ5":712,"Ġ197":713,"ton":714,"red":715,"Ġcan":716,"Ġpr":717,"200":718,"ury":719,"ished":720,"outh":721,"Ġlin":722,"Ġnew":723,"Ġ||":724,"Ġoff":725,"ance":726,"Ġover":727,"ft":728,"Ġout":729,"orld":730,"ram":731,"ral":732,"ren":733,"ex":734,"Âł":735,"ase":736,"ont":737,"Ġthey":738,"one":739,"Ġfilm":740,"Ð°":741,"Ġinto":742,"pe":743,"Ġqu":744,"ĠAmerican":745,"gan":746,"ah":747,"ough":748,"ision":749,"Ġtr":750,"ĠLe":751,"Ġev":752,"ans":753,"Ġund":754,"ÑĤ":755,"Ġserv":756,"Ġall":757,"Ġloc":758,"ames":759,"Ã©":760,"Ġpre":761,"Ex":762,"orth":763,"ake":764,"inal":765,"duc":766,"ĠSh":767,"rans":768,"ock":769,"Ġgro":770,"iversity":771,"olog":772,"rough":773,"Ð¸":774,"Ġatt":775,"ick":776,"Ġcol":777,"Ġtime":778,"ict":779,"ale":780,"anc":781,"Ġ196":782,"ose":783,"Ġwork":784,"Ġkn":785,"form":786,"18":787,"ternal":788,"ever":789,"cess":790,"Ġpeople":791,"ĠCol":792,"Ġhim":793,"ason":794,"Ġsec":795,"ĠUnited":796,"ious":797,"Ġest":798,"ĠSp":799,"rib":800,"ists":801,"ix":802,"ities":803,"iel":804,"ener":805,"az":806,"Ġbu":807,"ne":808,"ll":809,"Ġbet":810,"Ġcons":811,"reat":812,"ins":813,"Ġshe":814,"cent":815,"Ġunder":816,"Ġwhen":817,"ev":818,"eat":819,"ootball":820,"Ġ6":821,"oun":822,"Ġreg":823,"aj":824,"Ġlinks":825,"ince":826,"Ġmore":827,"ĠJo":828,"Ġco":829,"bum":830,"Ġind":831,"ier":832,"inn":833,"ann":834,"ollow":835,"Ġcent":836,"che":837,"uary":838,"Ġwould":839,"External":840,"ife":841,"ween":842,"ular":843,"ĠInd":844,"Ġpubl":845,"att":846,"oth":847,"ual":848,"Ġpol":849,"ĠZ":850,"Ġform":851,"Ġyears":852,"Ġret":853,"use":854,"Ġteam":855,"usic":856,"Ġass":857,"oci":858,"Ġbo":859,"ĠPro":860,"abl":861,"Ġstud":862,"Ġonly":863,"ily":864,"str":865,"der":866,"irect":867,"Ġagain":868,"ident":869,"Ġabout":870,"Ġschool":871,"Ġmost":872,"ĠUniversity":873,"ĠSc":874,"Ġwhere":875,"Ġduring":876,"Ġsup":877,"ĠCl":878,"Ð¾Ð":879,"emb":880,"Ġsub":881,"ĠEng":882,"eries":883,"Ġrel":884,"any":885,"Ġbetween":886,"Ġsy":887,"Ġplayers":888,"ley":889,"Ġme":890,"Ġ7":891,"raph":892,"air":893,"Ġused":894,"enn":895,"ĠAn":896,"duct":897,"Ġpop":898,"Ñģ":899,"Ġinter":900,"ional":901,"Ġalbum":902,"ement":903,"Ġdec":904,"Ġear":905,"ague":906,"istory":907,"Ġthrough":908,"ative":909,"Ġrele":910,"round":911,"resent":912,"Ġdist":913,"ific":914,"Ġrem":915,"ĠStates":916,"fore":917,"Ġthere":918,"Ġ194":919,"Ġ195":920,"pr":921,"Ġthree":922,"ars":923,"Ġso":924,"Ġtra":925,"ĠThis":926,"ash":927,"Ġnum":928,"ina":929,"overn":930,"hen":931,"Ġed":932,"Ð½":933,"Ġfound":934,"Ġfollow":935,"ouse":936,"Ġthem":937,"ober":938,"ten":939,"ield":940,"erm":941,"erson":942,"Ġsing":943,"199":944,"por":945,"Ġthen":946,"ÑĢ":947,"Ġend":948,"Ġlater":949,"ĠBr":950,"iver":951,"Ġra":952,"pen":953,"ating":954,"Ġmov":955,"\",":956,"Ġrecord":957,"Ġwrit":958,"\".":959,"arg":960,"ĠSchool":961,"Ġent":962,"Ġtrans":963,"ĠIs":964,"Ġsuch":965,"iam":966,"Ġmade":967,"ern":968,"ert":969,"Ġam":970,"Ġ8":971,"Ġprov":972,"els":973,"Ġsecond":974,"oss":975,"Ġsome":976,"erman":977,"Ġspec":978,"Ġthan":979,"ĠĠĠĠ":980,"Ġknown":981,"cc":982,"Ġset":983,"ank":984,"ĠCount":985,"ures":986,"ve":987,"Ġseason":988,"velop":989,"Ġart":990,"ike":991,".\"":992,"ism":993,"lev":994,"ĠAs":995,"ograph":996,"Ġinv":997,"its":998,"Ġdef":999,"ower":1000,"Ġdo":1001,"ĠJohn":1002,"ĠAust":1003,"ĠBl":1004,"Ġelect":1005,"ept":1006,"Ġfootball":1007,"rict":1008,"ĠWar":1009,"ĠWorld":1010,"Ġbecame":1011,"Ġestabl":1012,"mp":1013,"itt":1014,"ments":1015,"Ġsong":1016,"ived":1017,"Ġ17":1018,"Ġbeing":1019,"ĠQ":1020,"ines":1021,"Ġdirect":1022,"Ġ9":1023,"Ġexp":1024,"ĠCar":1025,"iew":1026,"Ġpar":1027,"Ġ&":1028,"other":1029,"une":1030,"Ġcall":1031,"ĠFran":1032,"Ġla":1033,"Ġfl":1034,"Ġ10":1035,"âĢĶ":1036,"Ġstr":1037,"uss":1038,"ĠCon":1039,"let":1040,"Ġbl":1041,"Ġwell":1042,"ĠCan":1043,"ise":1044,"Ġfam":1045,"iving":1046,"Ġph":1047,"ays":1048,"ute":1049,"Ġmon":1050,"uro":1051,"urch":1052,"Ġchar":1053,"ces":1054,"stem":1055,"stit":1056,"ron":1057,"son":1058,"ĠPh":1059,"ĠShe":1060,"ax":1061,"ĠComm":1062,"Ġfour":1063,"ĠBrit":1064,"very":1065,"Ġseries":1066,"Ġmed":1067,"ient":1068,"ounc":1069,"Ġgr":1070,"Ġno":1071,"Ġacc":1072,"ef":1073,"Ġhigh":1074,"ull":1075,"Ġmod":1076,"Ġincluding":1077,"til":1078,"ĠYork":1079,"by":1080,"Ġinc":1081,"ĠNational":1082,"Ġyou":1083,"ĠOr":1084,"icip":1085,"owever":1086,"Ġwhile":1087,"ths":1088,"Ġadd":1089,"Ġgo":1090,"Ġbir":1091,"Ġmany":1092,"Ġlead":1093,"Ġgroup":1094,"Ġorig":1095,"Ġoper":1096,"ty":1097,"Ġsign":1098,"Ġmay":1099,"elf":1100,"Ġbefore":1101,"ai":1102,"Ã¡":1103,"ternational":1104,"ues":1105,"ĠAd":1106,"ĠAt":1107,"Ġ193":1108,"gram":1109,"ĠFor":1110,"ired":1111,"ural":1112,"ather":1113,"ĠPr":1114,"000":1115,"Ġbro":1116,"Ġ15":1117,"Ġagainst":1118,"ĠPl":1119,"Ġown":1120,"ĠOn":1121,"Ġsur":1122,"ĠCounty":1123,"amed":1124,"ĠMay":1125,"ulation":1126,"eth":1127,"ĠJan":1128,"Ġcount":1129,"Ġshow":1130,"Ġname":1131,"Ġgu":1132,"Ġback":1133,"ica":1134,"201":1135,"21":1136,"Ġuntil":1137,"ians":1138,"Ġem":1139,"Ġmain":1140,"ject":1141,"Ġ16":1142,"ution":1143,"ives":1144,"my":1145,"ĠSouth":1146,"Ġ2006":1147,"eng":1148,"arri":1149,"Ġnumber":1150,"Ġdevelop":1151,"uk":1152,"Ġcap":1153,"ampions":1154,"Ġdif":1155,"Ġfin":1156,"198":1157,"Ġboth":1158,"Ġcre":1159,"ium":1160,"ys":1161,"Ġcare":1162,"Ġarea":1163,"rist":1164,"ets":1165,"Ġmusic":1166,"lish":1167,"ĠGerman":1168,"Ã³":1169,"Ġmin":1170,"ott":1171,"Ġdr":1172,"Ġgener":1173,"Ġformer":1174,"born":1175,"ĠAustral":1176,"Ġdeath":1177,"Ġ12":1178,"Ġoffic":1179,"uth":1180,"Ġ.":1181,"Ġne":1182,"Ġrep":1183,"ology":1184,"Ġsever":1185,"ross":1186,"lege":1187,"Ġbuild":1188,"ĠWh":1189,"yl":1190,"Ġplayed":1191,"ized":1192,"ĠJu":1193,"Ġvar":1194,"sp":1195,"hes":1196,"Ġrece":1197,"ually":1198,"imes":1199,"ages":1200,"Ġgame":1201,"ajor":1202,"ister":1203,"Ġopen":1204,"Ġsm":1205,"ugust":1206,"ĠCent":1207,"Ġfeat":1208,"embers":1209,"oman":1210,"duced":1211,"ior":1212,"Ġext":1213,"ple":1214,"overnment":1215,"ĠNov":1216,"ĠCity":1217,"ved":1218,"ĠPar":1219,"Ġrun":1220,"ered":1221,"led":1222,"ove":1223,"Ġsystem":1224,"Ġdesign":1225,"ada":1226,"Ġreleased":1227,"inc":1228,"ared":1229,"omen":1230,"Ġob":1231,"ĠLeague":1232,"ained":1233,"iet":1234,"isc":1235,"Ġstate":1236,"ause":1237,"ĠDec":1238,"ĠBro":1239,"St":1240,"ĠGe":1241,"fess":1242,"ued":1243,"eptember":1244,"ook":1245,"ĠNorth":1246,"Ġ'":1247,"Ch":1248,"ĠBritish":1249,"aid":1250,"osed":1251,"Ġwill":1252,"Ġwon":1253,"ission":1254,"sh":1255,"Ġprogram":1256,"ret":1257,"Ġlong":1258,"ird":1259,"levision":1260,"Ġtown":1261,"amb":1262,"rid":1263,"ible":1264,"ital":1265,"Ġreturn":1266,"eter":1267,"ÃŃ":1268,"ĠCal":1269,"ĠDe":1270,"197":1271,"Ġcalled":1272,"ange":1273,"vent":1274,"Ġstation":1275,"arm":1276,"rent":1277,"ctober":1278,"istor":1279,"ven":1280,"ĠAugust":1281,"Ġdep":1282,"Ġpolit":1283,"ĠGu":1284,"Ġsame":1285,"ilt":1286,"Ġcontin":1287,"Ġann":1288,"ĠEd":1289,"See":1290,"Ġseveral":1291,"ality":1292,"Ġorgan":1293,"ility":1294,"ful":1295,"Ġlife":1296,"Ġair":1297,"Ġmat":1298,"aking":1299,"Ġclub":1300,"wards":1301,"ĠBar":1302,"ĠAll":1303,"American":1304,"ĠKing":1305,"struct":1306,"ham":1307,"ĠSeptember":1308,"ĠAss":1309,"au":1310,"Ġsuc":1311,"ner":1312,"Ġfollowing":1313,"ris":1314,"ĠMarch":1315,"Ġbas":1316,"ĠEuro":1317,"Ġany":1318,"ĠII":1319,"Ġpublic":1320,"af":1321,"ĠMan":1322,"pril":1323,"ony":1324,"ampionship":1325,"Ġ13":1326,"10":1327,"oint":1328,"ĠBe":1329,"ring":1330,"Ġuse":1331,"ography":1332,"Ġthese":1333,"ially":1334,"Ġcur":1335,"Ġstart":1336,"ĠJune":1337,"Ġel":1338,"fl":1339,"Ġearly":1340,"century":1341,"à¸":1342,"ains":1343,"Ġnear":1344,"angu":1345,"ĠGr":1346,"17":1347,"ung":1348,"ĠOctober":1349,"ured":1350,"Ġdisc":1351,"ĠJanuary":1352,"ales":1353,"ices":1354,"Ġclass":1355,"ĠAm":1356,"ĠJuly":1357,"apan":1358,"Ġbel":1359,"Ġband":1360,"Ð»":1361,"ĠHigh":1362,"Ġcommun":1363,"ster":1364,"ĠCo":1365,"the":1366,"ebr":1367,"ling":1368,"ĠUS":1369,"Ġresp":1370,"Ġwe":1371,"ĠState":1372,"Ġcareer":1373,"Ġ14":1374,"Ġpass":1375,"Ġchild":1376,"reen":1377,"Ġfamily":1378,"ilit":1379,"com":1380,"Ġcomple":1381,"Ġhead":1382,"ided":1383,"ience":1384,"ke":1385,"cept":1386,"On":1387,"echn":1388,"rop":1389,"ĠRe":1390,"Ġsim":1391,"Ġpopulation":1392,"ĠThey":1393,"Ġcity":1394,"ĠWill":1395,"min":1396,"ator":1397,"ĠFl":1398,"ode":1399,"ants":1400,"ese":1401,"ĠApril":1402,"Ġ2007":1403,"ane":1404,"ĠPol":1405,"Ġpres":1406,"Ġsince":1407,"ĠReg":1408,"yn":1409,"Ġeff":1410,"ically":1411,"orks":1412,"Ġvers":1413,"Ġlist":1414,"..":1415,"Ġtit":1416,"orts":1417,"to":1418,"Ġbased":1419,"ck":1420,"Ġalong":1421,"ille":1422,"Ġgames":1423,"Ġappear":1424,"Ġ11":1425,"ended":1426,"ĠRep":1427,"Ġmen":1428,"Ġes":1429,"ĠDecember":1430,"Ġland":1431,"ised":1432,"ĠNovember":1433,"ects":1434,"ĠTr":1435,"onom":1436,"ĠSw":1437,"orm":1438,"ox":1439,"ection":1440,"ĠWest":1441,"22":1442,"ĠâĢĶ":1443,"Ġsmall":1444,"ĠHar":1445,"ĠEnglish":1446,"ords":1447,"Ġestablished":1448,"aced":1449,"Ġnamed":1450,"Ġproduct":1451,"aster":1452,"ĠChrist":1453,"Ġlocated":1454,"Ġeach":1455,"uck":1456,"Ġimp":1457,"ĠEx":1458,"Ġperson":1459,"Ġdesc":1460,"Ġmembers":1461,"Ġprom":1462,"acks":1463,"ival":1464,"Ġbegan":1465,"ights":1466,"unicip":1467,"Ġeng":1468,"Ġvill":1469,"iness":1470,"ĠAfter":1471,"que":1472,"ech":1473,"ble":1474,"Ġdid":1475,"ĠAf":1476,"ĠEurope":1477,"ĠRec":1478,"ata":1479,"aving":1480,"Ġbirths":1481,"196":1482,"erg":1483,"Ġhel":1484,"Ġbus":1485,"Ġocc":1486,"ĠRo":1487,"ats":1488,"ebruary":1489,"Ġcar":1490,"ĠMc":1491,"Ġmanag":1492,"Ġsupport":1493,"Ġmet":1494,"ĠHis":1495,"ford":1496,"ae":1497,"row":1498,"augh":1499,"ĠAnd":1500,"ĠGeor":1501,"Ġcentury":1502,"ored":1503,"me":1504,"ene":1505,"rench":1506,"ting":1507,"ards":1508,"Ġ2005":1509,"ract":1510,"Ġplace":1511,"Ñĥ":1512,"side":1513,"Ġmajor":1514,"Ġcould":1515,"Ġdiffer":1516,"ino":1517,"Ġhome":1518,"ĠJapan":1519,"Ġrev":1520,"Ġworld":1521,"Ġcompet":1522,"Ġterm":1523,"Ġfilms":1524,"urg":1525,"itions":1526,"Ġ2008":1527,"Ġsingle":1528,"arn":1529,"arge":1530,"Ðº":1531,"lin":1532,"alth":1533,"ourn":1534,"ĠCollege":1535,"ĠNo":1536,"adem":1537,"Ġlaw":1538,"yp":1539,"Ġnow":1540,"rew":1541,"Ġsuccess":1542,"ides":1543,"aces":1544,"Ġpo":1545,"ĠEl":1546,"rol":1547,"Ġnational":1548,"ery":1549,"Ġgovernment":1550,"Ġlocal":1551,"ĠCup":1552,"Ġtelevision":1553,"16":1554,"15":1555,"Ġaround":1556,"ĠFebruary":1557,"aul":1558,"ĠPark":1559,"Ġpos":1560,"ald":1561,"ĠAb":1562,"earch":1563,"Th":1564,"ondon":1565,"ivision":1566,"ety":1567,"unct":1568,"ĠAir":1569,"ĠHowever":1570,"ket":1571,"ffic":1572,"ĠComp":1573,"Ġline":1574,"Ġcompany":1575,"He":1576,"lymp":1577,"med":1578,"Ġmember":1579,"Ġbuilt":1580,"Ġold":1581,"idd":1582,"oo":1583,"ĠMin":1584,"ature":1585,"ĠSe":1586,"Al":1587,"atic":1588,"12":1589,"Ġlast":1590,"Ġrest":1591,"Ġleg":1592,"ana":1593,"Ġref":1594,"Ġcr":1595,"ps":1596,"Ġplayer":1597,"reet":1598,"acter":1599,"akes":1600,"ately":1601,"tt":1602,"Ġ2004":1603,"estern":1604,"sc":1605,"Ġdue":1606,"ublic":1607,"uthor":1608,"ociation":1609,"Ġpublished":1610,"adio":1611,"Ġnorth":1612,"Ġtook":1613,"ourt":1614,"Ġheld":1615,"ĠX":1616,"ara":1617,"Ġleft":1618,"Ġ2010":1619,"illion":1620,"ext":1621,"Ġep":1622,"Ġsu":1623,"ĠSy":1624,"ches":1625,"yle":1626,"ently":1627,"Ġ192":1628,"Ġ2009":1629,"ison":1630,"int":1631,"Ġfinal":1632,"aus":1633,"Ġdet":1634,"Ġrequ":1635,"ĠTe":1636,"iter":1637,"ĠLondon":1638,"âĢĻ":1639,"Ġjoin":1640,"Ġeduc":1641,"Ġdown":1642,"ideo":1643,"Ġserved":1644,"ĠMed":1645,"ĠItal":1646,"ington":1647,"eder":1648,"anguage":1649,"ified":1650,"ĠDist":1651,"iven":1652,"Ġevent":1653,"ĠDav":1654,"Ġrefer":1655,"Ġcamp":1656,"co":1657,"Ġconsid":1658,"alk":1659,"ĠHer":1660,"Ġav":1661,"day":1662,"ĠPart":1663,"Ġprofess":1664,"ilitary":1665,"ped":1666,"Ġbecause":1667,"though":1668,"ĠChar":1669,"Ġif":1670,"Ġdeb":1671,"Ġ2011":1672,"Ġinclude":1673,"Ġ2000":1674,"iod":1675,"Ġhistory":1676,"Ġshort":1677,"Ġpresent":1678,"ĠWilliam":1679,"ĠAng":1680,"ief":1681,"ration":1682,"ink":1683,"aim":1684,"ency":1685,"Ġlike":1686,"Ñı":1687,"Ġdel":1688,"Ġ190":1689,"Ġson":1690,"Ġ,":1691,"ody":1692,"omin":1693,"50":1694,"ined":1695,"Ġday":1696,"History":1697,"umb":1698,"Ġlarge":1699,"ected":1700,"ording":1701,"Ġsix":1702,"Ñĭ":1703,"Ġallow":1704,"ĠLa":1705,"par":1706,"Ġtri":1707,"ument":1708,"ization":1709,"urs":1710,"Ġappro":1711,"ĠAfric":1712,"vers":1713,"Ġborn":1714,"ĠCor":1715,"Ġpower":1716,"ones":1717,"ĠSec":1718,"Ġjust":1719,"ĠFrench":1720,"Ġorder":1721,"Ġfive":1722,"Ã¼":1723,"uman":1724,"|-":1725,"ĠThere":1726,"iforn":1727,"ĠRuss":1728,"ĠDr":1729,"ĠSup":1730,"raft":1731,"line":1732,"Ġsl":1733,"ler":1734,"Ġdifferent":1735,"tal":1736,"14":1737,"ĠEn":1738,"ze":1739,"umn":1740,"riend":1741,"ĠPhil":1742,"13":1743,"Ġresult":1744,"Ã³n":1745,"Ġoriginal":1746,"ifornia":1747,"Ġlarg":1748,"Ġmark":1749,"ĠChampionship":1750,"ummer":1751,"Ġincluded":1752,"omb":1753,"ĠYou":1754,"Ġfr":1755,"Ġwomen":1756,"inning":1757,"Ð¼":1758,"itar":1759,"reg":1760,"Ġsk":1761,"ively":1762,"ouncil":1763,"Ġwithin":1764,"Ġdem":1765,"leg":1766,"Ġreceived":1767,"urther":1768,"aint":1769,"Ġrepl":1770,"Ġanother":1771,"arried":1772,"Ġstand":1773,"ĠRiver":1774,"ste":1775,"Ġtop":1776,"sk":1777,"ves":1778,"tain":1779,"Ġ2003":1780,"ness":1781,"ĠMe":1782,"Ġbook":1783,"ĠHouse":1784,"Ġvillage":1785,"ÑĮ":1786,"Ġdied":1787,"ĠEngland":1788,"Ġstill":1789,"Ġsouth":1790,"Ġsaid":1791,"Ġcor":1792,"ĠSan":1793,"hem":1794,"Ġprot":1795,"Ġ$":1796,"ether":1797,"ĠAustralia":1798,"Ġdistrict":1799,"Ġthird":1800,"ico":1801,"itional":1802,"Ġnon":1803,"na":1804,"Ġcurrent":1805,"Ġ30":1806,"Ġadv":1807,"ĠGl":1808,"ĠCalifornia":1809,"eek":1810,"ours":1811,"Ġperform":1812,"Ġmunicip":1813,"adian":1814,"vious":1815,"ocial":1816,"hern":1817,".,":1818,"ĠMich":1819,"oph":1820,"Ġwater":1821,"oon":1822,"Ġcharacter":1823,"Ġchildren":1824,"Ġvery":1825,"Ġequ":1826,"Ġbuilding":1827,"Ġfac":1828,"ering":1829,"Ġque":1830,"ĠIndian":1831,"Ġwar":1832,"Ġimport":1833,"Ġvis":1834,"Ġnov":1835,"Ġhand":1836,"Ġbest":1837,"ĠAct":1838,"Ġ2002":1839,"Ġfield":1840,"194":1841,"Ġkill":1842,"Ġ2001":1843,"ĠRes":1844,"Ġtrad":1845,"Ġ189":1846,"Ġrepresent":1847,"oll":1848,"Ð²":1849,"ett":1850,"Ġ2012":1851,"Ġoften":1852,"ĠAc":1853,"ms":1854,"Ġexper":1855,"Ġperiod":1856,"ĠOlymp":1857,"alt":1858,"ĠAg":1859,"23":1860,"Ġversion":1861,"Ġpost":1862,"Ġweb":1863,"dom":1864,"Ġ0":1865,"Ġservice":1866,"Ġdescrib":1867,"osp":1868,"bo":1869,"Ġiss":1870,"Ġmale":1871,"Ġincre":1872,"ady":1873,"Ġmake":1874,"lands":1875,"ĠInternational":1876,"epend":1877,"ize":1878,"ugg":1879,"ĠDistrict":1880,"Ġsol":1881,"acy":1882,"orthern":1883,"195":1884,"Ġbeg":1885,"rain":1886,"alf":1887,"Ġopp":1888,"Ġbusiness":1889,"ĠEast":1890,"Ġconc":1891,"ĠSch":1892,"Ġval":1893,"Ġhouse":1894,"Un":1895,"Ġreport":1896,"Ġsold":1897,"Ġthough":1898,"work":1899,"ĠArt":1900,"Ġturn":1901,"eal":1902,"Ġstat":1903,"rest":1904,"Ġstudents":1905,"Ġec":1906,"Ġconstruct":1907,"eneral":1908,"Ġeven":1909,"artment":1910,"Ġ25":1911,"uel":1912,"ĠPer":1913,"Ġauthor":1914,"Ġpat":1915,"oyal":1916,"ĠCanada":1917,"Ġside":1918,"Ġexpl":1919,"Ġarch":1920,"Ġwhat":1921,"Ġmuch":1922,"ĠMon":1923,"ense":1924,"Ġfe":1925,"ops":1926,"Ġmoved":1927,"ĠChurch":1928,"ael":1929,"Ġcountry":1930,"Ġposs":1931,"Ġorigin":1932,"irl":1933,"attle":1934,"Ġled":1935,"app":1936,"ploy":1937,"Ġcollect":1938,"Ġcult":1939,"ecut":1940,"Ġestablish":1941,"Ġspe":1942,"aff":1943,"ories":1944,"Ġtechn":1945,"ĠPres":1946,"field":1947,"Ġhistor":1948,"ases":1949,"Ġcover":1950,"Ġaff":1951,"ades":1952,"formation":1953,"ribut":1954,"ilar":1955,"ĠAward":1956,"ociety":1957,"ĠGro":1958,"Ġchang":1959,"Ġproduced":1960,"Ġtitle":1961,"omp":1962,"Ġwin":1963,"'t":1964,"Ġmag":1965,"ript":1966,"ries":1967,"193":1968,"Ġtem":1969,"Ġport":1970,"Ġcrit":1971,"cast":1972,"Ġlate":1973,"Ġthose":1974,"ius":1975,"hel":1976,"Ġbr":1977,"11":1978,"Ġfact":1979,"ĠBo":1980,"Ġlevel":1981,"Ġsite":1982,"useum":1983,"Ġwritten":1984,"Ġactiv":1985,"Ġ2013":1986,"site":1987,"ivil":1988,"ush":1989,"avy":1990,"era":1991,"Ġinvol":1992,"lex":1993,"Ġfather":1994,"ote":1995,"iber":1996,"ney":1997,"Ġepis":1998,"Ar":1999,"Ġship":2000,"ivid":2001,"Ġ24":2002,"Ġfore":2003,"Ġbre":2004,"ĠStreet":2005,"ama":2006,"Ġannounc":2007,"Ġcommon":2008,"Ġcame":2009,"Ġrole":2010,"Ġamong":2011,"Ġpopular":2012,"ĠAmer":2013,"Ġusing":2014,"Ġtrain":2015,"olic":2016,"ament":2017,"Ġvoc":2018,"Ġengine":2019,"ape":2020,"of":2021,"ander":2022,"ridge":2023,"ida":2024,"ĠIndia":2025,"otes":2026,"People":2027,"Ġet":2028,"de":2029,"Ġ2014":2030,"ched":2031,"rem":2032,"ĠQu":2033,"irc":2034,"BC":2035,"ced":2036,"Ġprocess":2037,"Ġinternational":2038,"ĠOne":2039,"forman":2040,"ĠSm":2041,"ĠArmy":2042,"ĠRoman":2043,"ania":2044,"Ġ188":2045,"ville":2046,"Ġgiven":2047,"Ġfre":2048,"astern":2049,"Ġprevious":2050,"ning":2051,"Ġsw":2052,"off":2053,"Ġrail":2054,"thern":2055,"Ġ1999":2056,"ĠPort":2057,"Ġtotal":2058,"ĠRoad":2059,"Ġgeneral":2060,"omet":2061,"ka":2062,"Ġbecome":2063,"Ġsit":2064,"Ġyoung":2065,"ĠHol":2066,"Ġwent":2067,"ĠÐ¿":2068,"ado":2069,"ming":2070,"Ġprim":2071,"ĠEm":2072,"Ġway":2073,"Ġroad":2074,"ĠDep":2075,"outhern":2076,"ention":2077,"ago":2078,"Ġage":2079,"ĠVal":2080,"self":2081,"Ã¶":2082,"Ġneed":2083,"iment":2084,"Ġvarious":2085,"ha":2086,"Ġevery":2087,"itor":2088,"minist":2089,"adu":2090,"Ġvol":2091,"Ġcommunity":2092,"ĠÃ":2093,"Ġfew":2094,"ots":2095,"Ġopened":2096,"An":2097,"abor":2098,"Ġspecies":2099,"ĠBy":2100,"uf":2101,"ports":2102,"ĠĠĠ":2103,"ĠQue":2104,"Ġdeaths":2105,"ream":2106,"Ġprop":2107,"ances":2108,"ĠNor":2109,"Ġofficial":2110,"iction":2111,"ĠRober":2112,"Ġworks":2113,"Ġant":2114,"Ġintro":2115,"reek":2116,"ĠPaul":2117,"ĠRed":2118,"Ġnext":2119,"Ġexamp":2120,"ari":2121,"Ġstruct":2122,"Ġread":2123,"ournal":2124,"urb":2125,"Ġtw":2126,"Ġ1990":2127,"anish":2128,"Ġhost":2129,"Ġtake":2130,"ĠMor":2131,"ĠBel":2132,"ittle":2133,"Ġvideo":2134,"ĠLou":2135,"Ġ2015":2136,"lement":2137,"ĠRecords":2138,"Ġinit":2139,"Ġalbums":2140,"Ġhaving":2141,"Ġaward":2142,"Ġstarted":2143,"Ð´":2144,"ĠGeorge":2145,"ĠJames":2146,"aur":2147,"ĠâĢ":2148,"men":2149,"Ñĩ":2150,"bor":2151,"ĠDavid":2152,"bert":2153,"ÑģÑĤ":2154,"ĠRich":2155,"Ġspecial":2156,"Ġgreat":2157,"ĠAmerica":2158,"Ġmillion":2159,"Ġpe":2160,"Ġsent":2161,"li":2162,"ached":2163,"Ġ[":2164,"Ġ1998":2165,"ĠAustralian":2166,"ĠFrance":2167,"iron":2168,"Ġ2016":2169,"ĠAssociation":2170,"Ġdevelopment":2171,"lo":2172,"Ġcreated":2173,"eh":2174,"rote":2175,"Ġ186":2176,"Ġproduc":2177,"Ġconf":2178,"Ġstory":2179,"omm":2180,"Ġsongs":2181,"ĠParty":2182,"ole":2183,"Living":2184,"Ġproduction":2185,"itz":2186,"iÃ³n":2187,"Ġ23":2188,"Ġreturned":2189,"ĠPal":2190,"Ġ21":2191,"hers":2192,"ĠDes":2193,"Ġhig":2194,"ean":2195,"As":2196,"ogn":2197,"stitute":2198,"aken":2199,"raw":2200,"ipp":2201,"Ġtimes":2202,"Ġschools":2203,"Ġstar":2204,"Ġdebut":2205,"ests":2206,"oor":2207,"ĠHall":2208,"Ġclaim":2209,"Ġcoach":2210,"Ġbroad":2211,"Ġmult":2212,"Ġconn":2213,"Ġregion":2214,"ma":2215,"Ġter":2216,"Ġhowever":2217,"iddle":2218,"Ġguitar":2219,"Ġreal":2220,"ĠWhen":2221,"iles":2222,"olution":2223,"ĠRev":2224,"Ġcomb":2225,"Ġ22":2226,"ĠAnt":2227,"Ġhelp":2228,"ological":2229,"ellow":2230,"ĠMal":2231,"ources":2232,"Ġsimilar":2233,"sequ":2234,"gy":2235,"Ġmilitary":2236,"Ġfull":2237,"Ġsee":2238,"Ġbeh":2239,"Ġimportant":2240,"=\"":2241,"Ġfind":2242,"ĠDivision":2243,"Ġinfl":2244,"ope":2245,"iol":2246,"icle":2247,"Ġgl":2248,"ĠBas":2249,"Ġsett":2250,"Ġz":2251,"ĠCouncil":2252,"ators":2253,"Ġmy":2254,"Ġlo":2255,"ibr":2256,"Ġ1980":2257,"Ġ187":2258,"Ġcontrol":2259,"Ġpri":2260,"wood":2261,"Ġannounced":2262,"ĠMy":2263,"ination":2264,"ĠĠĠĠĠĠĠĠ":2265,"omas":2266,"ĠClub":2267,"Ġren":2268,"Ġ=":2269,"Ġfriend":2270,"ĠÐ²":2271,"Ġwithout":2272,"After":2273,"rack":2274,"Ġstyle":2275,"arly":2276,"Ġlim":2277,"Ġpract":2278,"mit":2279,"right":2280,"ya":2281,"now":2282,"less":2283,"ype":2284,"Ġred":2285,"ru":2286,"ĠCath":2287,"ĠStud":2288,"ĠThese":2289,"Ġperforman":2290,"rab":2291,"Ġround":2292,"ĠGermany":2293,"ĠUnion":2294,"Ġdi":2295,"erb":2296,"ĠDuring":2297,"Ġdest":2298,"ills":2299,"lic":2300,"atch":2301,"Ġchurch":2302,"iers":2303,"Ġjoined":2304,"ways":2305,"Ġpolitical":2306,"Ġ2017":2307,"berg":2308,"view":2309,"ĠEuropean":2310,"Ġfem":2311,"Ġposition":2312,"ĠRoyal":2313,"Ġappe":2314,"ĠGeneral":2315,"ashington":2316,"Ġareas":2317,"ells":2318,"Ġmarried":2319,"Ġenc":2320,"Ġattem":2321,"umni":2322,"Ġright":2323,"Pro":2324,"Ġpoint":2325,"gin":2326,"ocr":2327,"ĠCanadian":2328,"ĠBlack":2329,"ston":2330,"Ġwrote":2331,"Ġinf":2332,"ĠVir":2333,"Ġlanguage":2334,"arch":2335,"ĠKingdom":2336,"ij":2337,"Ġwebsite":2338,"Ġbrother":2339,"ĠMusic":2340,"ĠCompany":2341,"ule":2342,"anies":2343,"aining":2344,"etwork":2345,"year":2346,"ĠTex":2347,"Ġgen":2348,"Ġ26":2349,"):":2350,"rian":2351,"Ġindivid":2352,"icular":2353,"30":2354,"Ġ1996":2355,"cer":2356,"ground":2357,"ĠTown":2358,"Ġ2018":2359,"It":2360,"wh":2361,"raz":2362,"stitut":2363,"Ġ1997":2364,"ona":2365,"ĠMart":2366,"ither":2367,"play":2368,"gr":2369,"Ġident":2370,"Ġtrack":2371,"Ġrecorded":2372,"ĠBer":2373,"ĠPat":2374,"ĠTV":2375,"ointed":2376,"Ġconsidered":2377,"ĠPress":2378,"Ġshould":2379,"rick":2380,"Ġpolitic":2381,"uce":2382,"Ġleague":2383,"Ġcontinued":2384,"Ġeducation":2385,"ĠMag":2386,"Ġprofessional":2387,"Ġindust":2388,"Ġ27":2389,"Ġproject":2390,"atter":2391,"Ġaut":2392,"ray":2393,"Ġgood":2394,"Ġeast":2395,"roll":2396,"ili":2397,"Ġ28":2398,"Ġappeared":2399,"Ġget":2400,"Ġgroups":2401,"Ġattack":2402,"ending":2403,"Pl":2404,"ising":2405,"ĠÐ¸":2406,"oints":2407,"Ġworked":2408,"Ġtyp":2409,"eball":2410,"Ġproper":2411,"oks":2412,"Ġ/":2413,"ested":2414,"ĠRail":2415,"ĠSen":2416,"ishing":2417,"Ġcaus":2418,"xt":2419,"Ġnovel":2420,"uter":2421,"Ġ100":2422,"CA":2423,"Ġstations":2424,"reland":2425,"Ġrock":2426,"Ġdoes":2427,"Ġhuman":2428,"Ġlost":2429,"ults":2430,"ference":2431,"used":2432,"Ġoffer":2433,"ĠLaw":2434,"Ġcross":2435,"ĠPresident":2436,"ĠTur":2437,"Ġ1970":2438,"Ġhalf":2439,"val":2440,"ĠMary":2441,"arl":2442,"aughter":2443,"Ġlive":2444,"Ġevents":2445,"unction":2446,"thlet":2447,"ĠJos":2448,"Ġexample":2449,"ying":2450,"Ġdescribed":2451,"Ġeconom":2452,"han":2453,"Ġdays":2454,"nel":2455,"ĠSl":2456,"Ġdiv":2457,"hib":2458,"Ġteams":2459,"Ġhon":2460,"ĠMont":2461,"aged":2462,"ges":2463,"ketball":2464,"ĠDon":2465,"apt":2466,"ĠFootball":2467,"Ġmid":2468,"Ġpriv":2469,"ably":2470,"Ġfounded":2471,"Ġelection":2472,"ĠÑģ":2473,"Ġavail":2474,"Ġcompleted":2475,"Ġdirector":2476,"ĠIsland":2477,"ĠWe":2478,"ym":2479,"ĠBu":2480,"Ġ2019":2481,"Ġmatch":2482,"cy":2483,"ä¸":2484,"Cl":2485,"ertain":2486,"burg":2487,"ĠWith":2488,"ĠWashington":2489,"ship":2490,"ĠAngel":2491,"Ġten":2492,"ĠAcadem":2493,"Ġins":2494,"aper":2495,"ements":2496,"ĠGroup":2497,"ĠMo":2498,"pro":2499,"odes":2500,"Ġcond":2501,"Ġhold":2502,"25":2503,"ĠGreat":2504,"Ġservices":2505,"Ġless":2506,"Ġfurther":2507,"Ġexist":2508,"Ġmiss":2509,"Ġsqu":2510,"rd":2511,"rated":2512,"Ġder":2513,"Ġhow":2514,"Ġanim":2515,"ĠTexas":2516,"Ġlos":2517,"Wh":2518,"here":2519,"usical":2520,"Ġdeveloped":2521,"Ġinflu":2522,"Ġrelations":2523,"ĠFirst":2524,"Ġpresident":2525,"ĠCourt":2526,"Ġvict":2527,"lear":2528,"Ġbody":2529,"Ġmaking":2530,"ĠList":2531,"idence":2532,"ockey":2533,"Ġmot":2534,"Ġradio":2535,"ĠMount":2536,"Ġemploy":2537,"rish":2538,"ĠSing":2539,"Ġmater":2540,"rap":2541,"Ġsports":2542,"Ġplaying":2543,"atural":2544,"ĠNe":2545,"Ġview":2546,"ĠServ":2547,"ĠSim":2548,"ky":2549,"Ġ1995":2550,"ĠHen":2551,"Ġsigned":2552,"ccording":2553,"Ġsurv":2554,"most":2555,"anding":2556,"Ġsocial":2557,"Ġhimself":2558,"acing":2559,"ĠBay":2560,"time":2561,"Ġnever":2562,"ĠJew":2563,"Ġassist":2564,"ĠArch":2565,"ique":2566,"udd":2567,"Ġparticip":2568,"Ġaddition":2569,"olf":2570,"yd":2571,"Ġliter":2572,"ios":2573,"Ġ1994":2574,"alls":2575,"Ġwest":2576,"Ã¤":2577,"ĠRobert":2578,"ĠSociety":2579,"ĠSal":2580,"ani":2581,"olit":2582,"ump":2583,"ĠMac":2584,"ĠPri":2585,"ger":2586,"ĠJapanese":2587,"ware":2588,"align":2589,"Ġcase":2590,"Ġcast":2591,"aign":2592,"Ġ#":2593,"Ġser":2594,"Ġmodern":2595,"ĠMex":2596,"ume":2597,"Ġformed":2598,"ĠScott":2599,"ĠCenter":2600,"pec":2601,"ĠDem":2602,"ĠProv":2603,"Ġothers":2604,"Ġtro":2605,"col":2606,"go":2607,"uation":2608,"Ġparticular":2609,"unt":2610,"Ġrelease":2611,"Ġmunicipality":2612,"Ġgrow":2613,"itect":2614,"ensive":2615,"ĠItalian":2616,"mar":2617,"ilities":2618,"Ġ2020":2619,"Film":2620,"Ġselect":2621,"itive":2622,"Ġwife":2623,"ĠMad":2624,"iting":2625,"atre":2626,"iament":2627,"ĠLouis":2628,"Ġ1992":2629,"oice":2630,"Ġbecom":2631,"Ġsepar":2632,"ĠCatholic":2633,"âĢĿ":2634,"ĠMiss":2635,"Ġfail":2636,"ĠTrans":2637,"ï¼":2638,"ĠYear":2639,"Ġinvest":2640,"Ġground":2641,"Ġavailable":2642,"ĠSam":2643,"ĠGreen":2644,"Ġeffect":2645,"Ġ29":2646,"ethod":2647,"oul":2648,"ĠFlor":2649,"eep":2650,"Ġweek":2651,"ĠUK":2652,"anded":2653,"Ġcompos":2654,"ĠPenn":2655,"Ġ()":2656,"asons":2657,"ano":2658,"Ġinformation":2659,"ien":2660,"ĠChristian":2661,"ala":2662,"Ġmeet":2663,"be":2664,"24":2665,"Ġindepend":2666,"Ġaver":2667,"Ġarr":2668,"Ġinst":2669,"icles":2670,"Ġrul":2671,"ĠBest":2672,"||":2673,"imately":2674,"ĠFranc":2675,"ĠCap":2676,"Ġbelie":2677,"itch":2678,"ership":2679,"ĠÐ½":2680,"Ġfire":2681,"sy":2682,"Ġtog":2683,"anted":2684,"ification":2685,"ĠMichael":2686,"estival":2687,"ores":2688,"craft":2689,"pite":2690,"stead":2691,"Ð·":2692,"istic":2693,"aries":2694,"ged":2695,"Ġhous":2696,"ula":2697,"ĠGold":2698,"aker":2699,"Ġtogether":2700,"Ġresearch":2701,"west":2702,"Ġpoints":2703,"Ġmodel":2704,"ĠIreland":2705,"Ġlight":2706,"utes":2707,"uit":2708,"Ġdoc":2709,"ura":2710,"ĠWestern":2711,"azine":2712,"ĠChe":2713,"ector":2714,"ux":2715,"hi":2716,"ĠChina":2717,"Eng":2718,"ĠCro":2719,"rael":2720,"ylv":2721,"roy":2722,"erry":2723,"ĠTor":2724,"Ġlow":2725,"viron":2726,"bour":2727,"ude":2728,"ands":2729,"Ġaway":2730,",\"":2731,"Ġce":2732,"oted":2733,"ĠVol":2734,"vert":2735,"ential":2736,"Ġacross":2737,"Ġworking":2738,"Ġide":2739,"Ġphys":2740,"ÐµÐ½":2741,"iding":2742,"Ġfree":2743,"ecutive":2744,"Ġvocals":2745,"ĠMet":2746,"Ġalumni":2747,"Ġalthough":2748,"liament":2749,"Ġdev":2750,"unk":2751,"Ġcontract":2752,"Ġrecogn":2753,"Ġepisode":2754,"Ġmother":2755,"Ġonce":2756,"ĠOlympics":2757,"ĠThomas":2758,"ĠAlex":2759,"ĠCentral":2760,"ĠBen":2761,"duction":2762,"ĠMark":2763,"edy":2764,"ĠWil":2765,"ictor":2766,"ĠCont":2767,"Ġmedal":2768,"ĠTo":2769,"atory":2770,"Ġmar":2771,"ĠVirgin":2772,"ids":2773,"40":2774,"Ġ50":2775,"Ġcoll":2776,"igned":2777,"ederal":2778,"ĠGrand":2779,"Ġcompanies":2780,"Sh":2781,"ĠInter":2782,"Ġestablishments":2783,"Ġyour":2784,"TV":2785,"ĠCommun":2786,"Ġ1960":2787,"Ġfund":2788,"cle":2789,"isl":2790,"Ġmust":2791,"Ġreview":2792,"ĠCong":2793,"Ġoffice":2794,"Ġplan":2795,"New":2796,"Ġ1993":2797,"ĠBill":2798,"ĠAcademy":2799,"Ġconstruction":2800,"ota":2801,"Ġsound":2802,"ĠCharles":2803,"Ġrelig":2804,"Ġsuccessful":2805,"jects":2806,"Ġelected":2807,"Ġstrong":2808,"Ġbi":2809,"rey":2810,"ÑĢÐ°":2811,"ena":2812,"ĠZeal":2813,"Ġap":2814,"ittee":2815,"gress":2816,"eph":2817,"incip":2818,"Ġtaken":2819,"err":2820,"Ġproble":2821,"atives":2822,"oys":2823,"ked":2824,"Ġphot":2825,"Ġblack":2826,"aches":2827,"Ġaccess":2828,"Ġbooks":2829,"Ġmaterial":2830,"Ġadminist":2831,"back":2832,"Ġacqu":2833,"Ġ1991":2834,"Ġappointed":2835,"ceed":2836,"Ġoriginally":2837,"Ġincludes":2838,"ĠFrom":2839,"aves":2840,"ĠPeter":2841,"ĠCarol":2842,"ĠZealand":2843,"atri":2844,"ability":2845,"Ġfeatures":2846,"Ġlab":2847,"emor":2848,"Ġgoal":2849,"Ġperformed":2850,"acters":2851,"Sc":2852,"ece":2853,"writ":2854,"head":2855,"elt":2856,"aps":2857,"ĠPet":2858,"Ġcour":2859,"iqu":2860,"Ġcost":2861,"Ġknow":2862,"oms":2863,"ĠFrank":2864,"ĠOrder":2865,"Ġche":2866,"idents":2867,"za":2868,"ria":2869,"2006":2870,"Ġrace":2871,"onn":2872,"annel":2873,"chie":2874,"ĠDepartment":2875,"Ġfollowed":2876,"ishop":2877,"fficial":2878,"Ġimpro":2879,"ems":2880,"Ð¾Ð²":2881,"aut":2882,"ought":2883,"elling":2884,"Ġmonths":2885,"ateg":2886,"Ġlaun":2887,"ĠGod":2888,"ospital":2889,"ees":2890,"Ġparty":2891,"inese":2892,"Ġdirected":2893,"adium":2894,"Ġmix":2895,"Ġkey":2896,"fic":2897,"ducation":2898,"Ġ2021":2899,"ĠAfrican":2900,"Ġmarket":2901,"Ġreported":2902,"aren":2903,"Ġdeg":2904,"Ġput":2905,"hood":2906,"nder":2907,"leb":2908,"Ġregular":2909,"Ġalign":2910,"Ġkilled":2911,"For":2912,"ificant":2913,"ĠGames":2914,"ĠMuseum":2915,"ĠBut":2916,"Ġassoci":2917,"Ġ:":2918,"ranch":2919,"Ġeight":2920,"ĠRock":2921,"Ġcirc":2922,"asc":2923,"Ġdaughter":2924,"ĠInstitute":2925,"ĠCamp":2926,"Ġgradu":2927,"serv":2928,"ĠLake":2929,"Ġcapt":2930,"ĠFlorida":2931,"ĠAfrica":2932,"Jo":2933,"ibrary":2934,"Ġanal":2935,"Ġseen":2936,"lor":2937,"Ġtour":2938,"arian":2939,"olk":2940,"ĠLos":2941,");":2942,"eck":2943,"iff":2944,"Ġshows":2945,"Ġattempt":2946,"Ġlearn":2947,"ĠDay":2948,"ĠGo":2949,"Ġbar":2950,"icago":2951,"anta":2952,"ĠTom":2953,"Ġconduct":2954,"mb":2955,"iation":2956,"Ġagre":2957,"Ġthroughout":2958,"Ġfeatured":2959,"Ġpain":2960,"Ġfight":2961,"ylvania":2962,"ĠRussian":2963,"Ġentire":2964,"Ġtest":2965,"enced":2966,"vironment":2967,"II":2968,"ĠMel":2969,"ĠRob":2970,"ĠâĢľ":2971,"Ġbuildings":2972,"merc":2973,"ãĢ":2974,"This":2975,"Ġperformance":2976,"Ġdata":2977,"ĠHam":2978,"ĠHill":2979,"ras":2980,"erc":2981,"ini":2982,"road":2983,"Ġlargest":2984,"ĠCast":2985,"rel":2986,"Ġaverage":2987,"Ġeventually":2988,"ĠDan":2989,"Ġcampaign":2990,"ĠÂ":2991,"ĠDo":2992,"km":2993,"Ġtre":2994,"Ġeither":2995,"arter":2996,"FA":2997,"At":2998,"Ġ40":2999,"Ġpast":3000,"ĠLeg":3001,"Ġfoc":3002,"27":3003,"ĠPe":3004,"ĠRichard":3005,"Ġsignificant":3006,"Ġtraining":3007,"erous":3008,"airs":3009,"Ġconsist":3010,"ource":3011,"ugby":3012,"ĠPlay":3013,"aching":3014,"ites":3015,"Ġdam":3016,"ĠRepublic":3017,"ĠSpanish":3018,"uz":3019,"Ġ1989":3020,"Ġgave":3021,"Ġremained":3022,"Ġwid":3023,"Ġviol":3024,"ĠIm":3025,"oviet":3026,"ĠApp":3027,"ĠScot":3028,"ĠWhite":3029,"26":3030,"Ġsugg":3031,"Ġpress":3032,"Ġreplaced":3033,"Ġseven":3034,"Ġstri":3035,"ĠKore":3036,"Ġinj":3037,"mon":3038,"overnor":3039,"Ġ1988":3040,"...":3041,"ĠFilm":3042,"Ġfront":3043,"imate":3044,"istan":3045,"Ġdesigned":3046,"aught":3047,"Ġrange":3048,"Ġ31":3049,"28":3050,"ki":3051,"aval":3052,"ĠSummer":3053,"Ġforces":3054,"ĠFore":3055,"anks":3056,"ĠSmith":3057,"2000":3058,"sylvania":3059,"Ġmount":3060,"igan":3061,"Ġintroduced":3062,"Ñħ":3063,"Ġhealth":3064,"ĠGeorg":3065,"Ġaud":3066,"arth":3067,"Ġsil":3068,"ĠSecond":3069,"Ġpark":3070,"ĠWin":3071,"Ġable":3072,"Ġfinished":3073,"Ġscored":3074,"Ġstage":3075,"ĠVictor":3076,"Ġ(\"":3077,"Ġwinn":3078,"Ġfootballers":3079,"Ġcharacters":3080,"oma":3081,"uture":3082,"ĠHistor":3083,"Ġ2022":3084,"ĠIsrael":3085,"Ġill":3086,"ãģ":3087,"ufact":3088,"ola":3089,"Ge":3090,"ĠCons":3091,"och":3092,"kn":3093,"Ġabove":3094,"Ð¿":3095,"center":3096,"Ġhom":3097,"ĠKn":3098,"ving":3099,"Ġreb":3100,"ĠFin":3101,"Ġboard":3102,"ĠHistory":3103,"Ġchampionship":3104,"Ġtransfer":3105,"Ġsem":3106,"atin":3107,"Ġsubsequ":3108,"Ġleading":3109,"Ġcivil":3110,"Ġroute":3111,"Ġgold":3112,"Ġchange":3113,"Ġmean":3114,"Ġrespons":3115,"ros":3116,"read":3117,"mpire":3118,"\")":3119,"Ġinvolved":3120,"Ġadded":3121,"SA":3122,".)":3123,"ender":3124,"Ġpur":3125,"ooks":3126,"Ġ1987":3127,"Ġusually":3128,"Ġsinger":3129,"List":3130,"Ġtransl":3131,"çļ":3132,"utch":3133,"Ð¹":3134,"order":3135,"ersey":3136,"ires":3137,"FL":3138,"ĠMus":3139,"Ġprivate":3140,"ĠÐ¾":3141,"Ġtreat":3142,"Ġdou":3143,"Ġ185":3144,"Ind":3145,"agon":3146,"medi":3147,"ĠSome":3148,"hold":3149,"icy":3150,"lam":3151,"29":3152,"idge":3153,"Ġbirth":3154,"Ġstudy":3155,"Ġ1986":3156,"ĠSaint":3157,"iano":3158,"oute":3159,"ĠBur":3160,"çļĦ":3161,"ĠItaly":3162,"ĠMil":3163,"Ġclos":3164,"ows":3165,"Ġprovide":3166,"den":3167,"ulated":3168,"ĠPennsylvania":3169,"Ġconv":3170,"Ġpot":3171,"Ġrank":3172,"Ġupon":3173,"Ġcollege":3174,"Ġclose":3175,"ario":3176,"iÄ":3177,"ĠChicago":3178,"ĠMr":3179,"ĠMinister":3180,"English":3181,"Rec":3182,"ĠHenry":3183,"ĠVirginia":3184,"ita":3185,"Ġwhite":3186,"ĠMass":3187,"cher":3188,"Ġartists":3189,"uns":3190,"rad":3191,"mercial":3192,"asing":3193,"face":3194,"Ġtravel":3195,"Ġtype":3196,"Ġste":3197,"unn":3198,"Ġwriter":3199,"lim":3200,"Ġrights":3201,"urity":3202,"Ġesc":3203,"inct":3204,"ĠTra":3205,"ĠBrown":3206,"60":3207,"ĠForce":3208,"Ġjournal":3209,"ĠDel":3210,"la":3211,"razil":3212,"ĠSqu":3213,"ĠAngeles":3214,"Ġneigh":3215,"Ġ1984":3216,"atal":3217,"Ã¨":3218,"Ġcourt":3219,"ĠWhile":3220,"icated":3221,"ises":3222,"rought":3223,"ĠÐº":3224,"190":3225,"Ġsen":3226,"Ġmedia":3227,"stant":3228,"ĠDirect":3229,"ĠGre":3230,"ĠStev":3231,"Ġcop":3232,"Ġspace":3233,"Ġnight":3234,"Ġopt":3235,"Ġaircraft":3236,"Ġsaw":3237,"Ġqual":3238,"Ġdiscover":3239,"Ġprovided":3240,"sel":3241,"Ġwriters":3242,"Ã±":3243,"ĠChinese":3244,"Ġactress":3245,"ias":3246,"ĠJust":3247,"heast":3248,"arily":3249,"Ġdram":3250,"Ġawarded":3251,"ply":3252,"Early":3253,"Åį":3254,"Ġjud":3255,"ĠParis":3256,"Ġflow":3257,"aying":3258,"Ġmethod":3259,"Ġarchitect":3260,"Ġleast":3261,"Ġfemale":3262,"ato":3263,"istics":3264,"Ġriver":3265,"oper":3266,"well":3267,"Ġstates":3268,"ĠLove":3269,"Ġinterest":3270,"ĠCr":3271,"ĠStar":3272,"Ġcenter":3273,"yr":3274,"board":3275,"Ġchanged":3276,"ĠEv":3277,"ero":3278,"pts":3279,"uke":3280,"Ġcountries":3281,"Ġarg":3282,"Ġvia":3283,"ends":3284,"Ġrailway":3285,"Ġsch":3286,"BA":3287,"ask":3288,"ĠSuper":3289,"rup":3290,"ĠWales":3291,"Ġexpress":3292,"Ġcal":3293,"Ġachie":3294,"rial":3295,"Ġ1985":3296,"Ġcurrently":3297,"Ġcreat":3298,"Ġpolitician":3299,"ww":3300,"Ġfav":3301,"istry":3302,"ĠAtl":3303,"eated":3304,"Ġfig":3305,"Ġmanager":3306,"hest":3307,"Ġcentral":3308,"oring":3309,"Ġparts":3310,"There":3311,"Ġreached":3312,"Ġpoet":3313,"ÐµÑĤ":3314,"gen":3315,"ensus":3316,"Ġhit":3317,"ĠMa":3318,"Ġlower":3319,"ctor":3320,"porary":3321,"ĠIll":3322,"ĠTurk":3323,"Ad":3324,"AR":3325,"Ġsection":3326,"Notes":3327,"Ġstaff":3328,"azz":3329,"Ġaction":3330,"Ġbasketball":3331,"Ġhard":3332,"overs":3333,"ĠAnn":3334,"Ġsus":3335,"Ġ1983":3336,"Ġresults":3337,"ength":3338,"Ġpossible":3339,"ï¼Į":3340,"uff":3341,"Ġprincip":3342,"Ġmusical":3343,"Ġanc":3344,"ometimes":3345,"Ġnetwork":3346,"Ġcy":3347,"Ġ1950":3348,"Ġquest":3349,"Ġinstead":3350,"Ġgoals":3351,"Ġrespect":3352,"Ġloss":3353,"Ġoutside":3354,"ĠSwed":3355,"iences":3356,"Ġsex":3357,"Ġclosed":3358,"eds":3359,"Ġprimary":3360,"Ġoccup":3361,"ĠOld":3362,"antic":3363,"hab":3364,"wer":3365,"Ġbroadcast":3366,"Ġmultip":3367,"Ġuna":3368,"ĠArts":3369,"De":3370,"enth":3371,"ients":3372,"ua":3373,"Ġdocument":3374,"ĠMur":3375,"ĠOh":3376,"ams":3377,"Ġfall":3378,"ĠColumb":3379,"ĠDemocr":3380,"oke":3381,"erve":3382,"ca":3383,"ta":3384,"ella":3385,"ĠEr":3386,"ĠNorthern":3387,"sych":3388,"Ġpers":3389,"known":3390,"ultural":3391,"ĠPublic":3392,"Ġwind":3393,"Ġrelationship":3394,"Ġhor":3395,"stitution":3396,"ĠIrish":3397,"ĠMexico":3398,"ĠCongress":3399,"ĠOther":3400,"Ġespec":3401,"Ġproducer":3402,"ils":3403,"ongs":3404,"ĠSir":3405,"ĠPre":3406,"ribution":3407,"ette":3408,"Ġpred":3409,"ĠClass":3410,"ĠSoviet":3411,"Ġgirl":3412,"ension":3413,"Ġking":3414,"ĠCommission":3415,"Ġcritic":3416,"Ã§":3417,"Ġsouthern":3418,"ĠIts":3419,"Ġ1979":3420,"Sp":3421,"Ġ1982":3422,"ĠMod":3423,"ĠKh":3424,"Ġdeal":3425,"bur":3426,"80":3427,"ĠĠĊ":3428,"Ġpolice":3429,"ider":3430,"ĠAv":3431,"Ġcompetition":3432,"Ġactor":3433,"Ġoccur":3434,"Ġmur":3435,"Ġsystems":3436,"Ġnorthern":3437,"Ġcut":3438,"Ġstre":3439,"Ġlet":3440,"Ġmass":3441,"wa":3442,"ĠMill":3443,"Ġfrequ":3444,"Ġmanufact":3445,"Ġrather":3446,"clus":3447,"band":3448,"Ġdecided":3449,"Ġ184":3450,"189":3451,"iro":3452,"Ġwinning":3453,"hire":3454,"Ġmeas":3455,"Ġfar":3456,"Ġlik":3457,"Ð±":3458,"iana":3459,"based":3460,"stra":3461,"like":3462,"Ġpurch":3463,"ye":3464,"rig":3465,"Ġplaces":3466,"lements":3467,"ĠOf":3468,"During":3469,"Ġplaced":3470,"Ġtax":3471,"Ġbass":3472,"Ġapprox":3473,"ĠOper":3474,"Ġbrought":3475,"oid":3476,"ĠOb":3477,"ĠTwo":3478,"Ġwhose":3479,"mond":3480,"ĠJim":3481,"ĠWood":3482,"ĠCarolina":3483,"Ġgrand":3484,"Ġfourth":3485,"people":3486,"shire":3487,"ĠCD":3488,"Ġben":3489,"venue":3490,"Ġneg":3491,"Le":3492,"Ġaccept":3493,"Ġsingles":3494,"ĠPan":3495,"ĠJersey":3496,"Ġalmost":3497,"Te":3498,"Ġtourn":3499,"ĠMer":3500,"Ġimm":3501,"gent":3502,"ĠJack":3503,"Ġcomplex":3504,"Ġruns":3505,"ĠSk":3506,"atriate":3507,"2005":3508,"Ph":3509,"Ġtransport":3510,"Ġ1976":3511,"lier":3512,"Ġitself":3513,"Ġpara":3514,"Ġplann":3515,"Can":3516,"ĠEmpire":3517,"Ġveh":3518,"--":3519,"with":3520,"ĠOff":3521,"Ġball":3522,"Ġreve":3523,"uments":3524,"ĠRh":3525,"Ġhigher":3526,"Ġartist":3527,"ĠOut":3528,"Ġ1981":3529,"Ġlook":3530,"Ġcapital":3531,"Ġbank":3532,"ecess":3533,"Ġplant":3534,"Ġculture":3535,"Ġscience":3536,"ĠValley":3537,"ĠService":3538,"Ġterrit":3539,"Ġfood":3540,"Ġstated":3541,"ription":3542,"reme":3543,"urt":3544,"ergy":3545,"ĠHow":3546,"Ġcou":3547,"Ġpersonal":3548,"ati":3549,"ingu":3550,"Ġunits":3551,"ĠParliament":3552,"Ġfarm":3553,"Ġden":3554,"Ġstop":3555,"ÃŃa":3556,"Ġpreviously":3557,"Ġ1974":3558,"Ġforce":3559,"Ġisland":3560,"Ġ1972":3561,"Ġcontribut":3562,"ollowing":3563,"ulations":3564,"ulture":3565,"illa":3566,"embly":3567,"Ġoperations":3568,"uals":3569,"Ġstudio":3570,"iety":3571,"ĠArab":3572,"Ġbehind":3573,"ĠSil":3574,"ned":3575,"ĠSur":3576,"orpor":3577,"Ġnatural":3578,"Ġdestroy":3579,"Ġcred":3580,"Ġtoo":3581,"Ġmunicipal":3582,"ift":3583,"Ġkeep":3584,"ulty":3585,"ror":3586,"Ġowned":3587,"alled":3588,"ffer":3589,"Ġadditional":3590,"Ġever":3591,"ĠTechn":3592,"anced":3593,"ĠScience":3594,"Ġmeans":3595,"ĠRadio":3596,"ĠNavy":3597,"put":3598,"isco":3599,"ĠHon":3600,"Ġprison":3601,"ĠTour":3602,"ĠDen":3603,"2007":3604,"Ġregard":3605,"NA":3606,"ĠSeries":3607,"ounter":3608,"ental":3609,"Ġ1978":3610,"ify":3611,"Ġself":3612,"Ġsum":3613,"Ġcomplet":3614,"gl":3615,"Person":3616,"Ġi":3617,"elled":3618,"change":3619,"Ġbase":3620,"unior":3621,"Ġbreak":3622,"Ñİ":3623,"ened":3624,"asion":3625,"Ġdu":3626,"ĠÐ¼":3627,"Ġbur":3628,"Ġallowed":3629,"pos":3630,"Ġsuper":3631,"Ġbeginning":3632,"Ġrate":3633,"lection":3634,"ĠFort":3635,"Ġorganiz":3636,"35":3637,"ĠAccording":3638,"ora":3639,"Ġdefeat":3640,"Ġmagazine":3641,"Ġseasons":3642,"John":3643,"Ġsoft":3644,"ĠBrazil":3645,"Ġminor":3646,"Con":3647,"ĠOl":3648,"ĠRoute":3649,"oir":3650,"isions":3651,"Ġattended":3652,"Ġsoon":3653,"Ġcome":3654,"Ġstructure":3655,"ĠBob":3656,"ĠMartin":3657,"het":3658,"ĠRos":3659,"Ġnewsp":3660,"ĠTimes":3661,"Ġsummer":3662,"ĠFestival":3663,"ruct":3664,"Ġliving":3665,"ÑĤÐ¾":3666,"eff":3667,"Ġmovement":3668,"Ġreading":3669,"Ġcoast":3670,"Ġtext":3671,"Ġfif":3672,"Äģ":3673,"ĠGreek":3674,"Ġwriting":3675,"Ġbattle":3676,"lying":3677,"areer":3678,"Ġended":3679,"Ġdeterm":3680,"ĠMos":3681,"Ġedition":3682,"atform":3683,"itiz":3684,"ĠSpain":3685,"2004":3686,"ao":3687,"Ġwood":3688,"Ġindustry":3689,"Ġwhom":3690,"Ġcand":3691,"Ġdefeated":3692,"Ġobserv":3693,"Ġscient":3694,"Ġdivision":3695,"Ġuses":3696,"Ġdegree":3697,"ancial":3698,"ĠHot":3699,"imb":3700,"Ġexcept":3701,"Ġprem":3702,"ĠBattle":3703,"ĠGovernment":3704,"ĠBig":3705,"Ġdon":3706,"Ġlocation":3707,"Ġ1977":3708,"Ġfuture":3709,"echan":3710,"pped":3711,"Other":3712,"ĠEducation":3713,"iÄĩ":3714,"Col":3715,"ums":3716,"Ġbox":3717,"Ġcommercial":3718,"Ġtraditional":3719,"Ġnames":3720,"Ġcollection":3721,"Ġlittle":3722,"Ġcertain":3723,"Ġespecially":3724,"inary":3725,"ĠLine":3726,"//":3727,"add":3728,"ĠPo":3729,"ĠJoseph":3730,"Ġindependent":3731,"ĠFound":3732,"ĠBus":3733,"ĠUp":3734,"Ġactive":3735,"Ġindividual":3736,"Ġ1975":3737,"Ġmention":3738,"Ġremov":3739,"Ġceleb":3740,"awa":3741,"arr":3742,"Ġstudent":3743,"unc":3744,"Ð¾Ð»":3745,"icro":3746,"king":3747,"Ġleader":3748,"ĠFre":3749,"Ġinsp":3750,"asy":3751,"Ġlisted":3752,"ĠInc":3753,"ĠSer":3754,"iography":3755,"Ġorganization":3756,"Ġsurround":3757,"Ãº":3758,"ĠLife":3759,"ĠLand":3760,"ĠOhio":3761,"Films":3762,"ĠÐ´":3763,"ĠTro":3764,"uty":3765,"ĠSpec":3766,"Bl":3767,"Ġacadem":3768,"Ġnomin":3769,"Ġ1973":3770,"ĠNews":3771,"ĠAp":3772,"Ġtowards":3773,"Ġaccording":3774,"itors":3775,"ĠAwards":3776,"Ġunit":3777,"Ġ1968":3778,"bury":3779,"etic":3780,"aled":3781,"ĠPac":3782,"ĠChampionships":3783,"Ġmove":3784,"Ġpay":3785,"Ġappearance":3786,"aciÃ³n":3787,"Ġshot":3788,"org":3789,"ĠProvince":3790,"Ġtaking":3791,"All":3792,"rav":3793,"win":3794,"retary":3795,"Ġrequired":3796,"Ġdraw":3797,"ĠScotland":3798,"Ġphil":3799,"ĠMost":3800,"Ġinvestig":3801,"Ġschol":3802,"Ġge":3803,"Ġrunning":3804,"state":3805,"Ġspent":3806,"ready":3807,"arent":3808,"ĠSub":3809,"ĠSa":3810,"ĠHaw":3811,"Ġcontains":3812,"ibility":3813,"yth":3814,"Ġclubs":3815,"ĠRailway":3816,"Ġstandard":3817,"Am":3818,"70":3819,"Ġens":3820,"track":3821,"rief":3822,"ĠCommittee":3823,"Ġer":3824,"action":3825,"ĠYoung":3826,"anda":3827,"standing":3828,"Ġequip":3829,"ÑĤÑĮ":3830,"ĠDef":3831,"Ġ1971":3832,"ÑĢÐµ":3833,"not":3834,"Ġcentre":3835,"Ġcreate":3836,"ampion":3837,"Ġgenerally":3838,"ĠFr":3839,"Ġsometimes":3840,"adel":3841,"irt":3842,"Ġdig":3843,"mark":3844,"à¹":3845,"ĠLong":3846,"ĠDev":3847,"bon":3848,"Ġprograms":3849,"ĠAre":3850,"Ġlove":3851,"ĠRussia":3852,"Ġscreen":3853,"ĠDou":3854,"Ġhum":3855,"Å¡":3856,"Ġmission":3857,"amily":3858,"ĠGar":3859,"Ġdiffic":3860,"Ġmoney":3861,"ĠEc":3862,"rying":3863,"Ġthus":3864,"Ġhighest":3865,"irm":3866,"Ġran":3867,"irit":3868,"Ġbig":3869,"Ġapplic":3870,"Ġprof":3871,"ĠSo":3872,"Ġopening":3873,"CC":3874,"ols":3875,"Ġenvironment":3876,"ĠAlthough":3877,"Ġlived":3878,"Ġfamous":3879,"Ġsom":3880,"ĠSouthern":3881,"rang":3882,"ĠFred":3883,"ĠIII":3884,"Ġhockey":3885,"Ġpi":3886,"cel":3887,"aring":3888,"Ġconcern":3889,"ÑĤÐµ":3890,"Ġbetter":3891,"ections":3892,"ĠCarl":3893,"oston":3894,"ĠPak":3895,"Ġissues":3896,"ĠTer":3897,"ĠBroad":3898,"Ġpractice":3899,"Ġapproximately":3900,"Ġabs":3901,"Ġemb":3902,"ĠInt":3903,"ken":3904,"Ġ1969":3905,"ĠHel":3906,"Ġindic":3907,"ĠBoard":3908,"Ġearlier":3909,"ĠAlb":3910,"Ġjob":3911,"arden":3912,"Ġrelated":3913,"Ġwoman":3914,"Ġoppos":3915,"Ġforest":3916,"ĠLiber":3917,"Ġprob":3918,"Ġadop":3919,"ali":3920,"Ġattract":3921,"ĠBook":3922,"Ġprior":3923,"Ġelev":3924,"Ġactors":3925,"Ġinstr":3926,"ĠLord":3927,"Ġsaf":3928,"ulf":3929,"Ġvictory":3930,"ĠBritain":3931,"ny":3932,"Ġarmy":3933,"ĠIf":3934,"ĠBow":3935,"ĠThat":3936,"ĠDi":3937,"fect":3938,"2003":3939,"Ġcust":3940,"Ġnews":3941,"oral":3942,"Ð³":3943,"Ġexhib":3944,"ĠKent":3945,"Ġgive":3946,"Ġsat":3947,"ĠOver":3948,"ĠJud":3949,"Ġchanges":3950,"wan":3951,"ĠBul":3952,"Ġnumerous":3953,"ĠSte":3954,"Ġsusp":3955,"Ġtowns":3956,"ja":3957,"Ġtracks":3958,"ĠHa":3959,"Ġoperated":3960,"Ġconsider":3961,"Ġfunction":3962,"2002":3963,"ĠTheatre":3964,"ĠCross":3965,"ĠJewish":3966,"33":3967,"ĠEngine":3968,"ima":3969,"ĠOx":3970,"Ġscore":3971,"ares":3972,"Ġcomplete":3973,"uild":3974,"Ġpen":3975,"ĠSol":3976,"Ġop":3977,"Ġrad":3978,"Ġremains":3979,"uan":3980,"burgh":3981,"ĠMain":3982,"ĠSun":3983,"Ġsuffer":3984,"Ġaltern":3985,"ĠStep":3986,"rown":3987,"allery":3988,"ĠMah":3989,"ping":3990,"Ġassociated":3991,"onse":3992,"ansas":3993,"ĠMiddle":3994,"Career":3995,"Ġactivities":3996,"Ġreligious":3997,"yan":3998,"ĠBre":3999,"Ġwestern":4000,"ublican":4001,"ĠTri":4002,"house":4003,"Ġappears":4004,"Ġ1964":4005,"Ġcourse":4006,"iled":4007,"arriage":4008,"ko":4009,"ih":4010,"Ġ1967":4011,"Ġpromot":4012,"Ġsubject":4013,"Ġdate":4014,"Ġspecific":4015,"Ġut":4016,"acher":4017,"kins":4018,"Ġtakes":4019,"45":4020,"Ġcommand":4021,"aters":4022,"ricket":4023,"gar":4024,"ĠCivil":4025,"Ġmonth":4026,"plement":4027,"Ġappearances":4028,"ĠSystem":4029,"ĠGen":4030,"Ġfocus":4031,"ĠWeb":4032,"rect":4033,"Ġcandid":4034,"Ġlimited":4035,"Ġsize":4036,"Ġalready":4037,"ĠSar":4038,"con":4039,"Mar":4040,"Ġlength":4041,"90":4042,"AS":4043,"Ġword":4044,"FC":4045,"iant":4046,"ĠLee":4047,"Ġinterview":4048,"Ġven":4049,"Ġbecoming":4050,"Ġtrade":4051,"ira":4052,"Ġhere":4053,"etts":4054,"äº":4055,"Ġhot":4056,"Ġstep":4057,"ĠGeorgia":4058,"Ġemer":4059,"oe":4060,"ĠBank":4061,"Ġarm":4062,"Ġthought":4063,"umber":4064,"2001":4065,"attal":4066,"Ġrecording":4067,"ĠConn":4068,"ption":4069,"Ġfootballer":4070,"Ġmatches":4071,"Ġterms":4072,"ĠBlue":4073,"**":4074,"inois":4075,"Ġmurder":4076,"down":4077,"itation":4078,"ĠMichigan":4079,"iga":4080,"ĠPrem":4081,"://":4082,"Ġfeature":4083,"Ġtournament":4084,"Ġchief":4085,"Ġlas":4086,"ĠJones":4087,"Ġ1966":4088,"Ġtrib":4089,"abb":4090,"Ġded":4091,"IS":4092,"ĠNot":4093,"aka":4094,"Ġmach":4095,"ication":4096,"Ġmostly":4097,"Ġstatus":4098,"esc":4099,"ĠProfess":4100,"emporary":4101,"Ġproperty":4102,"Ġnoted":4103,"bers":4104,"ava":4105,"velopment":4106,"va":4107,"Ġretired":4108,"vention":4109,"Ġ1945":4110,"ador":4111,"Ġrecords":4112,"ĠCam":4113,"agn":4114,"aya":4115,"eeks":4116,"37":4117,"Ġstudies":4118,"color":4119,"Ġcommission":4120,"ĠStr":4121,"emorial":4122,"urban":4123,"Ġbaseball":4124,"Ġdecl":4125,"Ġplatform":4126,"Ġassociation":4127,"Ġincreased":4128,"Ġeditor":4129,"Ġsequ":4130,"ective":4131,"Ġ1940":4132,"Ġcaused":4133,"Ġissue":4134,"Ġhistorical":4135,"ĠDutch":4136,"Ġmultiple":4137,"ĠMatt":4138,"ds":4139,"Ġcle":4140,"Ġ2023":4141,"Ġ1930":4142,"inals":4143,"Ã¡s":4144,"Ã£":4145,"ĠÑ":4146,"ĠPortug":4147,"Aust":4148,"Ġsquad":4149,"Ġcases":4150,"Ð°Ð½":4151,"Ġmanagement":4152,"ĠGirl":4153,"ĠTime":4154,"RA":4155,"36":4156,"arents":4157,"Ġver":4158,"Ġleaving":4159,"Ġlegal":4160,"38":4161,"Ġlines":4162,"Ð¾Ð¼":4163,"Ġnorm":4164,"Ġ60":4165,"ading":4166,"ĠMid":4167,"Ġimmedi":4168,"anguages":4169,"ĠOpen":4170,"ysis":4171,"Ġdecision":4172,"Ġ1965":4173,"ĠSat":4174,"chen":4175,"ears":4176,"Ġdom":4177,"Ġsister":4178,"ĠMcC":4179,"Ġtoday":4180,"ortun":4181,"Ġlonger":4182,"rast":4183,"Ġord":4184,"ĠTeam":4185,"ĠColumbia":4186,"ĠTim":4187,"isher":4188,"Ġrepresented":4189,"ĠMat":4190,"ela":4191,"isk":4192,"Ġexc":4193,"ĠMot":4194,"ĠQueen":4195,"ĠScottish":4196,"ĠCamb":4197,"Ġgoing":4198,"ĠGood":4199,"ĠSince":4200,"Ġquick":4201,"mitted":4202,"Ġlaunched":4203,"2008":4204,"Ġinstitut":4205,"Ġbridge":4206,"rac":4207,"34":4208,"war":4209,"uge":4210,"Med":4211,"ĠGal":4212,"ĠAvenue":4213,"ĠTem":4214,"isation":4215,"aded":4216,"Ġanti":4217,"ĠJul":4218,"ĠEdward":4219,"Ġstructures":4220,"Ġcounty":4221,"Ġannual":4222,"Ġlog":4223,"left":4224,"Ġalways":4225,"ables":4226,"ĠCoast":4227,"Ð½Ñĭ":4228,"Trans":4229,"Comp":4230,"illy":4231,"Se":4232,"ĠWind":4233,"Ġforced":4234,"ĠLittle":4235,"Ġofficer":4236,"ĠPrince":4237,"Ġsenior":4238,"Ġuniversity":4239,"press":4240,"ĠMen":4241,"Ġwide":4242,"aily":4243,"Ġlay":4244,"ĠFrancisco":4245,"Ġinitially":4246,"188":4247,"Ġremain":4248,"nes":4249,"ĠBet":4250,"ipl":4251,"2010":4252,"Ġlack":4253,"Ġcolon":4254,"1990":4255,"achus":4256,"raf":4257,"Ġroom":4258,"airman":4259,"%)":4260,"ĠWild":4261,"Ġdetail":4262,"Ġenergy":4263,"Ġinteg":4264,"Ġevidence":4265,"Ġ+":4266,"iy":4267,"BS":4268,"Ġeconomic":4269,"ĠCreek":4270,"ĠChief":4271,"phy":4272,"Ġshown":4273,"rim":4274,"duce":4275,"ĠOk":4276,"obal":4277,"tained":4278,"Ġmajority":4279,"Ġlic":4280,"ocal":4281,"Ġdise":4282,"ips":4283,"osoph":4284,"ĠUSA":4285,"erem":4286,"Ġbelow":4287,"Ġmerg":4288,"Ġlarger":4289,"Ġaccount":4290,"language":4291,"Ġrequire":4292,"ĠIllinois":4293,"ĠElect":4294,"39":4295,"ĠWomen":4296,"Ġserving":4297,"Ġreferred":4298,"mm":4299,"ĠNY":4300,"iger":4301,"Ð»Ð¸":4302,"ĠLab":4303,"ĠEarth":4304,"Ġmight":4305,"Ġess":4306,"ĠIslam":4307,"ĠDis":4308,"Ð½Ð¾":4309,"ÑĢÐ¸":4310,"dis":4311,"Ġmeaning":4312,"ricts":4313,"iance":4314,"iring":4315,"isters":4316,"Ġselected":4317,"Ġpil":4318,"Ġsea":4319,"ĠEastern":4320,"Ġpassed":4321,"inem":4322,"ĠMP":4323,"uries":4324,"Ġentered":4325,"ĠTre":4326,"Ġeastern":4327,"Is":4328,"phia":4329,"Ġcell":4330,"Brit":4331,"ications":4332,"ĠResearch":4333,"Ġmovie":4334,"ĠAsia":4335,"ĠBC":4336,"Ġnine":4337,"Music":4338,"arters":4339,"poration":4340,"Ġfederal":4341,"ĠInf":4342,"ĠDie":4343,"occer":4344,"Ġseparate":4345,"Ġvariety":4346,"ĠOlympic":4347,"ties":4348,"rich":4349,"Ġbrief":4350,"ĠLuc":4351,"ĠWal":4352,"Ġmiddle":4353,"range":4354,"ĠNight":4355,"struction":4356,"Ġ)":4357,"ĠBoston":4358,"Ġtechnology":4359,"resp":4360,"antry":4361,"achusetts":4362,"Sports":4363,"ledge":4364,"Not":4365,"Ġtheory":4366,"ĠUnder":4367,"Ġbound":4368,"encies":4369,"Ġplays":4370,"Ġunion":4371,"Ġdiscuss":4372,"ãĢĤ":4373,"ĠStation":4374,"Ã¡n":4375,"izing":4376,"Ġthreat":4377,"Ġforeign":4378,"rants":4379,"ĠShow":4380,"adelphia":4381,"ä»":4382,"Ġsubsequently":4383,"Ġhours":4384,"Ġminutes":4385,"riz":4386,"ais":4387,"Ġprovides":4388,"ĠHighway":4389,"selves":4390,"edd":4391,"Ġthemselves":4392,"uated":4393,"NE":4394,"Ġmakes":4395,"United":4396,"ĠBBC":4397,"mission":4398,"Ġfle":4399,"ĠJr":4400,"ervation":4401,"gu":4402,"1999":4403,"ĠHung":4404,"ĠMore":4405,"itting":4406,"ĠVer":4407,"Ġmer":4408,"ĠBh":4409,"Ġoffered":4410,"ĠTw":4411,"ĠOfficial":4412,"Ġweeks":4413,"ĠWay":4414,"apers":4415,"wide":4416,"ĠCentre":4417,"Ġparticularly":4418,"ĠWilliams":4419,"onto":4420,"itzer":4421,"osa":4422,"With":4423,"ault":4424,"Ġsource":4425,"onic":4426,"ĠPacific":4427,"amin":4428,"ĠBern":4429,"ĠArgent":4430,"75":4431,"ĠEll":4432,"ĠLibrary":4433,"Ġobject":4434,"Ġcitiz":4435,"ĠAlbert":4436,"Ġchall":4437,"Ġacquired":4438,"Ġmem":4439,"stein":4440,"Ġlabel":4441,"ĠTop":4442,"Ġconfl":4443,"2009":4444,"Ġformat":4445,"Ġbelieved":4446,"Ġunivers":4447,"Ġfoot":4448,"ĠBor":4449,"ntario":4450,"From":4451,"hol":4452,"Ġepisodes":4453,"Ġ1963":4454,"ĠStan":4455,"Ġadministr":4456,"ession":4457,"ager":4458,"ĠLatin":4459,"Men":4460,"Ġforms":4461,"ĠKe":4462,"Ġice":4463,"ĠDet":4464,"Ġquarter":4465,"inent":4466,"Ġcomedy":4467,"Ã£o":4468,"urrent":4469,"aven":4470,"Ġadj":4471,"AA":4472,"ĠOxford":4473,"Ġgot":4474,"rice":4475,"ĠSyd":4476,"ĠBand":4477,"ĠSocial":4478,"peror":4479,"Ġ35":4480,"ĠIran":4481,"ĠConference":4482,"Ġfort":4483,"Ġchart":4484,"Ġships":4485,"Ġpasseng":4486,"Ġblock":4487,"chestra":4488,"Ġhelped":4489,"Ġ1920":4490,"Ġcapac":4491,"She":4492,"ennis":4493,"Ġbomb":4494,"Char":4495,"When":4496,"Ġstarting":4497,"mas":4498,"ĠHealth":4499,"bl":4500,"ĠUr":4501,"ĠMajor":4502,"Ġtemper":4503,"inet":4504,"Ġresponse":4505,"Ð¾Ð³":4506,"uis":4507,"ĠSea":4508,"ĠCharl":4509,"Ġspl":4510,"ĠSports":4511,"atively":4512,"ĠEnd":4513,"Ġmedical":4514,"Ġtroops":4515,"rance":4516,"ĠAssembly":4517,"Ġcouncil":4518,"Ġhouses":4519,"no":4520,"level":4521,"Ġcities":4522,"nam":4523,"Ġremaining":4524,"ĠSund":4525,"Ġfinancial":4526,"ĠWater":4527,"Ġincrease":4528,"astic":4529,"32":4530,"Ġinters":4531,"31":4532,"uj":4533,"hester":4534,"Ġ1962":4535,"ellig":4536,"ackson":4537,"ĠTheir":4538,"imum":4539,"Ġseat":4540,"Ġpercent":4541,"akers":4542,"ĠTam":4543,"National":4544,"ĠDar":4545,"Ġcomputer":4546,"inger":4547,"ĠMassachusetts":4548,"Ġindividuals":4549,"ĠBoy":4550,"Ġmuseum":4551,"ilies":4552,"uts":4553,"pose":4554,"Ġprevent":4555,"Ġcommunities":4556,"Ġancient":4557,"uten":4558,"Ġwords":4559,"British":4560,"Ġheavy":4561,"aging":4562,"Ġpresented":4563,"Ġvon":4564,"Ġsal":4565,"ĠSand":4566,"Ġtarg":4567,"Ġcrew":4568,"US":4569,"Ġturned":4570,"Ġdone":4571,"Ġcat":4572,"Ġcode":4573,"Ġofficers":4574,"Ġdifficult":4575,"Ġfailed":4576,"ĠChild":4577,"Ġoverall":4578,"ĠPeople":4579,"Ġdro":4580,"Ġproblems":4581,"enty":4582,"Ġpersonnel":4583,"Ġlatter":4584,"ĠPhilipp":4585,"Ġclaimed":4586,"Ġexperience":4587,"Ġassistant":4588,"ĠRam":4589,"Ġcollabor":4590,"ĠCard":4591,"abeth":4592,"Ġgovern":4593,"Ġsurface":4594,"ila":4595,"Ġparents":4596,"icks":4597,"ĠCorps":4598,"stitu":4599,"ĠWall":4600,"ĠLater":4601,"ĠJohnson":4602,"ĠSydney":4603,"Ġfinally":4604,"Ġdescent":4605,"ĠMuslim":4606,"Ġcovered":4607,"Ġmainly":4608,"ĠOntario":4609,"vement":4610,"Ġnearby":4611,"Ġinn":4612,"ĠJournal":4613,"gypt":4614,"ĠEnter":4615,"ĠDirector":4616,"Ġarrest":4617,"Ġcomment":4618,"Ġmechan":4619,"ĠGame":4620,"hew":4621,"illed":4622,"ĠSpecial":4623,"Ġmeeting":4624,"ante":4625,"teen":4626,"Ġspeed":4627,"ker":4628,"ads":4629,"ando":4630,"Ġdrama":4631,"thur":4632,"ÑĪ":4633,"lected":4634,"Ġhospital":4635,"ĠCat":4636,"Ġdouble":4637,"Ġorganizations":4638,"Ġcarried":4639,"oz":4640,"Ġresidents":4641,"Ġprin":4642,"åı":4643,"ronic":4644,"Ġextended":4645,"Ġdeep":4646,"Ġour":4647,"ĠKenn":4648,"ĠEst":4649,"Ġamb":4650,"ograp":4651,"Ġdistinct":4652,"ĠField":4653,"eld":4654,"ried":4655,"ously":4656,"more":4657,"idad":4658,"ĠRepresent":4659,"Ġsupported":4660,"AT":4661,"Ġneighbor":4662,"yric":4663,"itude":4664,"ĠRay":4665,"yt":4666,"ĠVan":4667,"una":4668,"Ġstories":4669,"Ġ1944":4670,"oh":4671,"Ġbring":4672,"Ġrenamed":4673,"ube":4674,"Ġprovince":4675,"2011":4676,"Ġconcept":4677,"Ð¾Ð´":4678,"attalion":4679,"1998":4680,"ocks":4681,"rovers":4682,"orning":4683,"ucky":4684,"ĠAz":4685,"Ġrecent":4686,"Ġlanguages":4687,"Ġoil":4688,"ĠMany":4689,"Ġmentioned":4690,"Ġsecondary":4691,"ione":4692,"Ġpit":4693,"Ġpage":4694,"HL":4695,"ĠPost":4696,"ĠPop":4697,"Ġconditions":4698,"ĠÐ½Ð°":4699,"ĠBal":4700,"Ġoperation":4701,"Ġpsych":4702,"ez":4703,"ĠHor":4704,"ĠFour":4705,"Ġstudied":4706,"onia":4707,"agement":4708,"ĠÅ":4709,"ski":4710,"Ġmusicians":4711,"ounts":4712,"Ġpeak":4713,"Track":4714,"AC":4715,"ĠUl":4716,"ĠPolish":4717,"Further":4718,"Ġprogramming":4719,"Ġhighway":4720,"Ġarticle":4721,"Ġmarriage":4722,"Ġbenef":4723,"ID":4724,"ĠKar":4725,"Ġdepart":4726,"Ġearned":4727,"Ġstay":4728,"ĠOs":4729,"Ġraised":4730,"get":4731,"48":4732,"ĠMax":4733,"ĠVen":4734,"Ġnecess":4735,"Ġlegisl":4736,"Ġmissing":4737,"Ġshoot":4738,"ĠFoundation":4739,"Ġnumbers":4740,"Ġconsists":4741,"olis":4742,"ĠHistoric":4743,"ĠAndrew":4744,"establ":4745,"gcolor":4746,"rif":4747,"Ġvoice":4748,"Sw":4749,"Ġsolo":4750,"%.":4751,"imated":4752,"Ġcontinu":4753,"Ġcomposed":4754,"ĠUk":4755,"ĠProt":4756,"Ġcharg":4757,"light":4758,"ĠBridge":4759,"Ġnature":4760,"Ġkind":4761,"Ġenough":4762,"ully":4763,"ishes":4764,"1997":4765,"47":4766,"andon":4767,"Ġvalue":4768,"Ġpolicy":4769,"Ġplans":4770,"cul":4771,"ĠJoe":4772,"Ġleave":4773,"Ġ1961":4774,"ĠUnivers":4775,"sen":4776,"Ġcause":4777,"ĠÂ£":4778,"ĠKong":4779,"ĠJac":4780,"Ġpoor":4781,"ibli":4782,"Ð¶":4783,"Ġhab":4784,"Ġcensus":4785,"owers":4786,"Ġdiss":4787,"rupt":4788,"ĠWinter":4789,"Ġpaint":4790,"Ġâ":4791,"Members":4792,"Ġnearly":4793,"itage":4794,"Ġnative":4795,"ogue":4796,"Ġproposed":4797,"usband":4798,"ĠRepublican":4799,"Ġelectric":4800,"ĠGra":4801,"hens":4802,"Ġchem":4803,"ims":4804,"Ġfeaturing":4805,"Ġelements":4806,"Ġpath":4807,"bre":4808,"Ġchannel":4809,"Ġlikely":4810,"Ġdespite":4811,"thing":4812,"ĠPhiladelphia":4813,"mann":4814,"Ġautom":4815,"vis":4816,"ĠCorn":4817,"bourne":4818,"ĠOtt":4819,"ĠHome":4820,"ĠGovernor":4821,"ederation":4822,"Ġcard":4823,"Ġsociety":4824,"Ġsector":4825,"55":4826,"Ġathlet":4827,"bec":4828,"Ġbecomes":4829,"ĠBir":4830,"Ġdirectly":4831,"ĠAlexander":4832,"zech":4833,"Ġborder":4834,"ancy":4835,"ĠBa":4836,"Man":4837,"ĠHind":4838,"Ġdisp":4839,"Ġinhab":4840,"Ġdead":4841,"umed":4842,"ĠBudd":4843,"ĠLight":4844,"ĠGh":4845,"innes":4846,"Ġaffili":4847,"Ġpick":4848,"Ġagric":4849,"ĠMu":4850,"akh":4851,"ĠRel":4852,"Ġinfluence":4853,"Ġonline":4854,"Ġ1959":4855,"ĠVictoria":4856,"Ġdyn":4857,"Ġbelong":4858,"tle":4859,"Don":4860,"Ġprimarily":4861,"Ġ1956":4862,"Ġnewspaper":4863,"Ġtold":4864,"ĠLes":4865,"formed":4866,"Ġmotor":4867,"ĠMike":4868,"ĠBab":4869,"Ġlisting":4870,"Or":4871,"ĠJean":4872,"Dem":4873,"Ġresponsible":4874,"itted":4875,"ĠJeff":4876,"Ġsilver":4877,"Ġserve":4878,"Ġunc":4879,"Ġmaster":4880,"Ġupper":4881,"99":4882,"Ġsucceed":4883,"Ġang":4884,"lav":4885,"Ġ1948":4886,"alle":4887,"ii":4888,"yer":4889,"ĠAirport":4890,"ĠOffice":4891,"ouri":4892,"innesota":4893,"Ġseg":4894,"ĠSong":4895,"Ġ180":4896,"Ġclear":4897,"ĠFC":4898,"Ġsoldiers":4899,"Ġquestion":4900,"obile":4901,"Ġsoftware":4902,"Ġgun":4903,"ĠBrig":4904,"Ġnovels":4905,"Ġalleg":4906,"Ġtradition":4907,"Ġcolor":4908,"ologist":4909,"Ġstadium":4910,"ĠJackson":4911,"eces":4912,"ĠSerb":4913,"FF":4914,"ounds":4915,"Ġmanaged":4916,"ĠBerlin":4917,"amm":4918,"Ġpal":4919,"Ġconver":4920,"Ġexpatriate":4921,"ĠAdd":4922,"Ġcorn":4923,"Ġdomin":4924,"ĠBell":4925,"omer":4926,"Ġwhole":4927,"Ġ80":4928,"class":4929,"Ġsched":4930,"Ġera":4931,"Ġ1958":4932,"Ġfacilities":4933,"writer":4934,"ĠTod":4935,"ĠProgram":4936,"ĠPrize":4937,"Ġcars":4938,"Ġpor":4939,"Ġproducts":4940,"Ġfriends":4941,"ictional":4942,"Ġweap":4943,"Ġface":4944,"Ġwhether":4945,"icted":4946,"Ġtermin":4947,"Ġrule":4948,"El":4949,"ĠArm":4950,"Ġprogress":4951,"Ġfunct":4952,"Ġparish":4953,"Ġdeliver":4954,"1980":4955,"Ġfeel":4956,"ĠGuard":4957,"Comm":4958,"Ġconstructed":4959,"ĠPakistan":4960,"Austral":4961,"ambig":4962,"ĠMov":4963,"Ġtitles":4964,"ĠBra":4965,"rate":4966,"ĠFI":4967,"ĠSant":4968,"Ġawards":4969,"Ġsources":4970,"Ġcomes":4971,"1996":4972,"ĠLew":4973,"Ġreason":4974,"Ġworkers":4975,"orporated":4976,"ĠCorporation":4977,"ĠRod":4978,"worth":4979,"Ġlevels":4980,"Ġidea":4981,"Ġasked":4982,"ĠWilson":4983,"rison":4984,"44":4985,"',":4986,"ĠEgypt":4987,"ĠRaj":4988,"Ġdiscovered":4989,"ĠThree":4990,"ĠKorea":4991,"rin":4992,"Ġcontinue":4993,"ĠMedal":4994,"rec":4995,"ieuten":4996,"Ġheart":4997,"Ġcampus":4998,"Ġdivided":4999,"186":5000,"Ġcateg":5001,"ĠEs":5002,"onomy":5003,"ĠRog":5004,"olitan":5005,"mir":5006,"Ġlives":5007,"da":5008,"asts":5009,"ĠFar":5010,"Ġult":5011,"Ġtransferred":5012,"ĠVill":5013,"ĠCub":5014,"Ð°Ðº":5015,"rie":5016,"Ã©s":5017,"ĠPen":5018,"Ġ1942":5019,"eman":5020,"ighter":5021,"ĠPubl":5022,"2012":5023,"ĠKen":5024,"\"|":5025,"ĠForest":5026,"stone":5027,"osh":5028,"Ġinitial":5029,"Ġtypes":5030,"undred":5031,"aith":5032,"ĠAk":5033,"ĠQueens":5034,"ĠDemocratic":5035,"ulpt":5036,"ĠAthlet":5037,"Ġrugby":5038,"ba":5039,"ilation":5040,"æľ":5041,"Ġcontinues":5042,"Ġhonor":5043,"Ġability":5044,"Ġ500":5045,"ĠRegiment":5046,"Ġincreasing":5047,"Ġscene":5048,"ĠBelg":5049,"orship":5050,"ĠAsh":5051,"ĠEp":5052,"ambiguation":5053,"ĠToronto":5054,"Ġcultural":5055,"izabeth":5056,"Ġmetal":5057,"Ġappl":5058,"Ġ1957":5059,"emeter":5060,"Ġregional":5061,"wick":5062,"emetery":5063,"49":5064,"iced":5065,"ĠBeach":5066,"ilton":5067,"mad":5068,"``":5069,"Ġbgcolor":5070,"cles":5071,"igen":5072,"One":5073,"istance":5074,"Ġwanted":5075,"ĠViet":5076,"Ġdemon":5077,"ĠÐ±":5078,"ÑĨ":5079,"Ġdrug":5080,"Ġprofessor":5081,"ĠCastle":5082,"enness":5083,"ĠIslands":5084,"Ġstore":5085,"La":5086,"Ġnotable":5087,"ello":5088,"ĠJes":5089,"Ġ1955":5090,"Ġeffects":5091,"Ġissued":5092,"vin":5093,"ĠLim":5094,"ocated":5095,"bit":5096,"cean":5097,"ĠRome":5098,"Olymp":5099,"ĠSanta":5100,"Ġhighly":5101,"His":5102,"ĠSteve":5103,"aylor":5104,"Ġ1947":5105,"Ġremoved":5106,"respond":5107,"arry":5108,"Ġmodels":5109,"Ġquickly":5110,"Ġnuc":5111,"Ġ1946":5112,"Ġdisplay":5113,"Ġlif":5114,"Ġmountain":5115,"Ġkm":5116,"No":5117,"Ġsmaller":5118,"Ġhusband":5119,"ydro":5120,"46":5121,"heim":5122,"ĠFair":5123,"ĠMir":5124,"Ġamount":5125,"Ġimplement":5126,"Ġcapacity":5127,"ĠSpe":5128,"Ġyouth":5129,"Personal":5130,"etherlands":5131,"Polit":5132,"met":5133,"Ġshare":5134,"Ġaddress":5135,"ĠRegion":5136,"Ġexecutive":5137,"arp":5138,"ĠBang":5139,"Ġalongside":5140,"1995":5141,"Ã¼r":5142,"ĠLi":5143,"VD":5144,"rolled":5145,"disambiguation":5146,"Ġrules":5147,"Be":5148,"ĠHead":5149,"SP":5150,"ĠCas":5151,"ĠCommon":5152,"Ġfamilies":5153,"ĠCa":5154,"Ġthr":5155,"ĠAut":5156,"Ġletter":5157,"Ġproduce":5158,"ãĤ":5159,"Ġenem":5160,"Ġ1943":5161,"ĠBaron":5162,"Ġprec":5163,"Ġadministration":5164,"ining":5165,"Ġbranch":5166,"Ġmedalists":5167,"ĠSquad":5168,"Ġpan":5169,"Ġarrived":5170,"Ġchap":5171,"real":5172,"Ä±":5173,"German":5174,"quarters":5175,"izes":5176,"ething":5177,"ĠCy":5178,"Ġnation":5179,"ĠSupreme":5180,"Ġproblem":5181,"ging":5182,"Ġsymb":5183,"Ġthink":5184,"Ġ1941":5185,"Ġinside":5186,"ÐµÐ½Ð¸":5187,"Ġgre":5188,"Ġtable":5189,"ĠCop":5190,"ĠMountain":5191,"Ġdirection":5192,"Canadian":5193,"Ġ1939":5194,"ĠJustice":5195,"Ġdie":5196,"inson":5197,"text":5198,"ĠStadium":5199,"ĠBoth":5200,"ĠChap":5201,"Ġdedicated":5202,"ieutenant":5203,"imin":5204,"Ġuns":5205,"ĠPremier":5206,"95":5207,"edom":5208,"Nov":5209,"By":5210,"Ġwinners":5211,"orado":5212,"amber":5213,"lementary":5214,"Ġblood":5215,"Ġsecurity":5216,"Ġpotential":5217,"World":5218,"Ġ1952":5219,"Ġfollows":5220,"Ġwinner":5221,"Ġ70":5222,"Ġpartn":5223,"187":5224,"Ġbehav":5225,"Ġequipment":5226,"Ac":5227,"Ġlaws":5228,"ĠPower":5229,"Ġattend":5230,"Ġgreen":5231,"ifying":5232,"Ne":5233,"Ġfifth":5234,"Ġofficially":5235,"oto":5236,"itled":5237,"ecting":5238,"yo":5239,"anga":5240,"SC":5241,"imal":5242,"Ġpp":5243,"raq":5244,"arrow":5245,"Ġdestroyed":5246,"ito":5247,"ĠBaseball":5248,"ternet":5249,"hemat":5250,"Ġasp":5251,"ĠLady":5252,"gs":5253,"Ġliterature":5254,"Ġgrowth":5255,"idae":5256,"Ġsport":5257,"Ġacademic":5258,"And":5259,"ovak":5260,"ĠIndepend":5261,"Ed":5262,"ĠFire":5263,"Ġfellow":5264,"ĠPoland":5265,"ĠBrother":5266,"Ã¸":5267,"oles":5268,"perial":5269,"Ġdrums":5270,"Ġoperating":5271,"Ġdistricts":5272,"Ġbasis":5273,"enes":5274,"Ġwalk":5275,"Ġbegins":5276,"Ġcommonly":5277,"Ġtypically":5278,"ĠDer":5279,"Ġprote":5280,"Ġoffers":5281,"ĠTal":5282,"ĠSev":5283,"Gr":5284,"Ġsn":5285,"ĠHarv":5286,"ĠHospital":5287,"aro":5288,"Ġperman":5289,"ĠSom":5290,"ĠDaniel":5291,"oud":5292,"Ġbackground":5293,"Ġfiction":5294,"ĠMaster":5295,"ĠWork":5296,"enge":5297,"ĠMinnesota":5298,"According":5299,"ĠNetwork":5300,"Ġrap":5301,"uv":5302,"ĠHong":5303,"iary":5304,"Ġdepartment":5305,"ĠChris":5306,"Ġsettlement":5307,"Ġprojects":5308,"Ġversions":5309,"ns":5310,"Ġ1954":5311,"2013":5312,"ĠDevelopment":5313,"Ġopportun":5314,"Ġimmediately":5315,"former":5316,"Ġ45":5317,"Ġcontrovers":5318,"Pop":5319,"Ġolder":5320,"Ġhosted":5321,"Ġconducted":5322,"Ġphysical":5323,"ayer":5324,"Ġserves":5325,"Ġcitizens":5326,"Ġdark":5327,"Ġparties":5328,"Ġreach":5329,"ĠDuke":5330,"icine":5331,"anth":5332,"ributed":5333,"lyn":5334,"Ġintended":5335,"OS":5336,"ĠConf":5337,"ĠSwiss":5338,"ĠBad":5339,"Ġyet":5340,"ãĥ":5341,"iat":5342,"ido":5343,"ĠSus":5344,"1994":5345,"Ġx":5346,"ivity":5347,"Ġinterp":5348,"ĠBishop":5349,"Ġlyric":5350,"ĠLo":5351,"2014":5352,"EC":5353,"oration":5354,"ographic":5355,"usc":5356,"part":5357,"Ġ90":5358,"Ġterritory":5359,"inity":5360,"Ġpurchased":5361,"ĠRem":5362,"Ġsemi":5363,"Ġrevealed":5364,"Ġdance":5365,"ĠFe":5366,"Ġmanagers":5367,"Ġbeat":5368,"itzerland":5369,"Ġpoliticians":5370,"rical":5371,"Ġ1953":5372,"ropolitan":5373,"Ġpromoted":5374,"iva":5375,"ordin":5376,"ĠRevolution":5377,"ĠHuman":5378,"Ġgas":5379,"88":5380,"Ġrepe":5381,"ighth":5382,"Ġstreng":5383,"Ġneeded":5384,"aud":5385,"ĠHal":5386,"Ġsens":5387,"athan":5388,"book":5389,"Ġrat":5390,"ĠSecretary":5391,"Ġblue":5392,"Ġinstitutions":5393,"tra":5394,"ĠNetherlands":5395,"ĠFox":5396,"Ġmax":5397,"Ġplanned":5398,"aped":5399,"ression":5400,"Ġovers":5401,"iques":5402,"Ġdistance":5403,"ĠÑĤ":5404,"Ġtal":5405,"Ġpra":5406,"Ġvote":5407,"Ġresident":5408,"Ġcombined":5409,"Ġ36":5410,"ui":5411,"Ġcoaches":5412,"Ġsaying":5413,"500":5414,"Ġwant":5415,"ĠHay":5416,"portation":5417,"ĠAsian":5418,"Ġfavor":5419,"Ġslow":5420,"Ġpaper":5421,"06":5422,"aska":5423,"Ġsites":5424,"ĠNations":5425,"07":5426,"uy":5427,"ansion":5428,"weight":5429,"Ġengineer":5430,"ĠSher":5431,"Ġdistribution":5432,"Ġnort":5433,"Ġstreet":5434,"onsin":5435,"ĠRet":5436,"ĠAnth":5437,"ĠElizabeth":5438,"ĠPers":5439,"ounded":5440,"Ġtreatment":5441,"aks":5442,"ĠLive":5443,"International":5444,"ĠAnton":5445,"Olympic":5446,"Ġgrew":5447,"ĠFederal":5448,"ader":5449,"ĠClark":5450,"isconsin":5451,"bs":5452,"University":5453,"LA":5454,"Ġtraffic":5455,"ĠMedia":5456,"acc":5457,"usion":5458,"bed":5459,"opher":5460,"aga":5461,"Ġillust":5462,"ova":5463,"ĠAtt":5464,"Ġmoving":5465,"Ġlies":5466,"eather":5467,"Ġpurs":5468,"agh":5469,"Notable":5470,"ĠCambridge":5471,"Ġtarget":5472,"ennessee":5473,"Ġprominent":5474,"Ġleaders":5475,"Ġpiano":5476,"outheast":5477,"MA":5478,"ĠÑĩ":5479,"Ġurban":5480,"Ġcounter":5481,"Ġassigned":5482,"Pr":5483,"MS":5484,"Ġtrains":5485,"iated":5486,"Ġ1951":5487,"ĠBall":5488,"Ġwa":5489,"ĠBol":5490,"Ġ1949":5491,"ĠSimon":5492,"ĠBooks":5493,"Ġgraduated":5494,"ĠBarb":5495,"Ġinstrument":5496,"ĠLt":5497,"ĠJunior":5498,"which":5499,"ĠCommunity":5500,"Ġplants":5501,"ocese":5502,"itness":5503,"zo":5504,"Ġquality":5505,"ĠFollowing":5506,"1992":5507,"ĠFame":5508,"odies":5509,"Ġwidely":5510,"rence":5511,"water":5512,"Ġrecover":5513,"isted":5514,"resh":5515,"Will":5516,"We":5517,"lem":5518,"ĠSenate":5519,"ĠGolden":5520,"You":5521,"ĠKir":5522,"Ġetc":5523,"Year":5524,"ĠAlso":5525,"En":5526,"ĠDespite":5527,"Ġflight":5528,"lers":5529,"ĠTok":5530,"ĠMarine":5531,"Ġsearch":5532,"Ġstra":5533,"Ġowner":5534,"Ġcharge":5535,"ĠCE":5536,"Ġactivity":5537,"ĠPrim":5538,"Ġrecon":5539,"Ġvan":5540,"SR":5541,"ĠRom":5542,"elligence":5543,"pper":5544,"Ġhop":5545,"ĠAbb":5546,"sey":5547,"Ġelections":5548,"ĠArmen":5549,"Ġscholars":5550,"Ġbad":5551,"ibliography":5552,"Biography":5553,"gn":5554,"yal":5555,"Ġconstitu":5556,"2015":5557,"present":5558,"esh":5559,"Äį":5560,"Ġcorrespond":5561,"ĠDown":5562,"ÅĤ":5563,"onents":5564,"ĠTechnology":5565,"Ġgraph":5566,"bro":5567,"Ġenter":5568,"ĠJon":5569,"Ġgiving":5570,"Ġbron":5571,"ĠKorean":5572,"Ġleaves":5573,"ixed":5574,"ening":5575,"Ġapproach":5576,"sky":5577,"58":5578,"Ġactually":5579,"Ġboy":5580,"ĠAh":5581,"Ġsyn":5582,"Ġrecently":5583,"ogs":5584,"Ġwithd":5585,"ĠPolice":5586,"Ġordered":5587,"1993":5588,"ĠTony":5589,"ĠCirc":5590,"ä½":5591,"ori":5592,"Ġdemonstr":5593,"Ġpeace":5594,"56":5595,"Ġscoring":5596,"Ġunknown":5597,"Ġmess":5598,"Ġpresence":5599,"alo":5600,"oln":5601,"Ġimpact":5602,"Ġarms":5603,"room":5604,"oli":5605,"1970":5606,"ĠJews":5607,"Ġfirm":5608,"Ġutil":5609,"Ġemployed":5610,"kin":5611,"Ġethn":5612,"ĠSwitzerland":5613,"Ġdigital":5614,"ĠHy":5615,"Ġcoming":5616,"ĠAff":5617,"inner":5618,"ÑģÐº":5619,"ĠBrook":5620,"Ġagreed":5621,"Ġmixed":5622,"Ġadopted":5623,"Ġfigure":5624,"Ġefforts":5625,"onent":5626,"weg":5627,"Ġsituated":5628,"aine":5629,"Ġmunicipalities":5630,"Ġrob":5631,"Ġcontent":5632,"Ġfast":5633,"Ġconcent":5634,"100":5635,"Ġindustrial":5636,"Ġ32":5637,"ĠBat":5638,"ĠOrgan":5639,"åħ":5640,"Ġclasses":5641,"Ġsuffered":5642,"aki":5643,"ĠSpring":5644,"Ġanalysis":5645,"Ġpack":5646,"Ġrecomm":5647,"Ġspirit":5648,"Geography":5649,"vest":5650,"acement":5651,"Ġpued":5652,"Ġprobably":5653,"ĠGreg":5654,"Ġestate":5655,"Ġretire":5656,"ĠArthur":5657,"Ġportion":5658,"Ġthings":5659,"Ġallows":5660,"ÐµÑĢ":5661,"Ġpet":5662,"iform":5663,"Res":5664,"Ġtrue":5665,"olid":5666,"ami":5667,"Ġhousehold":5668,"ĠSR":5669,"Ġpattern":5670,"achel":5671,"Ġtells":5672,"Ġchampion":5673,"asty":5674,"olved":5675,"Ġcaptured":5676,"edia":5677,"Ġforward":5678,"Ġroles":5679,"Ġattention":5680,"Ġrare":5681,"Ġrespectively":5682,"orders":5683,"Ġfish":5684,"anton":5685,"Television":5686,"lah":5687,"Ġwins":5688,"Ġmiles":5689,"ĠBec":5690,"Ġvari":5691,"Ġcannot":5692,"ĠWisconsin":5693,"ĠPrime":5694,"Ġdisease":5695,"ĠIndiana":5696,"Ġexpanded":5697,"ĠTaylor":5698,"iate":5699,"Ġcells":5700,"ĠBuild":5701,"ĠKel":5702,"rizona":5703,"Ġexecut":5704,"ibly":5705,"ĠStephen":5706,"ti":5707,"uls":5708,"Ġengineering":5709,"Ġcompared":5710,"57":5711,"ĠIraq":5712,"Ġlargely":5713,"Ġalg":5714,"ĠCountry":5715,"CD":5716,"Ġcolumn":5717,"enna":5718,"Ġnet":5719,"98":5720,"ooth":5721,"42":5722,"41":5723,"yes":5724,"ĠCzech":5725,"08":5726,"Ġprep":5727,"Ġsplit":5728,"anna":5729,"ĠLy":5730,"ĠReview":5731,"South":5732,"Ġclassical":5733,"Ġcomposer":5734,"ĠMunicip":5735,"incial":5736,"Ġsurrounding":5737,"Ġtemple":5738,"Ġsculpt":5739,"Ã©e":5740,"Ġsail":5741,"Ġvillages":5742,"Ġknowledge":5743,"Ġgives":5744,"ĠMemorial":5745,"96":5746,"Ġarts":5747,"1991":5748,"orph":5749,"ĠMarc":5750,"Ġcompeted":5751,"works":5752,"cluding":5753,"Ġtree":5754,"ĠSab":5755,"aron":5756,"itable":5757,"Ġtalk":5758,"ĠIv":5759,"TA":5760,"Ġtherefore":5761,"sex":5762,"Ġpositive":5763,"ĠEarl":5764,"Ġshop":5765,"ĠHockey":5766,"iders":5767,"ĠLewis":5768,"Ġtheatre":5769,"also":5770,"Ġcoin":5771,"ER":5772,"ĠMun":5773,"Ġsecret":5774,"ĠSweden":5775,"Ġformerly":5776,"ĠTennessee":5777,"Ð¾Ð¹":5778,"erto":5779,"ĠId":5780,"ĠTownship":5781,"Ġsales":5782,"SS":5783,"osophy":5784,"ĠSwedish":5785,"ĠHun":5786,"Ġabandon":5787,"Ġcrime":5788,"Co":5789,"ĠStudies":5790,"Ġcerem":5791,"ĠRegister":5792,"ĠDam":5793,"andy":5794,"ĠPit":5795,"urd":5796,"Ġagreement":5797,"ĠIndust":5798,"pur":5799,"eller":5800,"Ġfloor":5801,"Ġrestaur":5802,"Ġfell":5803,"ĠWalk":5804,"ĠProject":5805,"law":5806,"aret":5807,"Ġdisestabl":5808,"ĠWars":5809,"Ġeas":5810,"Ġgoes":5811,"osen":5812,"Ġadapt":5813,"Ġhundred":5814,"Ð»ÑĮ":5815,"2016":5816,"ĠNFL":5817,"osis":5818,"ervative":5819,"Com":5820,"Ġsays":5821,"ĠUt":5822,"ĠAnother":5823,"igrants":5824,"Ġgenus":5825,"ĠOrig":5826,"wing":5827,"ancing":5828,"ĠÐ·":5829,"ĠMelbourne":5830,"po":5831,"Ġcontemporary":5832,"Ã¢":5833,"Ġconnected":5834,"Ġgained":5835,"Ġfounder":5836,"ĠNorway":5837,"ika":5838,"restling":5839,"omot":5840,"ĠAlf":5841,"ĠNaz":5842,"apore":5843,"Ġprincipal":5844,"Ġcam":5845,"bums":5846,"Ġnewly":5847,"Ġpict":5848,"Ġspons":5849,"Ġinjury":5850,"Ġsubs":5851,"Ġresulting":5852,"ĠMarsh":5853,"Ġdial":5854,"ĠÎ":5855,"Ġspread":5856,"Ġvehicles":5857,"een":5858,"Ġaccepted":5859,"Art":5860,"Ġswim":5861,"Football":5862,"Ġjoint":5863,"aling":5864,"Ġvocal":5865,"mph":5866,"05":5867,"ĠCaptain":5868,"Ġtwice":5869,"Ġunique":5870,"ĠSav":5871,"Ġarchitecture":5872,"Ġroll":5873,"Ġlibrary":5874,"Ġtouch":5875,"aints":5876,"ĠGer":5877,"Ġtaught":5878,"regon":5879,"Ġir":5880,"Ã©t":5881,"Ġestimated":5882,"pool":5883,"Ġgranted":5884,"orge":5885,"Ġstone":5886,"Ġtrial":5887,"Ġalt":5888,"ĠRang":5889,"aug":5890,"ĠFamily":5891,"Ġairport":5892,"lease":5893,"Ġdeclared":5894,"Ġpressure":5895,"ĠRoss":5896,"Ġracing":5897,"uther":5898,"iling":5899,"Ġbott":5900,"Sources":5901,"Ġresulted":5902,"greg":5903,"Back":5904,"Ġmom":5905,"mes":5906,"Death":5907,"Ġlearning":5908,"Ġbronze":5909,"43":5910,"miss":5911,"Ġ1938":5912,"Ġspring":5913,"Ġperformances":5914,"97":5915,"ĠYour":5916,"Ġwild":5917,"ĠArea":5918,"Ġreduced":5919,"ĠCO":5920,"Ġsexual":5921,"ois":5922,"ji":5923,"Ġtitled":5924,"ĠProfessor":5925,"ĠColon":5926,"Ġ1936":5927,"ĠMissouri":5928,"ĠDun":5929,"ĠBusiness":5930,"Ġhap":5931,"Disc":5932,"joy":5933,"Ġproviding":5934,"ĠKentucky":5935,"Ġimage":5936,"Ġbal":5937,"Ġdesignated":5938,"ĠKansas":5939,"Ġcricket":5940,"AF":5941,"Ġdamage":5942,"ĠEP":5943,"tainment":5944,"ĠLev":5945,"Ġrecognized":5946,"ĠSquadron":5947,"ĠSciences":5948,"onym":5949,"Ġexperiment":5950,"Ġweight":5951,"ivals":5952,"ĠUs":5953,"can":5954,"Ġlabor":5955,"ĠĠĠĠĠĠĠ":5956,"mouth":5957,"Ġsamp":5958,"ĠMaria":5959,"Ġfacility":5960,"Ġmaintain":5961,"owa":5962,"estic":5963,"Ġfaculty":5964,"ĠManc":5965,"Ġunderst":5966,"ĠBi":5967,"ĠLind":5968,"ĠColorado":5969,"Des":5970,"ĠÐ½Ðµ":5971,"Ġheav":5972,"ĠTurkey":5973,"uese":5974,"Ġconflict":5975,"Ġteacher":5976,"ĠGreece":5977,"ĠHou":5978,"urches":5979,"eline":5980,"Ġattacks":5981,"ĠFinal":5982,"Ġcarri":5983,"Ġgra":5984,"Ġflag":5985,"Ġgreater":5986,"urer":5987,"hr":5988,"Ġcontact":5989,"ĠHoly":5990,"ĠEmperor":5991,"Ġstars":5992,"Ġaccomp":5993,"umes":5994,"unte":5995,"ĠForm":5996,"Def":5997,"ĠAtlantic":5998,"IA":5999,"har":6000,"lahoma":6001,"Ġencour":6002,"Ġcandidate":6003,"Ġhands":6004,"adesh":6005,"ÑĤÐ¸":6006,"Ġreference":6007,"Ġstrugg":6008,"roit":6009,"anes":6010,"leep":6011,"pa":6012,"yard":6013,"Ġkept":6014,"Ġwall":6015,"ĠBrad":6016,"rog":6017,"West":6018,"ĠMarg":6019,")\"":6020,"ĠWat":6021,"ingham":6022,"Ġpun":6023,"Ġminister":6024,"66":6025,"Ġmachine":6026,"Australian":6027,"å¤":6028,"emic":6029,"Ġparticipated":6030,"Ġpropos":6031,"Ġconcert":6032,"olished":6033,"Ġmill":6034,"ĠHart":6035,"Ġhar":6036,"key":6037,"stic":6038,"under":6039,"oster":6040,"Ġsuppl":6041,"Ġacting":6042,"www":6043,"Ġadministrative":6044,"1989":6045,"Ġpurpose":6046,"Ġserious":6047,"Ġfully":6048,"ĠDavis":6049,"77":6050,"aver":6051,"orney":6052,"Ġcharts":6053,"Ġsimply":6054,"rell":6055,"Ġcreation":6056,"adi":6057,"Ġrac":6058,"IC":6059,"'m":6060,"09":6061,"ĠStat":6062,"Ġmut":6063,"Ġgovernor":6064,"Ġdefin":6065,"ĠHan":6066,"zy":6067,"Ġtheme":6068,"Ġrom":6069,"Ġslight":6070,"istered":6071,"Ġbatt":6072,"rawn":6073,"ĠAdminist":6074,"Ġoccurred":6075,"incoln":6076,"Rail":6077,"Ġresources":6078,"ĠGil":6079,"hedral":6080,"Ġlake":6081,"Ġallowing":6082,"ĠChristmas":6083,"ĠCur":6084,"Ġhall":6085,"Ġthous":6086,"Ġpositions":6087,"Ġcontest":6088,"Ġcondition":6089,"Ġsuggest":6090,"ĠConc":6091,"Ġrural":6092,"ĠRepresentatives":6093,"Songs":6094,"Ġfair":6095,"Ġhousing":6096,"ĠBrian":6097,"Ġliber":6098,"Ġanimals":6099,"ifications":6100,"'.":6101,"à¤":6102,"ĠTrust":6103,"ĠEth":6104,"Ġlosing":6105,"claim":6106,"igration":6107,"from":6108,"Bas":6109,"ĠDiv":6110,"iminal":6111,"ĠMalays":6112,"ateur":6113,"ÑģÑı":6114,"irmed":6115,"Ġtele":6116,"Ġranked":6117,"PS":6118,"mun":6119,"Ð½Ð¸":6120,"ĠEngineering":6121,"Ġcastle":6122,"Ġnotes":6123,"Ġneighborhood":6124,"Ġoldest":6125,"Ġorganized":6126,"Ġregions":6127,"ĠHarry":6128,"erick":6129,"Ġcompletely":6130,"Ġcas":6131,"Ġclaims":6132,"UK":6133,"86":6134,"ĠLeon":6135,"Ã©n":6136,"Â°":6137,"Ġcouple":6138,"Ġsomething":6139,"zen":6140,"Ġcontain":6141,"Ġans":6142,"Ġjournalist":6143,"kes":6144,"ĠChampions":6145,"ĠPass":6146,"life":6147,"2017":6148,"Ð¾Ð½":6149,"ĠJer":6150,"chers":6151,"Ġmarked":6152,"ĠWrit":6153,"wealth":6154,"Ġcaptain":6155,"Ġcart":6156,"To":6157,"Ġaccident":6158,"01":6159,"ĠMilitary":6160,"Ġhistoric":6161,"æĪ":6162,"Japan":6163,"Ġbacking":6164,"ĠBattalion":6165,"outs":6166,"ĠKal":6167,"ructure":6168,"ĠHamp":6169,"Ġjourn":6170,"eral":6171,"elle":6172,"Ġcovers":6173,"ashion":6174,"ĠColl":6175,"Ġidentified":6176,"May":6177,"Fran":6178,"Ġgrowing":6179,"eding":6180,"52":6181,"ĠKhan":6182,"cont":6183,"Ġchalleng":6184,"Ġpasses":6185,"Ġyounger":6186,"see":6187,"asters":6188,"ĠTemple":6189,"Ġcritical":6190,"Ġlyrics":6191,"ĠPhilip":6192,"ĠChannel":6193,"59":6194,"ĠFrancis":6195,"Ġ1918":6196,"French":6197,"aria":6198,"Ġofficials":6199,"Ð¾Ð¶":6200,"Ġreceive":6201,"Ġsafety":6202,"acts":6203,"1988":6204,"cow":6205,"Ġfelt":6206,"ĠFle":6207,"Par":6208,"Ġcustom":6209,"Ġfans":6210,"ÑĢÐ¾":6211,"ĠCre":6212,"Ġeducated":6213,"ĠArizona":6214,"Ġreform":6215,"uma":6216,"Ġinhabit":6217,"Ġ1937":6218,"Ġsevent":6219,"lan":6220,"Ġwing":6221,"Ġcombat":6222,"tr":6223,"1987":6224,"enny":6225,"ownt":6226,"Ġconvers":6227,"ublin":6228,"Hon":6229,"Ġopera":6230,"Ġlot":6231,"western":6232,"Ġtower":6233,"ĠWeek":6234,"ĠBos":6235,"ĠBalt":6236,"ga":6237,"keep":6238,"je":6239,"wich":6240,"Ġreports":6241,"Ġvot":6242,"ĠOregon":6243,"Ġmaterials":6244,"ibb":6245,"raine":6246,"Ġcancer":6247,"Ġdocumentary":6248,"Ġchairman":6249,"ĠDor":6250,"anning":6251,"ĠNap":6252,"ĠStock":6253,"Act":6254,"Ġvisit":6255,"ĠHard":6256,"agan":6257,"Ġexisting":6258,"General":6259,"Ġvolume":6260,"iny":6261,"Ġhy":6262,"Ġvehicle":6263,"Ġexpected":6264,"Ġtim":6265,"Ġconsum":6266,"ĠQuebec":6267,"net":6268,"51":6269,"Ġwear":6270,"Ġsettled":6271,"ĠMaryland":6272,"Ġ...":6273,"oes":6274,"Qu":6275,"ordon":6276,"Ġeffort":6277,"wegian":6278,"ĠRoy":6279,"Ġleadership":6280,"Ab":6281,"Ġtried":6282,"iller":6283,"Ġsets":6284,"Ġmind":6285,"illery":6286,"54":6287,"ĠFree":6288,"Ġfestival":6289,"ĠPrin":6290,"Awards":6291,"Ġpaid":6292,"ician":6293,"oren":6294,"ista":6295,"Ġcab":6296,"Ġrecip":6297,"iants":6298,"Ġends":6299,"Ġcorrect":6300,"ĠEntertainment":6301,"ectic":6302,"IT":6303,"ĠKim":6304,"ĠBon":6305,"53":6306,"ressed":6307,"Ġformation":6308,"Ġbrothers":6309,"Bibliography":6310,"Ġbow":6311,"Ġbeaut":6312,"pet":6313,"Ġfinish":6314,"lywood":6315,"ĠGi":6316,"76":6317,"Ġsimple":6318,"ĠMinistry":6319,"ĠRen":6320,"ĠDVD":6321,"Ġfighting":6322,"Ġ*":6323,"ĠTrain":6324,"Ġpair":6325,"Ġloan":6326,"mers":6327,"ĠHo":6328,"ĠSem":6329,"ĠMic":6330,"Ġvess":6331,"Ġpolitics":6332,"Ġsupply":6333,"2018":6334,"Ġtry":6335,"What":6336,"roup":6337,"Ġmeasure":6338,"Ġburied":6339,"uses":6340,"ĠPolit":6341,"Ñī":6342,"Ġauthorities":6343,"Ġreviews":6344,"Ġcho":6345,"=#":6346,"ĠMiller":6347,"ĠBillboard":6348,"Ġ38":6349,"1986":6350,"Ġstream":6351,"Ġmap":6352,"å®":6353,"ials":6354,"Ġgirls":6355,"Ġsquare":6356,"Ġsuggested":6357,"Ġ1935":6358,"Ġfolk":6359,"GB":6360,"ĠSix":6361,"ĠHur":6362,"Ġtrust":6363,"Ġextra":6364,"ĠBack":6365,"ĠTelevision":6366,"ĠBurn":6367,"ĠFederation":6368,"ĠMas":6369,"isa":6370,"ĠStand":6371,"Ġtrees":6372,"Ġportray":6373,"Ġ33":6374,"ĠĠĠĠĠĠĠĠĠĠĠĠĠĠĠĠ":6375,"ĠSpace":6376,"Ġsides":6377,"elsh":6378,"Ġsay":6379,"imens":6380,"jo":6381,"Ġexpansion":6382,"Ġhorse":6383,"tters":6384,"endo":6385,"ĠÑĥ":6386,"1984":6387,"inder":6388,"Ġnormal":6389,"Ġarrang":6390,"Ġoccasion":6391,"ĠVietnam":6392,"Ġseem":6393,"Ġpowerful":6394,"ĠSin":6395,"ttp":6396,"Ġnecessary":6397,"Ġvalley":6398,"Ġcert":6399,"ĠSound":6400,"ĠTurn":6401,"rum":6402,"1983":6403,"Ġhero":6404,"ĠManchester":6405,"Cont":6406,"Ġsituation":6407,"Ġauthority":6408,"Ġmis":6409,"leased":6410,"Ġapart":6411,"Ġonto":6412,"ĠPier":6413,"Ġsac":6414,"Ġbought":6415,"Ġmethods":6416,"ĠCroat":6417,"Ġstock":6418,"ĠMoon":6419,"Ġfeet":6420,"Ġoccupied":6421,"ĠStory":6422,"Ġreserv":6423,"ĠIr":6424,"redited":6425,"\"),":6426,"Ġyards":6427,"ĠDoctor":6428,"ĠPhilippines":6429,"Ġmeant":6430,"ĠSingapore":6431,"Ġadvert":6432,"Ġmusician":6433,"cluded":6434,"ĠAD":6435,"Ġcreating":6436,"ĠVi":6437,"Ġmemory":6438,"ĠFord":6439,"ikh":6440,"Ġexchange":6441,"ĠNic":6442,"Ġsucceeded":6443,"uled":6444,"ĠPlaces":6445,"ĠArgentina":6446,"Ġtwenty":6447,"utt":6448,"endment":6449,"ĠHere":6450,"ques":6451,"Gu":6452,"æĺ":6453,"Ġdrive":6454,"Ġattempts":6455,"Ġagent":6456,"Ġinform":6457,"Ġdoub":6458,"ĠNev":6459,"ban":6460,"Ġrelatively":6461,"Since":6462,"Ġfrequently":6463,"aph":6464,"inally":6465,"ĠMexican":6466,"Ġdaily":6467,"Ġrot":6468,"Ġshowed":6469,"orf":6470,"Ġharm":6471,"ĠAustria":6472,"ĠHamilton":6473,"Ġteaching":6474,"03":6475,"ĠPlan":6476,"econd":6477,"dale":6478,"Ġheadquarters":6479,"inch":6480,"Äĥ":6481,"ĠShort":6482,"Ġadvanced":6483,"ĠHeart":6484,"Ġgod":6485,"AM":6486,"Dav":6487,"Ġraces":6488,"Ġmicro":6489,"organ":6490,"ĠHonor":6491,"Euro":6492,"Ġmorning":6493,"78":6494,"Ġaired":6495,"ĠTa":6496,"Ġdefined":6497,"Ġalternative":6498,"Ġeffective":6499,"aming":6500,"Ġneeds":6501,"ĠEconom":6502,"ĠTest":6503,"Ġscript":6504,"Ġvirt":6505,"ĠPoint":6506,"iot":6507,"oven":6508,"apolis":6509,"Ġmulti":6510,"ĠSunday":6511,"Ġroyal":6512,"2019":6513,"Ġvenues":6514,"Ġspot":6515,"Ġpromotion":6516,"ĠDisc":6517,"ĠDark":6518,"Ð¾Ð±":6519,"Ġarticles":6520,"Ġreturning":6521,"ĠIV":6522,"ieval":6523,"Ġenjoy":6524,"ĠEach":6525,"ĠRon":6526,"ĠReal":6527,"weet":6528,"ĠOklahoma":6529,"rees":6530,"Ġfigures":6531,"ĠTen":6532,"hu":6533,"ĠEric":6534,"1979":6535,"ĠOrchestra":6536,"Ġsingers":6537,"Ġcomput":6538,"Ð½Ð°":6539,"car":6540,"oured":6541,"Ġapplied":6542,"Ġgar":6543,"ĠDream":6544,"iones":6545,"Ġ1928":6546,"04":6547,"ĠWolf":6548,"ĠFM":6549,"ĠDesign":6550,"Å«":6551,"1985":6552,"While":6553,"ĠHand":6554,"ĠAud":6555,"Ġholds":6556,"ecticut":6557,"Ġsynt":6558,"achers":6559,"Ġfields":6560,"ĠHoward":6561,"Ġbrand":6562,"Ġdraft":6563,"Ġpod":6564,"everal":6565,"Ġvent":6566,"Ġcomo":6567,"ĠCemetery":6568,"ĠAM":6569,"ĠFer":6570,"'re":6571,"related":6572,"iplom":6573,"ĠSu":6574,"inth":6575,"Ġda":6576,"Ġhappen":6577,"ĠInfantry":6578,"Ġcompl":6579,"itter":6580,"ĠBoys":6581,"Ġplayoff":6582,"Build":6583,"ĠLincoln":6584,"Ġactions":6585,"Ġentry":6586,"ĠQueensland":6587,"Ġ1933":6588,"Ġrow":6589,"åĪ":6590,"Ġadult":6591,"ĠOd":6592,"ĠOp":6593,"Ġsons":6594,"Ġscientific":6595,"Ġsurn":6596,"ĠPu":6597,"ĠHu":6598,"fort":6599,"1960":6600,"ĠGall":6601,"bell":6602,"awn":6603,"evin":6604,"ĠMoscow":6605,"Ġ1919":6606,"Ġsense":6607,"Ġ1929":6608,"ĠTit":6609,"agu":6610,"Ġinspired":6611,"Ġlaunch":6612,"Ġrapid":6613,"Ġmerged":6614,"jan":6615,"Ð»Ñı":6616,"Dec":6617,"ĠDiego":6618,"Ġguest":6619,"Ġsubsequent":6620,"1982":6621,"Ġimpl":6622,"Ġcenturies":6623,"Ġpartner":6624,"ĠAdvent":6625,"Ġchosen":6626,"ĠStone":6627,"ensis":6628,"Ġconverted":6629,"Ġending":6630,"ropri":6631,"Ġ37":6632,"ĠDig":6633,"agen":6634,"Ġdat":6635,"Ġaudience":6636,"urance":6637,"hips":6638,"ĠIndones":6639,"Ġachieved":6640,"Ġprepar":6641,"Ital":6642,"wise":6643,"ĠLike":6644,"odox":6645,"ĠAmericans":6646,"Ġresc":6647,"Ġkil":6648,"ici":6649,"Ġ1914":6650,"Ġnominated":6651,"ĠÄ":6652,"Ġrespond":6653,"Ġfinds":6654,"ĠBowl":6655,"Ġconference":6656,"Ġdropped":6657,"irty":6658,"Ġmetres":6659,"64":6660,"Ġways":6661,"ĠNow":6662,"ĠTai":6663,"Ġcoal":6664,"ĠSon":6665,"Ġearth":6666,"çĶ":6667,"ĠNick":6668,"Ġwinter":6669,"Cast":6670,"lines":6671,"lets":6672,"Ġburn":6673,"Ġaim":6674,"ĠTs":6675,"Ġretirement":6676,"ĠLin":6677,"Ġletters":6678,"PA":6679,"ĠTurkish":6680,"Ġrefused":6681,"Christ":6682,"Ġproperties":6683,"ented":6684,"Ġethnic":6685,"ega":6686,"elve":6687,"Ġnarrow":6688,"Ġrain":6689,"uccess":6690,"appy":6691,"Ġcompilation":6692,"uing":6693,"Ġpassing":6694,"ulate":6695,"ĠBron":6696,"Some":6697,"ĠRun":6698,"gest":6699,"William":6700,"ĠOt":6701,"Former":6702,"Ġrh":6703,"Ġcommander":6704,"abama":6705,"Ass":6706,"ĠWho":6707,"Ġreject":6708,"Ġunable":6709,"ules":6710,"vo":6711,"Ġvs":6712,"ĠDave":6713,"Ġinhabitants":6714,"Ġproceed":6715,"02":6716,"ĠMedical":6717,"Ġbul":6718,"FM":6719,"iful":6720,"North":6721,"glas":6722,"ifically":6723,"ĠAuthor":6724,"Ġperforming":6725,"Ġfun":6726,"Ġbusinesses":6727,"ĠLabor":6728,"ugar":6729,"ogy":6730,"ĠPict":6731,"Ġstarring":6732,"Ġvotes":6733,"uly":6734,"eption":6735,"Ġcontaining":6736,"Ġpublication":6737,"antasy":6738,"ĠAcc":6739,"Ġrang":6740,"Ġ1932":6741,"è¿":6742,"ĠBuddh":6743,"box":6744,"iami":6745,"Ġenemy":6746,"enez":6747,"Ġ49":6748,"Ġprotection":6749,"Ð²Ð°":6750,"Ġvac":6751,"Ġexclus":6752,"ĠComics":6753,"Ġapplication":6754,"ek":6755,"Ġextensive":6756,"ĠCape":6757,"ĠModern":6758,"Ġpiece":6759,"1981":6760,"Ġrefers":6761,"ĠBeng":6762,"illing":6763,"Ġbasic":6764,"ĠRegional":6765,"Official":6766,"ĠServices":6767,"olas":6768,"ĠRose":6769,"ĠManagement":6770,"owntown":6771,"ographer":6772,"Video":6773,"Ġrisk":6774,"Following":6775,"ĠDal":6776,"ĠKey":6777,"ĠAnderson":6778,"Ġ1934":6779,"stream":6780,"Ġfunctions":6781,"ĠChile":6782,"89":6783,"Ġdriver":6784,"iti":6785,"Ġarrested":6786,"ĠWhat":6787,"ĠDublin":6788,"ĠLeb":6789,"Ġspect":6790,"oen":6791,"agues":6792,"Ġwrite":6793,"ĠCommand":6794,"Ġcycl":6795,"adow":6796,"Ġcompetitions":6797,"leges":6798,"ĠConnecticut":6799,"run":6800,"ĠMember":6801,"ĠJane":6802,"Ġyellow":6803,"anz":6804,"Ġguard":6805,"Ġstraight":6806,"ĠMach":6807,"Ġmayor":6808,"Ġhabit":6809,"Ġrival":6810,"Ġvir":6811,"ĠFront":6812,"uda":6813,"Ġnortheast":6814,"Ġlocations":6815,"phas":6816,"ĠAllen":6817,"Ġbroke":6818,"Ġnob":6819,"ados":6820,"Ġcomic":6821,"oly":6822,"ĠLegisl":6823,"Ġox":6824,"ho":6825,"ĠSilver":6826,"uties":6827,"fficient":6828,"Ġdistingu":6829,"Ġelimin":6830,"Ġimpr":6831,"ĠBah":6832,"Ġ1900":6833,"Ġinstall":6834,"Ġmel":6835,"Public":6836,"Ġactresses":6837,"olo":6838,"Ġcopies":6839,"ĠMagazine":6840,"yst":6841,"Ġseats":6842,"Ġ1924":6843,"ĠJesus":6844,"atus":6845,"iner":6846,"prise":6847,"uilt":6848,"mo":6849,"Ġbey":6850,"Ġjur":6851,"ĠSenior":6852,"iley":6853,"Ġjudge":6854,"Ġconstant":6855,"ĠWhit":6856,"ĠHouston":6857,"Ġcompar":6858,"ĠAge":6859,"Ġsignal":6860,"Ġjazz":6861,"ĠCost":6862,"Ġflood":6863,"ĠAlan":6864,"ĠOffic":6865,"ST":6866,"Ġattempted":6867,"orough":6868,"tsburgh":6869,"ĠPortuguese":6870,"Ġtun":6871,"ĠReb":6872,"Ġnuclear":6873,"iang":6874,"ĠOak":6875,"ĠAbd":6876,"Exp":6877,"ĠBrigade":6878,"ĠLas":6879,"ĠForces":6880,"Ġshared":6881,"ĠTrib":6882,"ĠWalter":6883,"ĠRecord":6884,"Ġapproved":6885,"''":6886,"Ġavoid":6887,"Ġsixth":6888,"Ġreligion":6889,"Ġsetting":6890,"cha":6891,"Ġbeyond":6892,"Ġincident":6893,"istant":6894,"Ġhotel":6895,"Ġentitled":6896,"Ġdefend":6897,"Ġsportspeople":6898,"Ġinstruct":6899,"come":6900,"iversary":6901,"Ġrecordings":6902,"ĠRugby":6903,"Ġ34":6904,"aby":6905,"Ġcommittee":6906,"bar":6907,"ĠSum":6908,"Ġfought":6909,"Ġ1917":6910,"Ġpilot":6911,"Ġcalls":6912,"ĠDick":6913,"Ġparliament":6914,"ymn":6915,"ÃŃn":6916,"aved":6917,"Ġroads":6918,"ĠGard":6919,"ĠRa":6920,"actions":6921,"Ġbegin":6922,"ĠPatrick":6923,"IN":6924,"Ġfuel":6925,"place":6926,"ĠLow":6927,"Ġmatter":6928,"Ġeconomy":6929,"Ġpermanent":6930,"ĠGallery":6931,"season":6932,"Ġvert":6933,"Ġapparent":6934,"style":6935,"Ġ1927":6936,"Sing":6937,"allas":6938,"iamond":6939,"1978":6940,"Ġheight":6941,"85":6942,"unch":6943,"ĠRad":6944,"ĠDu":6945,"allel":6946,"Ġreflect":6947,"Ġobtained":6948,"Ġhomes":6949,"Ġhyp":6950,"Ġconfirmed":6951,"ĠKat":6952,"ĠAdam":6953,"Ġhistorian":6954,"onder":6955,"acent":6956,"ĠDetroit":6957,"fit":6958,"ht":6959,"ples":6960,"92":6961,"ĠLat":6962,"ĠAC":6963,"burn":6964,"Ġles":6965,"hing":6966,"ĠMit":6967,"Ġsurvey":6968,"do":6969,"porter":6970,"thodox":6971,"Ġultimately":6972,"ĠDur":6973,"ipe":6974,"leveland":6975,"Ġquant":6976,"Ġlands":6977,"Ġpros":6978,"oa":6979,"hat":6980,"Ġring":6981,"ourses":6982,"Ġadap":6983,"Ġopposition":6984,"Ġ(),":6985,"set":6986,"ugu":6987,"ĠBeat":6988,"Ġderived":6989,"rant":6990,"Ġerr":6991,"ĠDomin":6992,"è¯":6993,"ĠLtd":6994,"orage":6995,"Ġglobal":6996,"Ġ1931":6997,"posed":6998,"Ġattacked":6999,"ĠBan":7000,"inema":7001,"Ġtemperature":7002,"fall":7003,"ĠPA":7004,"ardo":7005,"Ġweapons":7006,"encia":7007,"ĠAlabama":7008,"Ġtechnical":7009,"ĠHills":7010,"ĠLiter":7011,"Ġham":7012,"ĠIslamic":7013,"gers":7014,"ghan":7015,"Ġ1922":7016,"Ġdeploy":7017,"ĠSchools":7018,"riff":7019,"boards":7020,"Ġtend":7021,"Ġshortly":7022,"oslav":7023,"2020":7024,"Ġhydro":7025,"night":7026,"die":7027,"ĠBou":7028,"Ġeducational":7029,"ĠNik":7030,"Ġpowers":7031,"School":7032,"ĠChildren":7033,"Plot":7034,"ryst":7035,"Reg":7036,"friend":7037,"Ġescape":7038,"oming":7039,"ĠJam":7040,"Ġopposed":7041,"pass":7042,"Ġdoctor":7043,"hammad":7044,"OR":7045,"ĠSel":7046,"Ġcompris":7047,"Ġglass":7048,"ĠPot":7049,"ser":7050,"Ġacts":7051,"ogen":7052,"ĠSri":7053,"orter":7054,"93":7055,"Ġfounding":7056,"1974":7057,"Ġconnection":7058,"kh":7059,"arks":7060,"fr":7061,"ÐµÐ¼":7062,"Ġ1910":7063,"Rep":7064,"ĠLu":7065,"enz":7066,"GA":7067,"Phil":7068,"ussion":7069,"Ġheard":7070,"aux":7071,"Ġ1926":7072,"Ġ300":7073,"elson":7074,"ĠBuilding":7075,"Ð»Ð°":7076,"Ġdirectors":7077,"ĠWell":7078,"Sup":7079,"anger":7080,"åĲ":7081,"elli":7082,"ĠPope":7083,"1976":7084,"lined":7085,"argo":7086,"ivate":7087,"active":7088,"Ġsoccer":7089,"Ġadvant":7090,"ĠJacob":7091,"where":7092,"ĠStew":7093,"\").":7094,"Ġacid":7095,"udget":7096,"Ġconsecutive":7097,"Ġagricultural":7098,"ache":7099,"Ġplanning":7100,"ĠGram":7101,"iments":7102,"di":7103,"Ġoffices":7104,"EFA":7105,"ĠTy":7106,"Ġdoing":7107,"Ġ1921":7108,"ĠAffairs":7109,"ĠFellow":7110,"Ġrough":7111,"Ġanimal":7112,"Education":7113,"Born":7114,"Ġadvent":7115,"ĠEag":7116,"94":7117,"Ġrecru":7118,"Ġconsult":7119,"ĠColomb":7120,"Ġpassenger":7121,"Ġslightly":7122,"ĠDead":7123,"ĠLouisiana":7124,"Ġtrav":7125,"Ġactual":7126,"Ġprotect":7127,"Ġ(;":7128,"Ġvisited":7129,"ĠVis":7130,"imore":7131,"1977":7132,"itionally":7133,"Ġidentity":7134,"ropical":7135,"Ġbands":7136,"Ġconsisted":7137,"Ġboys":7138,"Car":7139,"ĠCommonwealth":7140,"Life":7141,"icians":7142,"rome":7143,"Ġnick":7144,"ĠCab":7145,"Ġexam":7146,"Ġpainting":7147,"Ġheavily":7148,"ĠSky":7149,"fe":7150,"ĠMand":7151,"Ġpages":7152,"ĠÑį":7153,"Over":7154,"Elect":7155,"while":7156,"Ġ1923":7157,"ĠElementary":7158,"sch":7159,"oyd":7160,"ĠSquare":7161,"igation":7162,"Ġstarts":7163,"My":7164,"ĠMoore":7165,"Ġrenov":7166,"Ġconce":7167,"ĠLabour":7168,"Ġsteel":7169,"ĠNich":7170,"Ġspok":7171,"Ġturns":7172,"ivalent":7173,"Ġ48":7174,"Ġcritics":7175,"Ġimprove":7176,"Ġpoetry":7177,"azines":7178,"casting":7179,"zz":7180,"Ġiron":7181,"Ġabandoned":7182,"ĠGordon":7183,"Ġrein":7184,"Ġkilling":7185,"ippi":7186,"ĠNag":7187,"ĠTokyo":7188,"ĠFIFA":7189,"Ġtrying":7190,"Although":7191,"ussian":7192,"ĠTig":7193,"Military":7194,"ĠForeign":7195,"ĠExpress":7196,"))":7197,"If":7198,"scape":7199,"ĠStudios":7200,"Ġreasons":7201,"ĠMPs":7202,"ĠAnthony":7203,"isms":7204,"Ġextrem":7205,"don":7206,"Ġdefense":7207,"ĠAli":7208,"ensity":7209,"Ġvo":7210,"issance":7211,"ordan":7212,"Ġrear":7213,"spec":7214,"Ġexperi":7215,"Ġmaximum":7216,"ĠPhill":7217,"Writ":7218,"ĠInformation":7219,"SI":7220,"Ãł":7221,"gency":7222,"ocation":7223,"ĠImp":7224,"gal":7225,"åĴ":7226,"Per":7227,"inners":7228,"fully":7229,"Ġentrance":7230,"idden":7231,"Ġhired":7232,"ĠTel":7233,"Ġchampions":7234,"Ġexistence":7235,"ĠPortugal":7236,"ovakia":7237,"Ġclimate":7238,"Ġpoll":7239,"Ġnorthwest":7240,"wen":7241,"rama":7242,"Ġtechniques":7243,"Major":7244,"Ġaged":7245,"ttps":7246,"Ġshape":7247,"umin":7248,"Ġchoice":7249,"orus":7250,"ographical":7251,"aza":7252,"Ġbelieve":7253,"ĠToday":7254,"Ġ1912":7255,"borough":7256,"ĠFinn":7257,"Ġspeech":7258,"ridges":7259,"ologies":7260,"Ġdecre":7261,"Ġprogramme":7262,"angel":7263,"eget":7264,"1975":7265,"Har":7266,"Ġpieces":7267,"amo":7268,"Ġdetermined":7269,"Ġ1925":7270,"Ġfailure":7271,"87":7272,"67":7273,"Ġwalls":7274,"ĠDouglas":7275,"ecution":7276,"erts":7277,"Ġplot":7278,"uration":7279,"ĠFriend":7280,"Ġ400":7281,"died":7282,"Ġauth":7283,"ĠLast":7284,"ĠSecurity":7285,"Ġindependence":7286,"Ġholding":7287,"othing":7288,"Ġstores":7289,"ĠAdv":7290,"vements":7291,"pan":7292,"mith":7293,"Ġpossess":7294,"enh":7295,"Ġstatistics":7296,"Women":7297,"Ġcommissioned":7298,"Ġnegot":7299,"1972":7300,"ĠBrothers":7301,"Tr":7302,"ĠKa":7303,"TC":7304,"ĠAmong":7305,"Ġrecognition":7306,"lad":7307,"ĠSport":7308,"Ġtall":7309,"Ġprofile":7310,"åľ":7311,"otic":7312,"----":7313,"Ġcausing":7314,"iki":7315,"ĠDeath":7316,"Background":7317,"ĠDa":7318,"ĠCour":7319,"ĠBerg":7320,"Ġtoward":7321,"Jan":7322,"risis":7323,"ĠSingh":7324,"Ġherself":7325,"First":7326,"Ġequal":7327,"Ġgrad":7328,"Ġpup":7329,"Ġcontributed":7330,"dam":7331,"ĠBuck":7332,"ĠHans":7333,"Ġdecades":7334,"ĠBefore":7335,"stitutional":7336,"Ġ{":7337,"Ġsust":7338,"iem":7339,"ĠGirls":7340,"ĠIowa":7341,"riev":7342,"ĠGarden":7343,"Ġgeneration":7344,"isf":7345,"Ġemphas":7346,"ĠCow":7347,"ige":7348,"Ġfram":7349,"ĠKings":7350,"Ġ(,":7351,"Ġlimit":7352,"Railway":7353,"ĠRegulations":7354,"åĴĮ":7355,"igious":7356,"1973":7357,"ĠIl":7358,"Ġscale":7359,"Mon":7360,"Ġsolid":7361,"stan":7362,"Ġbishop":7363,"Ġhill":7364,"Ġ1915":7365,"icts":7366,"Ġdecor":7367,"Ġstandards":7368,"Ġorders":7369,"Af":7370,"Ġbriefly":7371,"ĠFarm":7372,"ĠJoh":7373,"rine":7374,"uri":7375,"Ġenvironmental":7376,"ĠLyn":7377,"igenous":7378,"Ġmoment":7379,"apes":7380,"Leg":7381,"Ġdepend":7382,"ĠStaff":7383,"Ġextension":7384,"Ġ75":7385,"Ġreceiving":7386,"Ġtu":7387,"Ġmagn":7388,"Ġcorner":7389,"CAA":7390,"HS":7391,"nold":7392,"istol":7393,"Ġlocomot":7394,"Ste":7395,"tery":7396,"Albums":7397,"Cities":7398,"rait":7399,"%,":7400,"grade":7401,"Ġrequest":7402,"ĠmÃ¡s":7403,"65":7404,"Ġpolic":7405,"ĠThrough":7406,"ĠMontreal":7407,"Ġbillion":7408,"Ġbehavior":7409,"Ġhits":7410,"bra":7411,"Ġquite":7412,"ĠVillage":7413,"Ġliterary":7414,"Ġment":7415,"Ġskills":7416,"Ec":7417,"Buildings":7418,"ĠKam":7419,"91":7420,"Ġlicens":7421,"ĠThen":7422,"ĠThird":7423,"point":7424,"Ġarran":7425,"Ð¾ÑĢ":7426,"forc":7427,"poses":7428,"Ġrise":7429,"liest":7430,"Ġdies":7431,"Ġgrade":7432,"Ġapplications":7433,"Ġcontrast":7434,"Ġguns":7435,"ologists":7436,"Ġ42":7437,"High":7438,"Ġanth":7439,"Ġvalues":7440,"last":7441,"Ġcarry":7442,"ĠOcean":7443,"ĠIndependent":7444,"Ð¼Ð¸":7445,"anny":7446,"Ġexerc":7447,"ĠNorwegian":7448,"Ġmaintained":7449,"Ġexamples":7450,"ĠFal":7451,"found":7452,"ĠIsraeli":7453,"David":7454,"Ġideas":7455,"ĠBecause":7456,"ĠOnly":7457,"issippi":7458,"Ġfemales":7459,"Ġdisapp":7460,"ĠKl":7461,"Ãª":7462,"Ġstrength":7463,"Ġple":7464,"oria":7465,"Ġreaching":7466,"ouses":7467,"br":7468,"ĠVin":7469,"Ġsought":7470,"ailed":7471,"Ġsuburb":7472,"Ġlect":7473,"ĠAntonio":7474,"Ġintroduction":7475,"EA":7476,"aire":7477,"Ġcollected":7478,"ĠRick":7479,"Ġalleged":7480,"including":7481,"Ġoperate":7482,"haps":7483,"Ġcontained":7484,"Dr":7485,"Ant":7486,"anned":7487,"Ġsan":7488,"Ġhumans":7489,"osition":7490,"owned":7491,"ĠMiami":7492,"Ġinstalled":7493,"ÅŁ":7494,"1968":7495,"ĠPap":7496,"ĠâĢĺ":7497,"Ġinvasion":7498,"ĠMicro":7499,"Ġshall":7500,"ĠCall":7501,"á»":7502,"rete":7503,"Ġwor":7504,"ĠLang":7505,"ĠNaval":7506,"Ġinduct":7507,"Ġreduce":7508,"rane":7509,"Ġgetting":7510,"Ġdivers":7511,"Ġexact":7512,"osaur":7513,"Ġphase":7514,"ĠÑĢÐ°":7515,"ĠABC":7516,"ĠTar":7517,"IV":7518,"ĠRoberts":7519,"ĠErn":7520,"ĠBry":7521,"ĠArk":7522,"otte":7523,"rett":7524,"Ġsupporting":7525,"Ġ1908":7526,"åĬ":7527,"Ġobjects":7528,"Ġfactors":7529,"68":7530,"Ġgreatest":7531,"hard":7532,"Ġmus":7533,"song":7534,"Academ":7535,"rep":7536,"Ġregarding":7537,"bound":7538,"Ġpull":7539,"Most":7540,"ĠTamil":7541,"Ġalone":7542,"Ġbelief":7543,"Ġoccas":7544,"Ġ64":7545,"Ġfashion":7546,"rastructure":7547,"Ġfile":7548,"ĠWorks":7549,"ogan":7550,"olly":7551,"Ġban":7552,"ythm":7553,"asa":7554,"Ġseems":7555,"ĠGuide":7556,"ĠWelsh":7557,"eta":7558,"ĠLanc":7559,"Ġaid":7560,"Rel":7561,"Ġsand":7562,"ĠMrs":7563,"icide":7564,"father":7565,"ampton":7566,"ĠSpr":7567,"ĠGab":7568,"ouver":7569,"uster":7570,"alty":7571,"Europe":7572,"Best":7573,"æĸ":7574,"Ġrepresenting":7575,"Ġdrivers":7576,"Indian":7577,"obe":7578,"urday":7579,"inburgh":7580,"Ġeg":7581,"Roman":7582,"Ġ1916":7583,"Ġinternal":7584,"oviÄĩ":7585,"Ġthrow":7586,"ĠUN":7587,"Ġuser":7588,"ucks":7589,"usal":7590,"igo":7591,"long":7592,"Ġreign":7593,"Ġformal":7594,"ĠAP":7595,"Ġsale":7596,"ĠSeat":7597,"Ġlat":7598,"Ġwealth":7599,"Ġconsisting":7600,"spe":7601,"Ġintersection":7602,"eland":7603,"1950":7604,"Ġroutes":7605,"ĠRailroad":7606,"Expatriate":7607,"Ġsuccessfully":7608,"Ġdeveloping":7609,"Ġpremier":7610,"Ġsymbol":7611,"Ġpainter":7612,"Ġcauses":7613,"Ġopin":7614,"Ġdates":7615,"ĠKarl":7616,"equ":7617,"Ġscenes":7618,"ĠLet":7619,"ĠNa":7620,"Ġimages":7621,"olt":7622,"Ġped":7623,"Ġvisual":7624,"ĠWy":7625,"Ġappeal":7626,"ĠJuan":7627,"osm":7628,"Ġsoutheast":7629,"ĠDC":7630,"hematics":7631,"Ġprice":7632,"ĠMatthew":7633,"ĠAfghan":7634,"ĠImperial":7635,"Ġcrow":7636,"ĠKer":7637,"Ġcommit":7638,"ĠJay":7639,"Ġobserved":7640,"Scott":7641,"Ġchurches":7642,"Ġdiplom":7643,"Ġleads":7644,"Ġfranch":7645,"Ġwatch":7646,"Ġentirely":7647,"ĠBelgium":7648,"Ġfinishing":7649,"Ġpatients":7650,"ographics":7651,"achelor":7652,"1971":7653,"Ġelement":7654,"ĠHarris":7655,"oca":7656,"ĠDeb":7657,"Ġdynasty":7658,"Ġinvolving":7659,"ĠRoger":7660,"Ġchain":7661,"Ġdescription":7662,"eler":7663,"entially":7664,"Ġhair":7665,"Ñĸ":7666,"Ġvice":7667,"ÑĨÐ¸":7668,"ĠNA":7669,"Ġha":7670,"Ġfaith":7671,"ĠAst":7672,"ĠVo":7673,"III":7674,"Ġdomestic":7675,"Rober":7676,"term":7677,"dr":7678,"irds":7679,"Mich":7680,"Ġreally":7681,"Ġhour":7682,"Ġkick":7683,"Ġmist":7684,"ĠFall":7685,"chell":7686,"Ġcrossing":7687,"DA":7688,"Ġtranslation":7689,"Ġbodies":7690,"Ġstorm":7691,"Ġfocused":7692,"Ġinaug":7693,"Ġislands":7694,"arsh":7695,"ĠBuff":7696,"Ġwhy":7697,"after":7698,"ĠEarly":7699,"Ġcopy":7700,"agg":7701,"ĠZh":7702,"ĠHotel":7703,"ayan":7704,"ĠBilly":7705,"ĠEven":7706,"Ġanimated":7707,"erved":7708,"ĠOttoman":7709,"ĠAnne":7710,"Ġinterpret":7711,"Sportspeople":7712,"ĠUkraine":7713,"aduate":7714,"ÑĢÑĥ":7715,"cell":7716,"count":7717,"inking":7718,"Ġprint":7719,"ĠMetropolitan":7720,"Ġ1911":7721,"ishment":7722,"Ġprefer":7723,"Ġappoint":7724,"Reception":7725,"Ġmart":7726,"Ġchampionships":7727,"Ġinfluenced":7728,"Ġselection":7729,"LC":7730,"Ġstrike":7731,"Ġproved":7732,"ultan":7733,"Ġoccurs":7734,"Ġitems":7735,"Ġclosely":7736,"Ġrepresentative":7737,"Ġclean":7738,"lock":7739,"ĠMalaysia":7740,"Her":7741,"clusion":7742,"ĠInn":7743,"ĠOrthodox":7744,"Japanese":7745,"Ġestablishment":7746,"Ġnarr":7747,"ompson":7748,"iac":7749,"Ġtrained":7750,"ilk":7751,"Ġpurposes":7752,"Ġresistance":7753,"Ġadjacent":7754,"Ġjump":7755,"Ġpromote":7756,"Ġrailroad":7757,"ĠKaz":7758,"star":7759,"ĠPalace":7760,"Ġadapted":7761,"cussion":7762,"annels":7763,"icas":7764,"rainian":7765,"Ġprofession":7766,"ĠPublishing":7767,"Ġ;":7768,"heastern":7769,"rations":7770,"Ġedge":7771,"Ġeasily":7772,"ĠPrix":7773,"asure":7774,"oba":7775,"ĠPittsburgh":7776,"Ġjunior":7777,"Ġpartnership":7778,"ducing":7779,"emble":7780,"Ġmarg":7781,"tered":7782,"ĠHollywood":7783,"ĠRol":7784,"ĠIron":7785,"ĠStewart":7786,"Ġspecifically":7787,"Ġsubsid":7788,"Ġnegative":7789,"Ġincorporated":7790,"iverpool":7791,"Cent":7792,"San":7793,"itals":7794,"Ġ1913":7795,"ä¸Ģ":7796,"amic":7797,"iser":7798,"Ġregarded":7799,"Ġtor":7800,"Ġstrateg":7801,"iop":7802,"ĠAdministration":7803,"Ġpassengers":7804,"Ġfaced":7805,"1969":7806,"Ġwarn":7807,"Ġreturns":7808,"ĠInternet":7809,"Orig":7810,"Ġexpressed":7811,"leton":7812,"Ġfunding":7813,"ĠSn":7814,"Ġlawyer":7815,"Histor":7816,"Ġsomew":7817,"ishops":7818,"ÃŁ":7819,"Ġsynd":7820,"rm":7821,"abase":7822,"Ġimportance":7823,"ifer":7824,"Ġweather":7825,"Ġincome":7826,"Ġheat":7827,"host":7828,"gow":7829,"then":7830,"Ġcriminal":7831,"Ġfleet":7832,"rat":7833,"Ġfictional":7834,"ommod":7835,"Ġupd":7836,"Ġlegend":7837,"2021":7838,"ĠFac":7839,"Ġtrail":7840,"Ġtranslated":7841,"ugoslav":7842,"Ġlaid":7843,"Ġinvestigation":7844,"Ġengaged":7845,"ĠMem":7846,"Ġfactory":7847,"Ġruled":7848,"inter":7849,"ĠLawrence":7850,"Ġvide":7851,"Ġmand":7852,"Ġwaters":7853,"Ġsequence":7854,"Ġtwelve":7855,"Ġcourses":7856,"Ġresear":7857,"Ġcatal":7858,"Ġworldwide":7859,"ĠBruce":7860,"Ġdetails":7861,"Ġones":7862,"Ġdescribes":7863,"Club":7864,"etry":7865,"Ġsections":7866,"ĠOpera":7867,"ĠPur":7868,"Ġheads":7869,"isd":7870,"ente":7871,"Ġgain":7872,"Ġbirds":7873,"ĠCooper":7874,"idel":7875,"Ġax":7876,"ĠAle":7877,"Ġnickn":7878,"ĠHig":7879,"Ġparallel":7880,"ĠPear":7881,"Ġresigned":7882,"ancouver":7883,"Ġboat":7884,"Ġtail":7885,"ĠKy":7886,"Star":7887,"ĠDisney":7888,"ĠRabb":7889,"ĠNob":7890,"ĠTun":7891,"Ġcoordin":7892,"ĠKnight":7893,"Ġchemical":7894,"Ġrooms":7895,"bi":7896,"Ġ47":7897,"ĠSac":7898,"Ġassess":7899,"ĠKevin":7900,"Ġroof":7901,"ci":7902,"Ġsuperv":7903,"ON":7904,"Ġsurg":7905,"Ġcombination":7906,"ĠAthletic":7907,"uits":7908,"ĠVar":7909,"ÐºÐ°":7910,"Ġbill":7911,"bridge":7912,"Ġentertain":7913,"ĠCleveland":7914,"Ġstands":7915,"Ġcomposers":7916,"nia":7917,"des":7918,"ĠCrown":7919,"ĠSoc":7920,"Int":7921,"ä¹":7922,"Ġdivisions":7923,"mingham":7924,"ĠRound":7925,"83":7926,"othes":7927,"Ġdoor":7928,"Ġfoundation":7929,"Black":7930,"ĠHistorical":7931,"ĠPuerto":7932,"ĠHorn":7933,"Ġsell":7934,"ãĢģ":7935,"ĠLaure":7936,"Ġ39":7937,"enezuel":7938,"62":7939,"orig":7940,"Ġengines":7941,"Ġemployees":7942,"ĠRoc":7943,"Ġresidential":7944,"ĠPhys":7945,"ĠPa":7946,"Ġbroken":7947,"ĠRey":7948,"Ġintelligence":7949,"Ġquestions":7950,"Ġreleg":7951,"ĠMississippi":7952,"ÈĻ":7953,"Ġfresh":7954,"Ġprotein":7955,"ĠGa":7956,"icit":7957,"ĠEdinburgh":7958,"ĠAmb":7959,"Ġpersons":7960,"rong":7961,"ĠPed":7962,"Ġimproved":7963,"Ã´":7964,"Ġbottom":7965,"Ġsave":7966,"Ġedited":7967,"ĠHell":7968,"ĠDance":7969,"ĠRights":7970,"anch":7971,"pre":7972,"ĠCook":7973,"ĠTerrit":7974,"1967":7975,"Ġmerch":7976,"ĠNort":7977,"Ġadvance":7978,"ĠBasketball":7979,"ĠAtlanta":7980,"omy":7981,"Ġlooking":7982,"ĠMcG":7983,"Ġflu":7984,"ĠSee":7985,"Ġviews":7986,"Ġvoted":7987,"ĠGlas":7988,"vant":7989,"rÃ©":7990,"ĠPlace":7991,"à¸²":7992,"Ġski":7993,"Ġopportunity":7994,"ĠTreat":7995,"ĠMission":7996,"Ġconqu":7997,"ĠMcK":7998,"len":7999,"Ġastr":8000,"ĠWhe":8001,"Ġpossibly":8002,"Ġceremony":8003,"Medal":8004,"ĠRain":8005,"ushed":8006,"ĠPlayer":8007,"Ġproducing":8008,"ĠMountains":8009,"Ġconsequ":8010,"uki":8011,"Ġfunds":8012,"Ġcontrolled":8013,"rons":8014,"Ġcore":8015,"ĠBroadway":8016,"1964":8017,"ĠPC":8018,"Ġinjured":8019,"oustic":8020,"Athlet":8021,"Ġvolunte":8022,"Ġsoci":8023,"ĠBull":8024,"Ġpione":8025,"Ġexped":8026,"udi":8027,"Ġtries":8028,"clop":8029,"oni":8030,"84":8031,"ĠFrederick":8032,"Ġearliest":8033,"Ġjoining":8034,"Ġreplace":8035,"ĠVers":8036,"Ġdefensive":8037,"rops":8038,"Personnel":8039,"Ġille":8040,"Ð¾Ð³Ð¾":8041,"Ġshut":8042,"Ġgets":8043,"Ð¾Ð»ÑĮ":8044,"ĠPrincess":8045,"ĠPas":8046,"ĠHawai":8047,"emen":8048,"yers":8049,"Port":8050,"Ġreality":8051,"ĠEver":8052,"Ġgrounds":8053,"Populated":8054,"Ġdog":8055,"Ġguitarist":8056,"DP":8057,"ĠAgain":8058,"Ġgoods":8059,"Ġretail":8060,"ĠReport":8061,"Ġoperates":8062,"bishop":8063,"ĠNord":8064,"Ġcompete":8065,"Treat":8066,"aked":8067,"roc":8068,"Ġscheduled":8069,"nergy":8070,"avalry":8071,"Ã¥":8072,"Ġliteracy":8073,"Sch":8074,"yles":8075,"ĠHeritage":8076,"ĠClin":8077,"ĠWebsite":8078,"72":8079,"Ġlink":8080,"ĠGran":8081,"ĠHarvard":8082,"Ġdevice":8083,"Ġsinging":8084,"Ġancest":8085,"wall":8086,"mont":8087,"Ġneighbour":8088,"Ġstring":8089,"Ġviolence":8090,"ĠSurv":8091,"1966":8092,"GBT":8093,"ĠHom":8094,"Ġflat":8095,"Ġconvent":8096,"Part":8097,"MP":8098,"Ġteen":8099,"Ġri":8100,"ĠDak":8101,"Ġinvited":8102,"Pol":8103,"Play":8104,"ĠKennedy":8105,"ĠHop":8106,"Ġsole":8107,"61":8108,"bach":8109,"olph":8110,"ĠDean":8111,"Ġemot":8112,"ĠÃī":8113,"Ġregularly":8114,"hop":8115,"Ġseparated":8116,"ĠCru":8117,"Ġtypical":8118,"Ġpriest":8119,"ivo":8120,"Ġborders":8121,"ĠFund":8122,"Ð¾ÑĤ":8123,"Ġaccommod":8124,"Ġusers":8125,"ishments":8126,"ĠVic":8127,"ĠRussell":8128,"aceae":8129,"antly":8130,"Ġrepeated":8131,"file":8132,"ĠFurther":8133,"town":8134,"ĠBox":8135,"Ġelectronic":8136,"Ġvary":8137,"ĠFil":8138,"Ġbrain":8139,"ĠWing":8140,"Ġinterests":8141,"ĠDue":8142,"ĠRyan":8143,"RC":8144,"Ġterminus":8145,"ĠDallas":8146,"attan":8147,"ni":8148,"Ġ44":8149,"million":8150,"icop":8151,"Ġopposite":8152,"Ġaccur":8153,"Arch":8154,"Ġcalc":8155,"tenance":8156,"Ġworth":8157,"Ġphilosophy":8158,"ĠKo":8159,"insula":8160,"ĠAqu":8161,"ĠBaltimore":8162,"ĠYouth":8163,"Ġunderstanding":8164,"Ġequivalent":8165,"ducational":8166,"Ġuniform":8167,"Ġargued":8168,"going":8169,"Ġcooper":8170,"Ġmole":8171,"ĠYears":8172,"ester":8173,"ception":8174,"ĠFA":8175,"Ġcategory":8176,"Ġbond":8177,"74":8178,"Ġcorpor":8179,"Ġclimb":8180,"ĠAgency":8181,"Ġensure":8182,"æĺ¯":8183,"82":8184,"actor":8185,"cious":8186,"BI":8187,"orrow":8188,"ĠAI":8189,"Ġproced":8190,"Ġnotably":8191,"ners":8192,"odge":8193,"cient":8194,"ĠBrazilian":8195,"63":8196,"aman":8197,"James":8198,"Ġrevolution":8199,"Ġkid":8200,"aly":8201,"lete":8202,"Ġtur":8203,"August":8204,"ĠBlues":8205,"ĠCher":8206,"rak":8207,"etime":8208,"ĠMaur":8209,"zer":8210,"Ġplus":8211,"ailand":8212,"Spec":8213,"ĠChampion":8214,"Ð°Ð½Ð¸":8215,"Ġrich":8216,"Inter":8217,"Ġenl":8218,"Ġtouchdown":8219,"81":8220,"Ġeye":8221,"Ġsouthwest":8222,"Ġpurchase":8223,"leans":8224,"Ġterror":8225,"vi":8226,"ĠLieutenant":8227,"1965":8228,"Ġsubstant":8229,"edding":8230,"ĠGib":8231,"TS":8232,"2022":8233,"ÑģÑĤÐ²":8234,"Ġcrown":8235,"ĠTaiwan":8236,"Ġfine":8237,"ĠLov":8238,"Ġtheater":8239,"Demographics":8240,"Ġaf":8241,"Ġgang":8242,"ĠExecutive":8243,"ĠRub":8244,"Ġarmed":8245,"ĠNorman":8246,"Cal":8247,"ES":8248,"ĠGrant":8249,"Ġgarden":8250,"Ġconcluded":8251,"living":8252,"ĠJordan":8253,"Ġcu":8254,"ĠOnce":8255,"ĠLeban":8256,"ogle":8257,"ĠDenmark":8258,"ĠBomb":8259,"ĠAndre":8260,"ĠShah":8261,"Ġveget":8262,"ĠMorgan":8263,"power":8264,"Ġzone":8265,"ĠWard":8266,"ellite":8267,"ĠPeters":8268,"rik":8269,"Ġnothing":8270,"ĠEnt":8271,"ĠProduct":8272,"ĠCra":8273,"ĠSamuel":8274,"final":8275,"Ġclassic":8276,"ĠMargaret":8277,"Ġmeets":8278,"ĠHungarian":8279,"ĠRow":8280,"ĠBush":8281,"Paul":8282,"ĠHug":8283,"atherine":8284,"ĠBed":8285,"ĠGet":8286,"andom":8287,"ogether":8288,"ĠTrail":8289,"Ġcharges":8290,"Ġsurname":8291,"ĠCare":8292,"Ġowners":8293,"Ġwitness":8294,"ĠBart":8295,"Ġexhibition":8296,"Ġreaction":8297,"span":8298,"astery":8299,"ategy":8300,"Ġbed":8301,"ĠMilan":8302,"Ġaccompan":8303,"Bur":8304,"Ġ1890":8305,"Ġ51":8306,"mi":8307,"eless":8308,"sea":8309,"Ð´Ð°":8310,"icial":8311,"Ġ41":8312,"ĠKelly":8313,"Ġcontext":8314,"utation":8315,"ĠUpper":8316,"ĠLI":8317,"ĠPir":8318,"Ġcarbon":8319,"type":8320,"ĠLiverpool":8321,"Ġbudget":8322,"Ġcheck":8323,"ĠFern":8324,"ĠAlexand":8325,"ĠAlfred":8326,"Rich":8327,"ĠMethod":8328,"hetic":8329,"Ġadvantage":8330,"?\"":8331,"ĠEvans":8332,"Ġdocuments":8333,"aughters":8334,"aware":8335,"Å¾":8336,"Ġproducers":8337,"ĠKu":8338,"ĠGill":8339,"ĠHampshire":8340,"ĠRomania":8341,"Ġduty":8342,"unting":8343,"Ġagency":8344,"ĠPeace":8345,"ĠDefense":8346,"Ġflying":8347,"eas":8348,"ashi":8349,"ĠOri":8350,"ĠFinland":8351,"ĠAustin":8352,"Transportation":8353,"ĠNBA":8354,"Br":8355,"onian":8356,"ĠDanish":8357,"Sub":8358,"ĠJohnny":8359,"Ġdifference":8360,"ĠJimmy":8361,"lie":8362,"Ġtex":8363,"who":8364,"ĠCentury":8365,"Ġbra":8366,"ĠHungary":8367,"orses":8368,"Ġsurvived":8369,"ĠWalker":8370,"ĠAbout":8371,"ĠReserve":8372,"ĠRangers":8373,"Ġadvoc":8374,"ĠOur":8375,"exual":8376,"Ġbrown":8377,"åŃ":8378,"ĠWa":8379,"Ġ1906":8380,"Ġrestored":8381,"Ġdry":8382,"71":8383,"dy":8384,"Sim":8385,"lig":8386,"ĠLank":8387,"Ġflo":8388,"eway":8389,"ĠChristopher":8390,"Ġaer":8391,"Ġseconds":8392,"orkshire":8393,"Ep":8394,"Works":8395,"ĠKnow":8396,"Ġcalling":8397,"ĠEvery":8398,"Ġjobs":8399,"State":8400,"Vill":8401,"Ġcosts":8402,"oking":8403,"Ġ150":8404,"Ġobtain":8405,"Ġstating":8406,"ĠFive":8407,"Ġshowing":8408,"Jew":8409,"Ġcomed":8410,"Ġtank":8411,"orer":8412,"ĠJess":8413,"Ġnote":8414,"ĠLiberal":8415,"ĠBarry":8416,"Ġcolleges":8417,"ĠHend":8418,"ĠWoman":8419,"uins":8420,"Ġmotion":8421,"ĠOperation":8422,"icate":8423,"acle":8424,"Ġdistributed":8425,"Ġstarred":8426,"ĠSax":8427,"79":8428,"ĠThompson":8429,"Ġbit":8430,"Ġstatement":8431,"Ġcaught":8432,"Ġbroadc":8433,"illo":8434,"Ġcredited":8435,"Ġuniversities":8436,"Ġpaintings":8437,"Ġunf":8438,"empl":8439,"ĠThus":8440,"Defunct":8441,"Ġmort":8442,"Ġevolution":8443,"ĠMess":8444,"Ġoverl":8445,"ĠOrleans":8446,"Ġappropri":8447,"Ġdidn":8448,"EP":8449,"eton":8450,"erse":8451,"Ġarchae":8452,"orro":8453,"ĠVerm":8454,"Ġimprison":8455,"Ġcapture":8456,"Pres":8457,"ĠVik":8458,"Ġstret":8459,"mphony":8460,"ĠLl":8461,"ĠGary":8462,"Ġ43":8463,"ĠBrooklyn":8464,"ĠDonald":8465,"ĠEnvironment":8466,"Ġaffected":8467,"ĠLith":8468,"away":8469,"ĠOfficer":8470,"ĠMunicipality":8471,"ureau":8472,"ĠLocal":8473,"Ġsession":8474,"Ġstorage":8475,"ĠBetween":8476,"bal":8477,"ĠTrade":8478,"oda":8479,"Ġfan":8480,"Ġfavour":8481,"March":8482,"Ġtransportation":8483,"ĠGon":8484,"Ġcomposition":8485,"Bar":8486,"Ġjourney":8487,"Bel":8488,"Ġoutput":8489,"Ġreserve":8490,"ĠConstitution":8491,"Ġfeed":8492,"ĠMetro":8493,"ĠBroadcasting":8494,"!\"":8495,"mat":8496,"ĠNav":8497,"Ġbelonged":8498,"ĠJosÃ©":8499,"Ġaudio":8500,"Ġdriving":8501,"ĠFranklin":8502,"Ġtrip":8503,"ĠSeattle":8504,"ĠVice":8505,"Ġnom":8506,"Ġdamaged":8507,"Pre":8508,"Ġrivers":8509,"Ġconstituency":8510,"atures":8511,"ĠCampbell":8512,"Ġgraduate":8513,"Ġstanding":8514,"ĠSaturday":8515,"seud":8516,"Ġmine":8517,"inian":8518,"ĠVancouver":8519,"ĠCommander":8520,"Ġdegrees":8521,"AN":8522,"ĠVolume":8523,"Ġrequirements":8524,"osure":8525,"Ġdispl":8526,"Ġassass":8527,"Ġkilomet":8528,"Ġcards":8529,"Ġplanet":8530,"ĠTrophy":8531,"Ġdesigns":8532,"Ġpercussion":8533,"ĠBirmingham":8534,"Ġsteam":8535,"ocratic":8536,"Ġbran":8537,"ĠSud":8538,"Ġmilit":8539,"Ġpool":8540,"Ġinterior":8541,"ĠPalest":8542,"Ġfly":8543,"Ġchannels":8544,"Ġbatter":8545,"Ġchance":8546,"Ġrequires":8547,"ĠÐ¾Ð±":8548,"Ġ52":8549,"Ġmyth":8550,"DF":8551,"ranean":8552,"Ġanniversary":8553,"Ġcolonial":8554,"Ġchose":8555,"rene":8556,"Ġiniti":8557,"ĠWol":8558,"```":8559,"cia":8560,"How":8561,"Crit":8562,"ĠShip":8563,"Ġresidence":8564,"Ġveter":8565,"Ġrestaurant":8566,"Ġretained":8567,"ĠNelson":8568,"ĠBorough":8569,"IP":8570,"Ġ<":8571,"ĠSaf":8572,"lon":8573,"Ġcourts":8574,"Ġbiggest":8575,"Ġkingdom":8576,"ĠNatural":8577,"Ġfreedom":8578,"Ġeyes":8579,"Ġ1905":8580,"Ġdowntown":8581,"Ġinstruments":8582,"ĠThough":8583,"73":8584,"ĠRap":8585,"69":8586,"Ġaccused":8587,";\"|":8588,"Ġmir":8589,"ĠConfeder":8590,"Ġtack":8591,"ĠFather":8592,"Ġ1909":8593,"ĠPrimary":8594,"Ġfactor":8595,"Ġpopularity":8596,"Ð»Ðµ":8597,"Two":8598,"atur":8599,"Ġ55":8600,"ML":8601,"Mc":8602,"resents":8603,"ĠYorkshire":8604,"Ġdecade":8605,"writers":8606,"fish":8607,"ompl":8608,"Ġcoverage":8609,"Ġnor":8610,"Ġtell":8611,"ĠStanley":8612,"ĠUtah":8613,"uous":8614,"abad":8615,"Ġdetermine":8616,"Ġhouseholds":8617,"Ġownership":8618,"ĠWindows":8619,"ĠLower":8620,"ĠChall":8621,"ĠÐ·Ð°":8622,"iah":8623,"Ġaware":8624,"aste":8625,"Ġsun":8626,"Dist":8627,"mary":8628,"Ġisol":8629,"estyle":8630,"Ġcharged":8631,"ĠLane":8632,"incinn":8633,"Ġclin":8634,"ĠStars":8635,"ĠVideo":8636,"ĠLam":8637,"ĠChart":8638,"OC":8639,"ĠOm":8640,"Ġpoly":8641,"iors":8642,"Ġdoct":8643,"iece":8644,"Ġdoll":8645,"Ġ65":8646,"ĠAuthority":8647,"Ġcommunication":8648,"Ġtick":8649,"Ġmedieval":8650,"à¸²à¸":8651,"Ġunderstand":8652,"Ġ**":8653,"ĠNar":8654,"Ġpoem":8655,"Ġmedium":8656,"ĠIndonesia":8657,"phone":8658,"ĠBlood":8659,"ĠNiger":8660,"Ġrejected":8661,"Ġgolf":8662,"OM":8663,"Ġprisoners":8664,"soft":8665,"1963":8666,"Ġcircum":8667,"Ġsuggests":8668,"Ġmouth":8669,"ĠCatal":8670,"Ġteachers":8671,"ĠÐ»":8672,"ĠTower":8673,"ancer":8674,"iere":8675,"ĠDJ":8676,"Ġparent":8677,"ĠNash":8678,"Ġjurisd":8679,"cons":8680,"ovo":8681,"aja":8682,"Ġreception":8683,"ĠSi":8684,"ĠNCAA":8685,"Robert":8686,"chi":8687,"Ġ1907":8688,"ĠThailand":8689,"ĠJerry":8690,"Ġgene":8691,"incinnati":8692,"Ġcommitted":8693,"App":8694,"roke":8695,"ĠRacing":8696,"ED":8697,"ĠDom":8698,"Ġstopped":8699,"Ġseventh":8700,"ĠCass":8701,"obby":8702,"ĠMorris":8703,"ĠUpon":8704,"ishers":8705,"ĠAndy":8706,"Ġdifferences":8707,"Ġextremely":8708,"ĠPun":8709,"Ġassistance":8710,"plete":8711,"load":8712,"ĠMind":8713,"Ġ1904":8714,"Ġpraised":8715,"ĠHold":8716,"agar":8717,"ĠHindu":8718,"ĠGlasgow":8719,"mod":8720,"ĠJazz":8721,"rot":8722,"Ġphen":8723,"Ġspeak":8724,"Production":8725,"ĠColonel":8726,"ĠMotor":8727,"fare":8728,"Ġrout":8729,"Ġbanks":8730,"ĠNative":8731,"Ġattached":8732,"Ġcup":8733,"Mod":8734,"Ġoption":8735,"Ġcycle":8736,"Ġanything":8737,"ĠSupport":8738,"orith":8739,"ĠGlobal":8740,"Mal":8741,"rov":8742,"1962":8743,"ĠFood":8744,"ĠLib":8745,"Ġdivor":8746,"ivan":8747,"1940":8748,"Ġsignificantly":8749,"ĠVenezuel":8750,"ĠArmenian":8751,"ĠIndians":8752,"Ġprovincial":8753,"Ġfest":8754,"ĠCollection":8755,"ĠMans":8756,"Desc":8757,"Ġphotograph":8758,"Ġduties":8759,"Ġexperienced":8760,"ĠMix":8761,"ĠMond":8762,"Ġliqu":8763,"Ġreferences":8764,"ocol":8765,"ĠÐ³":8766,"Ġdisestablished":8767,"MC":8768,"heme":8769,"Ġsynthes":8770,"ĠMarket":8771,"Ġdrawn":8772,"top":8773,"Ġlov":8774,"Ġcapable":8775,"1945":8776,"Ġcontributions":8777,"Later":8778,"ĠIan":8779,"Ġrepresents":8780,"Ġselling":8781,"Station":8782,"Ġadmitted":8783,"Ġpitch":8784,"ĠUEFA":8785,"Ġpublications":8786,"zi":8787,"ĠCEO":8788,"ĠRobinson":8789,"ĠAlberta":8790,"SU":8791,"Ġsoundtrack":8792,"Min":8793,"Ġhosts":8794,"ĠCrit":8795,"ĠDaily":8796,"Ġundert":8797,"Ġcold":8798,"Ġlearned":8799,"ĠSeveral":8800,"ĠAustrian":8801,"pha":8802,"acon":8803,"Ġfinals":8804,"Ġnewspapers":8805,"'ll":8806,"ĠPsych":8807,"ĠGulf":8808,"rafted":8809,"Ġassumed":8810,"Ġprepared":8811,"Ġinfrastructure":8812,"Ġpresidential":8813,"ĪĴ":8814,"aku":8815,"Ġbrig":8816,"ĠBible":8817,"Ġparticipate":8818,"Ġcous":8819,"Ġenh":8820,"ĠAlliance":8821,"ĠChen":8822,"Ġlinked":8823,"ĠJun":8824,"Ġunsuccess":8825,"Discography":8826,"ĠBase":8827,"ibbean":8828,"hattan":8829,"ĠÃ©":8830,"ĠVienna":8831,"Ġappearing":8832,"fessional":8833,"Ġreplacement":8834,"Ġexpression":8835,"Ġdelay":8836,"Ġdescend":8837,"Ġsomeone":8838,"Ġtesting":8839,"Ġ59":8840,"ĠAssoci":8841,"Ġmagazines":8842,"ĠDerby":8843,"mate":8844,"Ġtennis":8845,"opal":8846,"Ġpicture":8847,"ĠDyn":8848,"ĠBernard":8849,"ĠLuther":8850,"Ġdismiss":8851,"Donald":8852,"Ġtechnique":8853,"ĠGener":8854,"encing":8855,"ĠYugoslav":8856,"ĠSarah":8857,"Ġcollaboration":8858,"ĠFried":8859,"Ã¶r":8860,"Ġfired":8861,"Ġswimming":8862,"hand":8863,"ĠRy":8864,"Ġotherwise":8865,"Ġsort":8866,"oret":8867,"Ġfalls":8868,"inding":8869,"ĠSecret":8870,"master":8871,"ĠMall":8872,"Ġpractices":8873,"fiction":8874,"Ġdevices":8875,"Ġinstitution":8876,"Ġentering":8877,"Ġmountains":8878,"Ġemp":8879,"Ġoffering":8880,"Ġmanga":8881,"ĠCommunications":8882,"Ġmanufacturing":8883,"Ġcomponents":8884,"Ġ46":8885,"Ġregiment":8886,"ĠÐ°":8887,"Ġsegment":8888,"Ġshel":8889,"Ġanch":8890,"ibl":8891,"Ġterritories":8892,"ĠNever":8893,"arest":8894,"eo":8895,"AP":8896,"Ġwave":8897,"ĠMes":8898,"Ġfranchise":8899,"Ġdiagn":8900,"inces":8901,"ilst":8902,"otten":8903,"ĠJose":8904,"Ġsnow":8905,"Ġunus":8906,"Ġpublishing":8907,"ĠGuy":8908,"ĠFel":8909,"Ġrecept":8910,"lington":8911,"iko":8912,"Ġarrival":8913,"Ġvideos":8914,"olia":8915,"Ã¨re":8916,"June":8917,"Ġadaptation":8918,"Ġrend":8919,"Ġchair":8920,"George":8921,"Ġabsor":8922,"Ġmales":8923,"ĠLad":8924,"Ġdeleg":8925,"ĠBeg":8926,"Ang":8927,"pping":8928,"ĠSC":8929,"Ġaggreg":8930,"ĠAdditionally":8931,"ĠCarter":8932,"Ġdemand":8933,"LP":8934,"abled":8935,"Ev":8936,"ĠLegislative":8937,"force":8938,"Ġwine":8939,"Ġqualified":8940,"Ġarranged":8941,"ĠChamber":8942,"ĠTob":8943,"Ġcarrying":8944,"ĠMurray":8945,"Ġsecretary":8946,"Ġaccompl":8947,"ĠAngl":8948,"Ġpeaked":8949,"rehens":8950,"urers":8951,"iable":8952,"Ġdesigner":8953,"Ġwounded":8954,"ĠChand":8955,"Ġthick":8956,"uru":8957,"Ġahead":8958,"Ġoffensive":8959,"door":8960,"Ġrestrict":8961,"ĠTraining":8962,"Ġexecuted":8963,"Ġinvent":8964,"Ġinher":8965,"rock":8966,"ĠHum":8967,"Ġstood":8968,"isb":8969,"anian":8970,"Ġsleep":8971,"released":8972,"ĠHas":8973,"BM":8974,"itars":8975,"Musical":8976,"1961":8977,"enger":8978,"Ġspiritual":8979,"Ġinput":8980,"ĠScient":8981,"Ġrunner":8982,"Ġkeyboards":8983,"ĠCole":8984,"Ġweekly":8985,"ĠTigers":8986,"Ġign":8987,"Ġexplos":8988,"Ġcandidates":8989,"Ġ1880":8990,"Ġstreets":8991,"Ġinnov":8992,"rip":8993,"ashed":8994,"ython":8995,"Ġtask":8996,"otan":8997,"ĠMayor":8998,"Ġfishing":8999,"Ġlit":9000,"finals":9001,"hill":9002,"Ġscientists":9003,"ĠWright":9004,"Ġprotest":9005,"formance":9006,"Current":9007,"rix":9008,"Ġalco":9009,"Ġregistered":9010,"rend":9011,"Ġstages":9012,"Ð°ÑĤÑĮ":9013,"assador":9014,"ĠWayne":9015,"Ro":9016,"egas":9017,"Ġmedicine":9018,"ĠGriff":9019,"Air":9020,"Ġencounter":9021,"Ġconcerns":9022,"Ġcoaching":9023,"ĠLost":9024,"oenix":9025,"mosp":9026,"abilities":9027,"Ġorchestra":9028,"abil":9029,"Ġtransition":9030,"Ġplatforms":9031,"Ġinterested":9032,"Ġmembership":9033,"Ġ1903":9034,"issue":9035,"Ġmessage":9036,"usalem":9037,"Ġresign":9038,"utions":9039,"Ġassault":9040,"Ġ1901":9041,"Ġviolin":9042,"Ġsin":9043,"ET":9044,"ĠFalls":9045,"Ġdelivered":9046,"ĠTak":9047,"Ġscheme":9048,"ĠMap":9049,"ĠSaints":9050,"ails":9051,"Ġsuccessor":9052,"ture":9053,"uer":9054,"Ġcoastal":9055,"isode":9056,"Ġanime":9057,"Ġplane":9058,"tha":9059,"Ġimag":9060,"Ġelse":9061,"jamin":9062,"Fictional":9063,"stances":9064,"feld":9065,"Ġachieve":9066,"Ġsed":9067,"Ġgrant":9068,"Ġdating":9069,"Ġsignif":9070,"ĠMuhammad":9071,"Ġaccompanied":9072,"ĠJohann":9073,"Ġheaded":9074,"ĠInvest":9075,"Ġaspects":9076,"ÑģÑĤÐ¸":9077,"din":9078,"Ġadding":9079,"ĠNon":9080,"Ġplate":9081,"Ġmental":9082,"ĠAdams":9083,"1959":9084,"Ġsevere":9085,"Ġcatch":9086,"Ġclassified":9087,"ĠGraham":9088,"Ġtools":9089,"amps":9090,"ĠCollins":9091,"Ġprize":9092,"iterranean":9093,"inea":9094,"ĠCarn":9095,"ĠCulture":9096,"Ġsoil":9097,"Ġbeach":9098,"ĠJason":9099,"July":9100,"ĠNova":9101,"Italian":9102,"Ġcelebrated":9103,"ĠConvention":9104,"alia":9105,"Ġcovering":9106,"iph":9107,"Ġprime":9108,"April":9109,"avan":9110,"Ġperhaps":9111,"Ġfilmed":9112,"ÐºÐ¸":9113,"Ġlanding":9114,"ĠHit":9115,"udden":9116,"zh":9117,"Ã¶n":9118,"Ġ1902":9119,"'ve":9120,"Honours":9121,"ictions":9122,"commun":9123,"antine":9124,"Ġincorpor":9125,"Ġnaval":9126,"Ġprotected":9127,"Ġbat":9128,"ĠSerbia":9129,"Ġprocesses":9130,"ĠCarlos":9131,"Ġintel":9132,"amental":9133,"ĠMi":9134,"EN":9135,"rypt":9136,"Ġsolution":9137,"ĠAR":9138,"ĠPage":9139,"chang":9140,"ĠMort":9141,"ĠCBS":9142,"ĠEmer":9143,"Ġfal":9144,"Ġjustice":9145,"ophone":9146,"oard":9147,"iri":9148,"Ġshooting":9149,"elaide":9150,"ificial":9151,"essions":9152,"1958":9153,"Medalists":9154,"ĠDNA":9155,"ĠComb":9156,"Ġtas":9157,"ĠSoccer":9158,"September":9159,"Ġmeasures":9160,"Ġpreced":9161,"Ġreplacing":9162,"Ġbon":9163,"election":9164,"aments":9165,"Ġsubd":9166,"1930":9167,"Ġrenew":9168,"Ġanswer":9169,"ĠSeason":9170,"winning":9171,"boy":9172,"icance":9173,"Ġskin":9174,"Ġreun":9175,"ĠPad":9176,"riel":9177,"Ġpoets":9178,"Ġmining":9179,"ĠCuba":9180,"Ġcool":9181,"ĠProm":9182,"Ġeval":9183,"Ġfrag":9184,"Ġsubjects":9185,"ework":9186,"DC":9187,"Ġeth":9188,"ĠNHL":9189,"European":9190,"ivated":9191,"Ġweak":9192,"build":9193,"Ġdepending":9194,"othy":9195,"ĠML":9196,"Ġmedals":9197,"Ġhang":9198,"Ġlegislation":9199,"Ġexpert":9200,"October":9201,"ĠProtest":9202,"ĠRef":9203,"ĠRud":9204,"Em":9205,"Ġminute":9206,"ĠMack":9207,"Ġfilled":9208,"Ġlicense":9209,"Ġfixed":9210,"ĠMarshall":9211,"Ġjunction":9212,"eful":9213,"ĠAnna":9214,"ç»":9215,"Ġcited":9216,"uble":9217,"ĠSoul":9218,"ĠSpeed":9219,"Ġrelative":9220,"profit":9221,"Tax":9222,"Ġhorror":9223,"ĠSite":9224,"ĠMother":9225,"ĠRest":9226,"ĠHunter":9227,"Bus":9228,"ders":9229,"Ġchapter":9230,"Ġinsc":9231,"udes":9232,"Ġdream":9233,"atters":9234,"ĠKon":9235,"ĠBranch":9236,"ĠFight":9237,"ielder":9238,"ĠMedicine":9239,"ĠNeg":9240,"ĠParish":9241,"web":9242,"Ġtied":9243,"Ġstayed":9244,"ĠRichmond":9245,"ĠEss":9246,"folk":9247,"ĠLanguage":9248,"Ġpenalty":9249,"ĠControl":9250,"ĠTan":9251,"background":9252,"Ġago":9253,"ĠMadrid":9254,"Ġsupposed":9255,"ĠAgric":9256,"eed":9257,"hum":9258,"Ã«":9259,"ĠAlaska":9260,"ĠNazi":9261,"Ġhur":9262,"ĠCart":9263,"Michael":9264,"Ġinstance":9265,"uin":9266,"ĠIns":9267,"asi":9268,"ĠSeven":9269,"acht":9270,"Ġmodified":9271,"ĠHeb":9272,"osph":9273,"Ġvalid":9274,"ÑĩÐµ":9275,"Ġlists":9276,"ĠEqu":9277,"Ġpron":9278,"orial":9279,"Ġorganisation":9280,"Ġdemolished":9281,"person":9282,"Ġevening":9283,"Ġcolour":9284,"Ġbranches":9285,"atern":9286,"ĠCamer":9287,"Ġchallenge":9288,"Ġspoken":9289,"ribute":9290,"ĠSpirit":9291,"Ġmaintenance":9292,"Ġbes":9293,"ĠTheater":9294,"ĠAthletics":9295,"ĠRobin":9296,"Ġindicate":9297,"Ġpolicies":9298,"åĽ":9299,"Ġgrass":9300,"1956":9301,"Ġthousands":9302,"log":9303,"ÑĦ":9304,"uest":9305,"ĠKan":9306,"ĠManhattan":9307,"ĠDub":9308,"ĠUkrainian":9309,"ĠAy":9310,"ugs":9311,"ags":9312,"Mark":9313,"Ġprompt":9314,"ĠSongs":9315,"ĠOrange":9316,"Ġmissions":9317,"å°":9318,"Ġbusinessman":9319,"aptist":9320,"pat":9321,"Ġinjuries":9322,"Ġtemporary":9323,"otype":9324,"Ġbroadcasting":9325,"Ġfiled":9326,"atically":9327,"1957":9328,"oro":9329,"ĠBangl":9330,"isations":9331,"Ġoccupation":9332,"hus":9333,"ĠAld":9334,"Ġcriticized":9335,"Ġid":9336,"Ġarc":9337,"Ġexisted":9338,"raham":9339,"ĠEnergy":9340,"ĠSymphony":9341,"1955":9342,"asp":9343,"ĠBenn":9344,"Ġroughly":9345,".âĢĿ":9346,"Que":9347,"apping":9348,"aired":9349,"Im":9350,"stery":9351,"ĠNevada":9352,"athy":9353,"Ġmanner":9354,"ĠJudge":9355,"ctic":9356,"ĠRena":9357,"Ġdefeating":9358,"Ġdestruct":9359,"Red":9360,"Ġmonarch":9361,"ĠAfghanistan":9362,"Ġrates":9363,"eoples":9364,"ĠKr":9365,"know":9366,"ĠNet":9367,"ĠModel":9368,"ĠCathedral":9369,"ĠSS":9370,"Ġhip":9371,"Ġexception":9372,"ĠSocorro":9373,"ĠSie":9374,"Ġknock":9375,"Ġentertainment":9376,"ĠHud":9377,"mates":9378,"Ġfear":9379,"cm":9380,"ĠÐ¾ÑĤ":9381,"ĠJerusalem":9382,"ĠMitchell":9383,"Ġfrequency":9384,"Oper":9385,"ĠDog":9386,"Ġsuit":9387,"Nor":9388,"enses":9389,"ĠCommunist":9390,"using":9391,"Ġremember":9392,"ĠNBC":9393,"PC":9394,"claimed":9395,"rating":9396,"isition":9397,"later":9398,"ÑĩÐ¸":9399,"rica":9400,"Ġwarm":9401,"rena":9402,"angerous":9403,"def":9404,"ĠBud":9405,"Ġheritage":9406,"Ġcrash":9407,"Ġstrategy":9408,"ĠBaker":9409,"ĠRand":9410,"Ġ54":9411,"ourg":9412,"Political":9413,"osing":9414,"Ġaqu":9415,"ĠWW":9416,"arus":9417,"Ġsquadron":9418,"Ġperfect":9419,"ĠLud":9420,"ĠÃł":9421,"Ġwindow":9422,"ĠSign":9423,"ĠChem":9424,"Ġsurrounded":9425,"Stud":9426,"Ġeasy":9427,"Ġalgorith":9428,"ubb":9429,"ĠArabic":9430,"reation":9431,"ĠBuffalo":9432,"ĠCharlie":9433,"So":9434,"haw":9435,"Ġhelping":9436,"icon":9437,"ĠLock":9438,"Ġportrayed":9439,"Ġresponsibility":9440,"opes":9441,"ĠTele":9442,"Up":9443,"ĠDakota":9444,"ĠRio":9445,"ĠAT":9446,"Ġsigning":9447,"East":9448,"but":9449,"Ġfil":9450,"ÑĤÐ°":9451,"Ġamateur":9452,"body":9453,"resses":9454,"ĠVel":9455,"ĠSid":9456,"ĠMaj":9457,"Ġwheel":9458,"harm":9459,"ĠBristol":9460,"Ġprohib":9461,"Ġcredit":9462,"ĠZone":9463,"ĠGun":9464,"ĠMarie":9465,"Ġcredits":9466,"Class":9467,"Ġromantic":9468,"ĠSultan":9469,"cyclop":9470,"Ġmovements":9471,"ĠPrefect":9472,"ĠLINE":9473,"Ġcrowd":9474,"Ġpian":9475,"ĠLimited":9476,"ĠCaribbean":9477,"ĠEdition":9478,"mund":9479,"Ġmobile":9480,"Ġrif":9481,"unes":9482,"Ġparks":9483,"Ġauthors":9484,"ĠSecondary":9485,"Post":9486,"Ġagencies":9487,"ĠGiants":9488,"Ġagriculture":9489,"War":9490,"Ġgrown":9491,"Spanish":9492,"ĠRomanian":9493,"Ġinvestment":9494,"ä»¥":9495,"Ġsoul":9496,"Jewish":9497,"ĠArchitect":9498,"December":9499,"oga":9500,"Ġjournalists":9501,"ĠUnit":9502,"ĠClassic":9503,"ducer":9504,"Ġcircuit":9505,"ĠFrid":9506,"Ġcrisis":9507,"ĠJenn":9508,"Alumni":9509,"hl":9510,"Ġstruck":9511,"otal":9512,"miral":9513,"Ġvenue":9514,"terior":9515,"Ġcollections":9516,"Ġflows":9517,"Ġsomewhat":9518,"ĠMean":9519,"Ġmac":9520,"ĠBurg":9521,"ĠÐµ":9522,"ĠDrive":9523,"ĠLINEAR":9524,"NC":9525,"Ġsteps":9526,"Cons":9527,"ĠPictures":9528,"Ġsanct":9529,"eenth":9530,"ribed":9531,"ierra":9532,"Ġga":9533,"uka":9534,"Treaties":9535,"Ġsecure":9536,"Description":9537,"Ġvictims":9538,"ema":9539,"Ġrating":9540,"Ġcanc":9541,"ĠAlt":9542,"ĠCricket":9543,"merce":9544,"Ġcontroversy":9545,"ivation":9546,"ĠMuslims":9547,"Ġfinding":9548,"Ġcriticism":9549,"Ġextens":9550,"enberg":9551,"Ġphr":9552,"Ġdiscip":9553,"\":":9554,"Ġbird":9555,"Ġcomics":9556,"ĠBureau":9557,"lean":9558,"Ġoccasionally":9559,"Ġvic":9560,"ĠEsp":9561,"ĠExt":9562,"Ġmemorial":9563,"ĠAdelaide":9564,"SW":9565,"Ġsuff":9566,"Gl":9567,"Ġinterchange":9568,"ĠNep":9569,"Ġjudges":9570,"nce":9571,"Ġnav":9572,"ĉĊ":9573,"Ġmode":9574,"Ġmit":9575,"ĠSteel":9576,"ĠTransport":9577,"sters":9578,"ĠRav":9579,"Ġscholar":9580,"Ġathletes":9581,"ntil":9582,"ĠAer":9583,"Ġpersonality":9584,"forcement":9585,"Ġvisitors":9586,"Ġmob":9587,"ĠÐ²Ñĭ":9588,"Ġ53":9589,"enson":9590,"oj":9591,"ĠConservative":9592,"coming":9593,"atar":9594,"Ġchanging":9595,"castle":9596,"Ġcommemor":9597,"itime":9598,"Ġ1898":9599,"Ġlongest":9600,"Ġbear":9601,"anner":9602,"SO":9603,"ĠChairman":9604,"ĠMichel":9605,"Ret":9606,"Ġ1000":9607,"Ġstrip":9608,"However":9609,"ĠLeeds":9610,"PR":9611,"à¦":9612,"incorporated":9613,"trans":9614,"Ġexperiences":9615,"ĠHarrison":9616,"Ġwooden":9617,"pop":9618,"Ġhat":9619,"ĠFull":9620,"unny":9621,"ĠMars":9622,"Ġorient":9623,"Ġdaughters":9624,"Ġserial":9625,"ĠStra":9626,"lett":9627,"Ġride":9628,"Male":9629,"Ġshif":9630,"Second":9631,"ĠPatri":9632,"ĠGlen":9633,"ĠAmaz":9634,"ĠSingles":9635,"pir":9636,"Ð¾Ð·":9637,"Ð¾Ðº":9638,"mel":9639,"ĠMeg":9640,"__":9641,"ontin":9642,"ulu":9643,"iza":9644,"ĠAssistant":9645,"ĠType":9646,"Ġnetworks":9647,"Ġelevation":9648,"Radio":9649,"ĠDays":9650,"ĠStre":9651,"Ġteach":9652,"ÑģÐ¿":9653,"Ġpainted":9654,"aders":9655,"ĠNi":9656,"east":9657,"van":9658,"rior":9659,"Ġexpedition":9660,"Bet":9661,"amer":9662,"ĠLear":9663,"http":9664,"ĠChang":9665,"Ġbattles":9666,"irk":9667,"ournament":9668,"erbai":9669,"Ġhuge":9670,"Ġshore":9671,"ĠPhot":9672,"iest":9673,"arked":9674,"Ġ120":9675,"Ã±a":9676,"ĠFleet":9677,"Ġturning":9678,"Ġswitch":9679,"ĠFitz":9680,"Ġformally":9681,"Ġshell":9682,"Ġsafe":9683,"Gallery":9684,"Ġdebuted":9685,"Ġmeters":9686,"ĠTerry":9687,"emale":9688,"ĠDragon":9689,"Ġadopt":9690,"ĠElectric":9691,"ĠArkansas":9692,"ulum":9693,"alph":9694,"Ġdrum":9695,"Ġphilos":9696,"Ġinstrumental":9697,"Ġsoldier":9698,"oom":9699,"ĠCensus":9700,"ĠSlovakia":9701,"Charts":9702,"ounced":9703,"MI":9704,"ĠBeck":9705,"Ġcompletion":9706,"Ġreleases":9707,"keeper":9708,"Ġraise":9709,"ĠTol":9710,";\"":9711,"Russian":9712,"ÑĢÑĭ":9713,"Ġvolumes":9714,"VP":9715,"vision":9716,"eto":9717,"ĥ½":9718,"Fl":9719,"Ġster":9720,"ĠCincinnati":9721,"ĠLP":9722,"Ġhappened":9723,"ĠWrestling":9724,"Ġattorney":9725,"Ġbuy":9726,"ĠAbbey":9727,"Ġsax":9728,"1953":9729,"Ġpoems":9730,"Ġopinion":9731,"Ġnone":9732,"ĠUnd":9733,"Ġdecline":9734,"Ġwithdraw":9735,"ĠFab":9736,"Ġnations":9737,"Ġremainder":9738,"Ġconvicted":9739,"ĠPav":9740,"\";":9741,"wers":9742,"Ġframe":9743,"ĠDigital":9744,"Ġshares":9745,"Ġaffairs":9746,"ĠBass":9747,"Ġreputation":9748,"Ġ1870":9749,"bow":9750,"ĠPeru":9751,"Northern":9752,"Ġrose":9753,"ictionary":9754,"Footballers":9755,"rystal":9756,"Ġinfluential":9757,"Ġgender":9758,"Ġprocessing":9759,"Ġcounties":9760,"gressive":9761,"garia":9762,"igrated":9763,"stad":9764,"Ġrepro":9765,"ĠIce":9766,"Ġsentenced":9767,"Ġmissed":9768,"acre":9769,"sson":9770,"ĠDefence":9771,"Ag":9772,"These":9773,"Ġve":9774,"Ġforests":9775,"Me":9776,"Count":9777,"They":9778,"Ġhear":9779,"ĠCapital":9780,"ĠPack":9781,"Ġlap":9782,"Ġconst":9783,".'":9784,"Ġgather":9785,"Î±":9786,"Ġtempor":9787,"encer":9788,"ĠNation":9789,"Ġboundary":9790,"ĠPant":9791,"ĠRico":9792,"ivia":9793,"Ð´Ðµ":9794,"ebraska":9795,"Ġguitars":9796,"January":9797,"Villages":9798,"Scottish":9799,"oi":9800,"Ġpapers":9801,"Ġrelief":9802,"Ġeffectively":9803,"ĠDeputy":9804,"Out":9805,"è®":9806,"ĠLiving":9807,"ushing":9808,"ĠPrior":9809,"ĠGoogle":9810,"Ġtact":9811,"Ġfold":9812,"Ġcongress":9813,"uart":9814,"ĠUC":9815,"cut":9816,"Ġdescribe":9817,"November":9818,"Ġforming":9819,"marine":9820,"Ġmarkets":9821,"ĠÐ¿Ð¾":9822,"hai":9823,"Ġacoustic":9824,"Ġconsiderable":9825,"Ġcousin":9826,"ĠAber":9827,"pm":9828,"umi":9829,"Ġneut":9830,"igs":9831,"Ġannually":9832,"Ġexplained":9833,"Ġsatisf":9834,"ĠMovement":9835,"Ġthin":9836,"ĠLGBT":9837,"Ġadvis":9838,"Ġmonument":9839,"Ġsignificance":9840,"Ġdepos":9841,"Ã©r":9842,"ĠAlbum":9843,"1939":9844,"nic":9845,"Ġgay":9846,"ĠKap":9847,"ĠRoll":9848,"pers":9849,"ĠJava":9850,"iper":9851,"ilty":9852,"ĠSenator":9853,"ĠOrganization":9854,"Ġequipped":9855,"ĠContin":9856,"music":9857,"alg":9858,"Ġ1899":9859,"ĠPortland":9860,"achi":9861,"1954":9862,"ĠLarry":9863,"uncredited":9864,"Ġweapon":9865,"alities":9866,"à¸Ļ":9867,"Ġunderground":9868,"Ġdeclined":9869,"Ġuseful":9870,"ĠKeith":9871,"Ġrent":9872,"agers":9873,"racts":9874,"1952":9875,"ĨĴ":9876,"brid":9877,"obb":9878,"Ġdeparture":9879,"Ä«":9880,"Ġhelicop":9881,"kov":9882,"Ġchildhood":9883,"pent":9884,"ĠLions":9885,"Ġeverything":9886,"ĠPolitical":9887,"Another":9888,"ĠSic":9889,"Ġdub":9890,"ingly":9891,"Ġ().":9892,"Ð²Ð¸":9893,"igg":9894,"Ġcamera":9895,"Ġlicensed":9896,"aba":9897,"Ġbiography":9898,"formerly":9899,"Ġelder":9900,"Ġvessels":9901,"izer":9902,"Ġbringing":9903,"oked":9904,"Ġartillery":9905,"Ġlasted":9906,"ffield":9907,"Ġinvolvement":9908,"ĠSalv":9909,"Ġincreasingly":9910,"Ġchoose":9911,"ls":9912,"ĠFisher":9913,"Ġtests":9914,"andal":9915,"rity":9916,"uli":9917,"Ġmovies":9918,"ĠGray":9919,"ĠMong":9920,"aco":9921,"Organ":9922,"eda":9923,"ĠApple":9924,"country":9925,"DS":9926,"eneg":9927,"Cap":9928,"Ġrelationships":9929,"iento":9930,"Ġemergency":9931,"keley":9932,"Ġ250":9933,"Ġdebate":9934,"ĠÐ¿ÑĢÐ¸":9935,"arat":9936,"ffee":9937,"ĠConstant":9938,"Ġactivist":9939,"eded":9940,"ĠGreater":9941,"ĠSr":9942,"Ġthing":9943,"Ġclassification":9944,"Ġcontinuing":9945,"Ġatmosp":9946,"hered":9947,"anto":9948,"ĠIsa":9949,"Add":9950,"Ġbeautiful":9951,"usted":9952,"Ġcable":9953,"ĠJama":9954,"ĠWor":9955,"ĠBuddhist":9956,"ĠCR":9957,"Ġ1895":9958,"called":9959,"ĠYank":9960,"ÐµÐ½Ð¸Ñı":9961,"Ġsuicide":9962,"300":9963,"ĠColombia":9964,"Tour":9965,"ĠCroatia":9966,"Ġfantasy":9967,"ĠMaine":9968,"cks":9969,"Ġdensity":9970,"ĠProfessional":9971,"Ġstyles":9972,"ĠChron":9973,"ellion":9974,"ĠSerbian":9975,"Ġfruit":9976,"ĠVas":9977,"hor":9978,"Ġworship":9979,"imo":9980,"Ġlosses":9981,"teenth":9982,"Ġsees":9983,"Ġcenters":9984,"Ġparam":9985,"ĠCanal":9986,"icus":9987,"ĠUlt":9988,"Ġrescue":9989,"Ġswit":9990,"Ġtheat":9991,"izar":9992,"Ġnurs":9993,"1948":9994,"Ġmarketing":9995,"ĠEncyclop":9996,"Ġexternal":9997,"ricane":9998,"izations":9999,"Ġexists":10000,"ĠWarner":10001,"ĠAthens":10002,"ĠByz":10003,"Ġpopulations":10004,"Ġhistorians":10005,"Ġproposal":10006,"annon":10007,"1920":10008,"ĠEthiop":10009,"isch":10010,"such":10011,"Ġconcrete":10012,"ĠYam":10013,"Ġthemes":10014,"ĠMak":10015,"Ġcharacteristics":10016,"ripts":10017,"Ġvision":10018,"Top":10019,"ĠMult":10020,"ĠDelhi":10021,"Flor":10022,"ĠStudio":10023,"Ġsurgery":10024,"Ġblocks":10025,"mediate":10026,"ĠSoft":10027,"Ġinvolves":10028,"ĠChel":10029,"ĠBorn":10030,"eria":10031,"Ġterminal":10032,"ĠStandard":10033,"bb":10034,"Ġod":10035,"ĠSprings":10036,"ĠPin":10037,"ĠPil":10038,"oka":10039,"Ġ1897":10040,"Ġpric":10041,"Ġcontroversial":10042,"Ø§":10043,"Ġcomponent":10044,"Ġaccounts":10045,"Ġwrong":10046,"ĠBarbara":10047,"Ġconnect":10048,"Ġsuspended":10049,"Ġexcell":10050,"æĿ":10051,"ĠCultural":10052,"ĠLuis":10053,"otton":10054,"Ġpublisher":10055,"Ġeffic":10056,"ĠFreedom":10057,"ĠWarren":10058,"Ġmoder":10059,"Ġspaces":10060,"Ġapartment":10061,"Ġ56":10062,"Ġpremiered":10063,"aha":10064,"Ġ1896":10065,"ĠHab":10066,"Ġbenefit":10067,"orous":10068,"Ġdrop":10069,"ewhere":10070,"Ġfled":10071,"ento":10072,"odore":10073,"Ġsurf":10074,"Ġpreserved":10075,"etta":10076,"Ġassign":10077,"ĠPradesh":10078,"ĠFinnish":10079,"Ġillegal":10080,"Ġdomain":10081,"á¹":10082,"ĠSystems":10083,"stown":10084,"Ġdefinition":10085,"ĠSnow":10086,"Ġenters":10087,"ĠMediterranean":10088,"ĠParker":10089,"orp":10090,"Ġrebuilt":10091,"chester":10092,"Ġsufficient":10093,"ĠCode":10094,"Mart":10095,"Ġpap":10096,"Ġcrosses":10097,"Ġwrest":10098,"ĠPlant":10099,"ĠKit":10100,"ukee":10101,"ĠBey":10102,"erk":10103,"Ġassembly":10104,"Ġmoves":10105,"ĠVictorian":10106,"ĠBuch":10107,"Ġdenied":10108,"Ġtherap":10109,"yll":10110,"Many":10111,"Ġeat":10112,"fire":10113,"Ġrecommended":10114,"ĠDiocese":10115,"Ġmassive":10116,"break":10117,"Ġadvertising":10118,"rez":10119,"Ġrecommend":10120,"Hz":10121,"igion":10122,"Ġgreatly":10123,"Ġphotography":10124,"Ġtribes":10125,"ĠBobby":10126,"abel":10127,"Ġknew":10128,"ĠÑı":10129,"åı¯":10130,"ipper":10131,"Ġidentify":10132,"Tom":10133,"ĠHawaii":10134,"1942":10135,"ĠVermont":10136,"anni":10137,"geon":10138,"iration":10139,"ampa":10140,"ĠBrisb":10141,"Ġsend":10142,"ĠCold":10143,"ĠBenjamin":10144,"Ġrepr":10145,"ĠFace":10146,"ĠNorm":10147,"Ġ1885":10148,"Ġschedule":10149,"ĠUrban":10150,"Ġresemb":10151,"lar":10152,"itis":10153,"Ġspr":10154,"Ġtunnel":10155,"ĠMarvel":10156,"Ġpersp":10157,"Ġdated":10158,"ĠTas":10159,"ruption":10160,"owell":10161,"Ġgone":10162,"Ġmanusc":10163,"Ġphone":10164,"ĠGuinea":10165,"Ġagents":10166,"1949":10167,"Ġqualifying":10168,"ĠCork":10169,"ricketer":10170,"ĠLux":10171,"Ġvisible":10172,"Jos":10173,"ĠPhoenix":10174,"ĠCelt":10175,"htm":10176,"EL":10177,"erted":10178,"Live":10179,"aze":10180,"ĠLate":10181,"Ġjurisdiction":10182,"%),":10183,"Ġtip":10184,"inations":10185,"ĠKirk":10186,"ullivan":10187,"ĠNam":10188,"Ġrepair":10189,"Just":10190,"Ġattractions":10191,"foot":10192,"ĠPerson":10193,"ĠIranian":10194,"Ġsettlements":10195,"Ġbenefits":10196,"ĠBrisbane":10197,"ĠDiamond":10198,"Ġseek":10199,"abet":10200,"Ġsure":10201,"1951":10202,"auc":10203,"pine":10204,"Ġstrongly":10205,"Ġratio":10206,"roph":10207,"Ġeliminated":10208,"lane":10209,"Ġminimum":10210,"Ġneuro":10211,"Ġperiods":10212,"enos":10213,"ĠCrow":10214,"arting":10215,"WA":10216,"Ġelectron":10217,"ĠĠĠĠĠ":10218,"ĠIvan":10219,"urring":10220,"rehensive":10221,"Ġcolors":10222,"Ġtexts":10223,"OT":10224,"ĠAviation":10225,"Cy":10226,"Ġbridges":10227,"oshi":10228,"ĠPra":10229,"Ġeleven":10230,"Ġdistinguished":10231,"ĠTrinity":10232,"Ġasks":10233,"Ġpitcher":10234,"Ġarrangement":10235,"Ġpuede":10236,"ĠGround":10237,"Ġhonour":10238,"ĠTreaty":10239,"ilia":10240,"ĠJosh":10241,"Ġtransform":10242,"ĠMaced":10243,"ĠMagn":10244,"ocument":10245,"leyball":10246,"Ġtort":10247,"ĠEug":10248,"ĠKum":10249,"SD":10250,"Ġdetailed":10251,"Univers":10252,"eri":10253,"ĠVincent":10254,"King":10255,"onduct":10256,"Ġsimpl":10257,"verse":10258,"sterdam":10259,"Ġadults":10260,"Ġhelps":10261,"ĠPrincip":10262,"white":10263,"sa":10264,"uted":10265,"oons":10266,"Ġoccasions":10267,"ĠChristianity":10268,"ĠAlice":10269,"uzz":10270,"Ġconj":10271,"world":10272,"ĠExper":10273,"ĠHunt":10274,"ĠAction":10275,"ĠHudson":10276,"Lou":10277,"ĠMerc":10278,"ĠStorm":10279,"mpt":10280,"Ġtreated":10281,"ĠCA":10282,"ĠNorfolk":10283,"Ġopportunities":10284,"Big":10285,"Ġrelocated":10286,"Ġeveryone":10287,"onna":10288,"ÑģÐ¸":10289,"ĠSox":10290,"iya":10291,"Ġwel":10292,"Ġparticipation":10293,"garian":10294,"Ġzu":10295,"Ġsudden":10296,"pread":10297,"ĠBird":10298,"Ġuncle":10299,"Ġartistic":10300,"atche":10301,"Ġhal":10302,"ĠSteven":10303,"ĠNicholas":10304,"ĠBrew":10305,"ĠGate":10306,"1936":10307,"Conn":10308,"ĠTurner":10309,"Ġ1860":10310,"istical":10311,"ĠCraig":10312,"ĠSha":10313,"Dan":10314,"Ġtie":10315,"ĠHolland":10316,"IL":10317,"yg":10318,"ĠSide":10319,"Filmography":10320,"Rock":10321,"Ġcomplic":10322,"ĠFrances":10323,"ĠSad":10324,"Ġ66":10325,"jab":10326,"Ġpassage":10327,"ĠGrey":10328,"ĠEconomic":10329,"æķ":10330,"1946":10331,"Ġfa":10332,"1947":10333,"Thomas":10334,"ĠBund":10335,"idespread":10336,"ĠPierre":10337,"ĠSP":10338,"Met":10339,"Ġpregn":10340,"ĠRAF":10341,"Ġcompetitive":10342,"ĠBengal":10343,"Ġattributed":10344,"rose":10345,"Ġtruth":10346,"etition":10347,"ĠFlight":10348,"vol":10349,"Ġintellect":10350,"lik":10351,"cular":10352,"asm":10353,"Ġtenure":10354,"dest":10355,"levard":10356,"ĠCosta":10357,"Ġpercentage":10358,"Ġprinted":10359,"cht":10360,"atha":10361,"Ġsatellite":10362,"Ġsuperior":10363,"ipients":10364,"Ġsurviving":10365,"ĠRace":10366,"ossible":10367,"ĠSerge":10368,"Royal":10369,"Ġrhythm":10370,"Ġpatron":10371,"waukee":10372,"äºº":10373,"oko":10374,"plex":10375,"Ġchamber":10376,"],":10377,"Ġgradually":10378,"Ġwhereas":10379,"Ġinner":10380,"onymous":10381,"ĠÑĩÑĤÐ¾":10382,"ĠGot":10383,"ĠDod":10384,"Ġplayoffs":10385,"riptions":10386,"aran":10387,"was":10388,"ĠView":10389,"ancell":10390,"ĠSusan":10391,"ĠGor":10392,"1941":10393,"ĠLog":10394,"Ġfriendly":10395,"Professional":10396,"new":10397,"Ġaffiliated":10398,"Ġsi":10399,"ĠAzerbai":10400,"æľī":10401,"Ġfix":10402,"ĠSche":10403,"Ġlandscape":10404,"Ġchapel":10405,"Ã¦":10406,"Ġgate":10407,"Ġinfantry":10408,"ĠTon":10409,"ĠJonathan":10410,"ĠDeep":10411,"Tur":10412,"achment":10413,"Ġpainters":10414,"Pat":10415,"åº":10416,"Ġsigns":10417,"Ġsupplies":10418,"ĠYe":10419,"oses":10420,"fly":10421,"'d":10422,"estone":10423,"Ġindicated":10424,"ĠBangladesh":10425,"Ġresid":10426,"Ġoperational":10427,"non":10428,"February":10429,"ĠInstead":10430,"Ġabsence":10431,"Ġacknow":10432,"Ġtribut":10433,"Ġmixing":10434,"éĢ":10435,"ĠGoth":10436,"ĠNebraska":10437,"Ġvast":10438,"ĠHorse":10439,"ĠPay":10440,"uh":10441,"borne":10442,"Ġpatient":10443,"Ġsie":10444,"ĠPrefecture":10445,"high":10446,"iji":10447,"Ġcrimes":10448,"ĠPast":10449,"Ġlieutenant":10450,"Ġfurn":10451,"pty":10452,"ĠSmall":10453,"Ġtrading":10454,"Ġunusual":10455,"Ġdepth":10456,"Ġrepresentation":10457,"Ġpalace":10458,"occ":10459,"Ġmonitor":10460,"Ġsentence":10461,"ĠMovie":10462,"ĠExpl":10463,"Ġyoungest":10464,"Ġholid":10465,"owski":10466,"ĠNature":10467,"ĠBright":10468,"nik":10469,"Ġfoss":10470,"reck":10471,"ÅĦ":10472,"Ġgrav":10473,"izz":10474,"Ġgard":10475,"Ġapproval":10476,"Go":10477,"Ġapparently":10478,"ĠCharlotte":10479,"Est":10480,"ĠThor":10481,"hour":10482,"å¹":10483,"ĠJoy":10484,"Ġattracted":10485,"case":10486,"uras":10487,"ĠOblast":10488,"Ġfestivals":10489,"Ġloyal":10490,"Ġdrummer":10491,"ĠComputer":10492,"Ġconfig":10493,"Ġ72":10494,"gate":10495,"rative":10496,"olar":10497,"ricted":10498,"Ã±o":10499,"ĠOnline":10500,"wyn":10501,"ĠTerr":10502,"Ġintent":10503,"Ġtransmission":10504,"Ġmonastery":10505,"ĠMann":10506,"Ġdonated":10507,"care":10508,"Ġclan":10509,"Ġhorses":10510,"ĠMagic":10511,"Ġappointment":10512,"omon":10513,"Ġcoat":10514,"ĠPersian":10515,"Ġwants":10516,"Ġappropriate":10517,"flow":10518,"Sl":10519,"render":10520,"Ġasc":10521,"Ġsalt":10522,"Ġwars":10523,"olition":10524,"onda":10525,"Ã©l":10526,"Ġessential":10527,"Ġpatterns":10528,"Ġintention":10529,"Ġindicates":10530,"uable":10531,"Ġextinct":10532,"arc":10533,"ĠZe":10534,"ĠGermans":10535,"gun":10536,"ĠEgyptian":10537,"Ġfighter":10538,"ĠClay":10539,"wig":10540,"ounsel":10541,"ÑĢÐ¾Ð²":10542,"Ġgrades":10543,"apse":10544,"Ġlibr":10545,"ĠEvent":10546,"Ġceased":10547,"Ġpredecess":10548,"uction":10549,"Ġ1894":10550,"ospitals":10551,"Ġassociate":10552,"pin":10553,"ĠArena":10554,"Ġcontroll":10555,"ĠSah":10556,"ĠOliver":10557,"Ġwat":10558,"æĹ":10559,"Ġtoured":10560,"Ġwrites":10561,"Ġconvention":10562,"Ġtropical":10563,"ĠLiterature":10564,"Ġ58":10565,"1944":10566,"Ġearn":10567,"Ġneck":10568,"ĠJa":10569,"endar":10570,"Ġnegoti":10571,"ĠStage":10572,"uez":10573,"ollo":10574,"Ð½ÑĭÑħ":10575,"Ġhabitat":10576,"Ġleagues":10577,"Ġ57":10578,"Ġdiscovery":10579,"1937":10580,"ĠLion":10581,"Ġmerger":10582,"ichi":10583,"iler":10584,"ĠBerkeley":10585,"ĠMonte":10586,"Ġcolony":10587,"Ġcolle":10588,"Ġdisestablishments":10589,"Ġgenre":10590,"Ġcinema":10591,"amics":10592,"ĠDraft":10593,"Ġcompeting":10594,"Ġ1892":10595,"ĠChallenge":10596,"BO":10597,"iu":10598,"ĠVI":10599,"rican":10600,"Ġvisiting":10601,"Ġencl":10602,"Ġdress":10603,"Ġpanel":10604,"ĠSalt":10605,"Ġwindows":10606,"Ġwedding":10607,"ĠNC":10608,"Ġguide":10609,"ĠÃĹ":10610,"only":10611,"Gold":10612,"ĠHav":10613,"ĠÑģÑĤ":10614,"ourse":10615,"wright":10616,"ĠTournament":10617,"Ġdestruction":10618,"atra":10619,"Ġconcerts":10620,"Family":10621,"Ġsuffering":10622,"Ġrit":10623,"Ġnormally":10624,"ĠVegas":10625,"VID":10626,"Us":10627,"Ġproport":10628,"raction":10629,"Ġdoesn":10630,"overy":10631,"Pal":10632,"ĠFriends":10633,"ĠSay":10634,"ĠShel":10635,"itects":10636,"Ġwhilst":10637,"ĠDennis":10638,"ĠRidge":10639,"ĠBath":10640,"ĠChristians":10641,"ĠBulgaria":10642,"ectors":10643,"theless":10644,"ported":10645,"ĠDenver":10646,"Ġfit":10647,"hal":10648,"Ġgiant":10649,"Ġsupports":10650,"ĠBelgian":10651,"HA":10652,"Sal":10653,"ĠRic":10654,"berry":10655,"Ġ1889":10656,"celona":10657,"Ġshopping":10658,"ĠPel":10659,"Ġtorn":10660,"ĠBond":10661,"onies":10662,"Ġready":10663,"ulating":10664,"Ġattending":10665,"1938":10666,"Ġmines":10667,"ĠTu":10668,"Ġlingu":10669,"Ġvessel":10670,"Ġfemin":10671,"Ġpredomin":10672,"itations":10673,"Ġfrequent":10674,"Recipients":10675,"Ġtribe":10676,"ĠCou":10677,"ĠGilbert":10678,"Ġdual":10679,"Ġdiam":10680,"ĠHeavy":10681,"Ġemigrants":10682,"Ġtransc":10683,"Ġthousand":10684,"ĠTerritory":10685,"Ġmartial":10686,"Ġartificial":10687,"Ġthirty":10688,"Charles":10689,"boys":10690,"ĠWes":10691,"athon":10692,"Ġkeeping":10693,"Ġrepresentatives":10694,"uckland":10695,"ĠMinor":10696,"Ġ1893":10697,"Ġconnecting":10698,"Ġeighth":10699,"UC":10700,"ĠMick":10701,"Ġoptions":10702,"ĠArchbishop":10703,"Ġdrew":10704,"agons":10705,"Peter":10706,"Richard":10707,"Ġamongst":10708,"Ġalcohol":10709,"ĠHope":10710,"Ġreveals":10711,"Ġpip":10712,"peare":10713,"Ġextent":10714,"ĠCommons":10715,"Ġexperimental":10716,"Ġgall":10717,"Ġcustomers":10718,"urst":10719,"Ġprinciples":10720,"Ġphenomen":10721,"Ġrapidly":10722,"RT":10723,"Under":10724,"ĠNeil":10725,"Ġwrestling":10726,"åľ¨":10727,"Ġcul":10728,"Ġpure":10729,"ĠEddie":10730,"à¹Ī":10731,"à¸Ń":10732,"ä¼":10733,"ĠFine":10734,"Ġimmediate":10735,"Song":10736,"rooms":10737,"Ġ1891":10738,"ĠAnglican":10739,"Ġspin":10740,"Ġgenera":10741,"ĠClinton":10742,"ĠMA":10743,"Ġcasual":10744,"ĠLloyd":10745,"Ġtraditions":10746,"Ġmall":10747,"ĠWang":10748,"Ġbanned":10749,"Ġrefug":10750,"Despite":10751,"apped":10752,"ĠSection":10753,"adas":10754,"Ġclaiming":10755,"ĠLebanon":10756,"sor":10757,"maker":10758,"rien":10759,"NT":10760,"Ġlocomotives":10761,"Ġstrict":10762,"cat":10763,"ĠVenezuela":10764,"ĠJefferson":10765,"Ġdecides":10766,"akespeare":10767,"Ġ63":10768,"eters":10769,"Ġspoke":10770,"Ġreporter":10771,"Ġanyone":10772,"Ġwidespread":10773,"Ġemployment":10774,"Ġhope":10775,"ĠBrand":10776,"Hung":10777,"Ġthreatened":10778,"Ġdrugs":10779,"asant":10780,"Ġkit":10781,"Ð¾ÑĤÐ¾":10782,"Ġgram":10783,"Ġremix":10784,"Ġrounds":10785,"ĠPatt":10786,"ĠSig":10787,"cing":10788,"ĠCad":10789,"angle":10790,"Ġlimits":10791,"Ġflowers":10792,"Ġerected":10793,"Ġdeployed":10794,"ĠHear":10795,"Ġfalse":10796,"ultane":10797,"Ġdeputy":10798,"fers":10799,"1943":10800,"Ã¼n":10801,"Ġwaste":10802,"Vol":10803,"Ġfur":10804,"Ġfacilit":10805,"Educational":10806,"nan":10807,"scar":10808,"omic":10809,"Ġsample":10810,"Ġfunctional":10811,"Season":10812,"Ġconcentration":10813,"ters":10814,"ĠLanka":10815,"quir":10816,"Deaths":10817,"asha":10818,"Ġmathematics":10819,"iscopal":10820,"Ġenjoyed":10821,"ĠSeb":10822,"Ġconservation":10823,"ĠMunich":10824,"ĠRing":10825,"Ġbattalion":10826,"Mont":10827,"ĠSet":10828,"Ġsympt":10829,"Ġruling":10830,"ĠMoroc":10831,"Ġconcerned":10832,"viously":10833,"Ġwings":10834,"agre":10835,"Ġliquid":10836,"ĠMasters":10837,"ĠLan":10838,"Old":10839,"Ġmile":10840,"ixon":10841,"1935":10842,"Ġtool":10843,"Ġduo":10844,"Ġupgr":10845,"Ġlose":10846,"hy":10847,"ĠTrack":10848,"Ġpatrol":10849,"oker":10850,"Ġfee":10851,"áº":10852,"emed":10853,"mill":10854,"sub":10855,"Ġremove":10856,"Ġhundreds":10857,"ĠWalt":10858,"agi":10859,"ennial":10860,"Ġstatue":10861,"Ġcontribution":10862,"ĠBarn":10863,"holm":10864,"But":10865,"Ġindigenous":10866,"ĠMicrosoft":10867,"ĠGang":10868,"iveness":10869,"Ġaffiliate":10870,"ĠHann":10871,"Ġathletics":10872,"Ĥ¬":10873,"ĠFa":10874,"Ġrandom":10875,"Ġvel":10876,"eyer":10877,"Companies":10878,"Christian":10879,"rency":10880,"1918":10881,"ĠHebrew":10882,"ĠKos":10883,"backs":10884,"var":10885,"iliar":10886,"ĠHad":10887,"Ġclar":10888,"ĠUniversal":10889,"Ġinducted":10890,"auer":10891,"itially":10892,"ĠBert":10893,"ĠWallace":10894,"ĠPor":10895,"Ġdrawing":10896,"Ġmurdered":10897,"Ġemerged":10898,"Ġot":10899,"original":10900,"ĠRac":10901,"Ġadvice":10902,"Hen":10903,"ĠCP":10904,"ĠBaptist":10905,":#":10906,"400":10907,"SE":10908,"ĠAround":10909,"Ġstress":10910,"Land":10911,"opy":10912,"Ġacted":10913,"ÑģÑĤÑĮ":10914,"ĠLiga":10915,"rington":10916,"Ġtraded":10917,"ĠHerz":10918,"Ġillness":10919,"ĠPul":10920,"ahl":10921,"Ġmeetings":10922,"ĠMachine":10923,"Sport":10924,"ublished":10925,"elect":10926,"amous":10927,"minute":10928,"film":10929,"ju":10930,"onde":10931,"ĠWonder":10932,"ĠEagles":10933,"ĠFaculty":10934,"Ġhorn":10935,"rano":10936,"Ġapply":10937,"exp":10938,"Ġbid":10939,"Ġargument":10940,"olen":10941,"imir":10942,"Ġcharacterized":10943,"math":10944,"rise":10945,"ĠBachelor":10946,"Ġbases":10947,"ĠMcL":10948,"African":10949,"inus":10950,"graduate":10951,"ĠBog":10952,"Ġelectrical":10953,"Ġboundaries":10954,"Ġadmin":10955,"Ġlocally":10956,"ront":10957,"game":10958,"Ġbaby":10959,"uran":10960,"uations":10961,"Ġorigins":10962,"ĠTib":10963,"Ġboats":10964,"ĠHem":10965,"Ġafterwards":10966,"ĠCurt":10967,"å¸":10968,"Ġexcess":10969,"ĠHerbert":10970,"Ġconnections":10971,"Ġintegrated":10972,"Ġreaches":10973,"Ġmuseums":10974,"Ġcategories":10975,"ĠRovers":10976,"Ġsubstitute":10977,"iciency":10978,"Ġbegun":10979,"ĠHugh":10980,"Ġ69":10981,"ĠPeninsula":10982,"enburg":10983,"Ġranking":10984,"Ġoperator":10985,"Ġconversion":10986,"Municip":10987,"Ġ1861":10988,"Ġmanage":10989,"Writers":10990,"ĠSheffield":10991,"bie":10992,"Sir":10993,"ĠCrime":10994,"ĠSask":10995,"eties":10996,"ospel":10997,"ĠBrun":10998,"Ġsubsidiary":10999,"ĠCommissioner":11000,"Ġmanufacturer":11001,"Sam":11002,"Ġnomination":11003,"ĠPolicy":11004,"ĠBaronet":11005,"Ġcaps":11006,"Ġrestoration":11007,"Mount":11008,"Ġdefence":11009,"Ġtraveled":11010,"ĠMig":11011,"Ġgran":11012,"ĠOil":11013,"anti":11014,"Game":11015,"Do":11016,"hero":11017,"Ġroots":11018,"ĠTransportation":11019,"ĠPi":11020,"Ġib":11021,"ĠÐ¿ÑĢÐ¾":11022,"Ġfalling":11023,"ĠRogers":11024,"fielder":11025,"abric":11026,"Ġclothing":11027,"ĠBaby":11028,"erie":11029,"Ġ1888":11030,"avor":11031,"Ġstudying":11032,"Ġhearing":11033,"ĠEdwards":11034,"helm":11035,"æĪĳ":11036,"Ġeditions":11037,"Ġlakes":11038,"went":11039,"Ġphysics":11040,"Ġbalance":11041,"Ġranks":11042,"eva":11043,"Miss":11044,"ĠMason":11045,"ĠProtestant":11046,"isiÃ³n":11047,"ĠBoulevard":11048,"Ġyield":11049,"Ġgenetic":11050,"ĠMurphy":11051,"Amendment":11052,"ĠSF":11053,"idal":11054,"Ġwire":11055,"Ġmasc":11056,"Ġassets":11057,"ĠColumbus":11058,"Ġpeoples":11059,"hematical":11060,"ĠRalph":11061,"ĠAmsterdam":11062,"Ġhapp":11063,"Ġcorporate":11064,"Ġsupporters":11065,"eli":11066,"Ġregime":11067,"ĠCurrent":11068,"ĠScotia":11069,"Ġthrone":11070,"Ġdriven":11071,"osl":11072,"Ġdiverse":11073,"Ġvariant":11074,"Ġmanufacturers":11075,"ĠGay":11076,"Ġpicked":11077,"ĠTerm":11078,"ĠProductions":11079,"è¡":11080,"Ġstable":11081,"Ġparticipants":11082,"ĠRight":11083,"Ġemperor":11084,"Ġproductions":11085,"Ġscientist":11086,"ĠAttorney":11087,"ĠPont":11088,"1933":11089,"Tor":11090,"Ġcod":11091,"iture":11092,"Ġabuse":11093,"Ġseeking":11094,"Ġconstitution":11095,"ĠHarold":11096,"Ġeggs":11097,"ĠFriday":11098,"Ð¾Ð¿":11099,"Ġdiscontin":11100,"ĠFerr":11101,"Ġmal":11102,"aton":11103,"Ġcancelled":11104,"esters":11105,"Ġmarry":11106,"arten":11107,"2023":11108,"Ġposted":11109,"ĠDelaware":11110,"Frank":11111,"legiate":11112,"Ġaccord":11113,"ĠFormer":11114,"Ġcivilian":11115,".),":11116,"ingen":11117,"Ġtownship":11118,"Ġsummary":11119,"istani":11120,"Ġerror":11121,"Ġuniverse":11122,"Ġexpect":11123,"ĠRoom":11124,"Ġpand":11125,"ouch":11126,"agonist":11127,"elta":11128,"Irish":11129,"ividual":11130,"ĠButler":11131,"sis":11132,"strong":11133,"ĠBald":11134,"Ġ76":11135,"1932":11136,"Athletes":11137,"ĠGolf":11138,"page":11139,"ĠVlad":11140,"Ġspending":11141,"Ġdangerous":11142,"ĠContemporary":11143,"Ġcloser":11144,"Ġencouraged":11145,"ete":11146,"ĠPerry":11147,"BL":11148,"ĠBeaut":11149,"ĠTech":11150,"Ġextreme":11151,"Ġspell":11152,"ĠMD":11153,"ĠMembers":11154,"Ġdatabase":11155,"owed":11156,"Ġ1862":11157,"Ġapartments":11158,"Ġocean":11159,"Ġspeaking":11160,"cules":11161,"Ġregulations":11162,"ĠWas":11163,"abe":11164,"Ġabb":11165,"Ġpartially":11166,"minster":11167,"Mag":11168,"iw":11169,"itarian":11170,"Ġminority":11171,"igible":11172,"ĠScout":11173,"ÃŃs":11174,"ĠSurvey":11175,"Ġconvinc":11176,"Ġguilty":11177,"isp":11178,"Ġgraduating":11179,"Love":11180,"Ġmatters":11181,"IM":11182,"Ġhonors":11183,"Ġexcav":11184,"imation":11185,"Swiss":11186,"Ġdisb":11187,"arged":11188,"ĠEg":11189,"Law":11190,"Ġmor":11191,"Ġhttps":11192,"lu":11193,"disc":11194,"Ġ`":11195,"Ġsuitable":11196,"ĠTag":11197,"icht":11198,"Ġ85":11199,"Ġbonus":11200,"Ġqualify":11201,"Ġfacing":11202,"eston":11203,"ĠBod":11204,"uba":11205,"SPN":11206,"Ġrecovered":11207,"éĩ":11208,"Ġcreative":11209,"Books":11210,"este":11211,"Ġviewed":11212,"ĠMunicipal":11213,"èĥ½":11214,"Ġclock":11215,"Ġministers":11216,"ĠBarcelona":11217,"âĢľ":11218,"ĠInv":11219,"Ġrelation":11220,"Note":11221,"ĠShaw":11222,"Ġ1865":11223,"Ġpartly":11224,"amese":11225,"Ġsponsored":11226,"EE":11227,"Ġouter":11228,"Ġgovernments":11229,"Novels":11230,"End":11231,"Ġdrafted":11232,"Ġlegs":11233,"scale":11234,"ĠGhost":11235,"empt":11236,"Ġ95":11237,"League":11238,"Alex":11239,"Week":11240,"ĠKur":11241,"ĠGrade":11242,"ĠIndianapolis":11243,"Ġsurviv":11244,"Ġintern":11245,"Ġstudios":11246,"Ð¼Ð°":11247,"alysis":11248,"erset":11249,"Ġreven":11250,"å·":11251,"ĠLomb":11252,"Ġcontinuous":11253,"Ġgrandfather":11254,"otyp":11255,"ĠArc":11256,"Ġpossession":11257,"ĠBrid":11258,"ĠCer":11259,"Ġprovinces":11260,"Ġsubstantial":11261,"gom":11262,"haus":11263,"ĠExchange":11264,"rier":11265,"Ġorganisations":11266,"ĠDat":11267,"Ġarchitectural":11268,"Ġlawyers":11269,"CP":11270,"Es":11271,"cano":11272,"arte":11273,"ĠYu":11274,"Ġdesire":11275,"ĠPhilippine":11276,"ĠStudents":11277,"Jim":11278,"ĠPle":11279,"Ġprovision":11280,"orence":11281,"Transport":11282,"Ġtrend":11283,"Ireland":11284,"ÐµÐ¹":11285,"ĠKle":11286,"Before":11287,"rea":11288,"ĠChester":11289,"Ġimmigrants":11290,"ĠHarvey":11291,"ĠSak":11292,"antes":11293,"Ġdecisions":11294,"wald":11295,"ĠDest":11296,"ĠShakespeare":11297,"ĠÐ¼Ð¾Ð¶":11298,"Dou":11299,"Ġwet":11300,"Camp":11301,"ĠInsp":11302,"Mr":11303,"pres":11304,"Ġdiscrim":11305,"ĠWinn":11306,"Ġclosing":11307,"Ġsessions":11308,"Ġwearing":11309,"Ġstruggle":11310,"Ġcash":11311,"bus":11312,"Ġstim":11313,"Ġseed":11314,"Ġexplo":11315,"Ġmanufactured":11316,"%).":11317,"Academic":11318,"ĠDin":11319,"Ġcoup":11320,"ambi":11321,"Ġtwin":11322,"Ġincidents":11323,"Ġproteins":11324,"RL":11325,"ĠRabbi":11326,"Dep":11327,"ĠAuckland":11328,"Ġefficient":11329,"Ġfat":11330,"1934":11331,"Ġunsuccessful":11332,"Ġbrick":11333,"Ġna":11334,"Ġsequel":11335,"ĠArgentine":11336,"Ġneither":11337,"Ġrestaurants":11338,"ĠFif":11339,"ĠToy":11340,"Ġurg":11341,"ĠConstruction":11342,"Ġcricketer":11343,"Ġpseud":11344,"Ġsoap":11345,"otion":11346,"ĠNewcastle":11347,"ĠMorning":11348,"Ġ99":11349,"Ġimpress":11350,"Ġinsurance":11351,"Ġdominated":11352,"Ġathletic":11353,"Ġresearchers":11354,"Ġdiseases":11355,"Ġels":11356,"ĠBM":11357,"Ġpossibility":11358,"Ġresolution":11359,"Ġtalent":11360,"Ġ61":11361,"Ġ67":11362,"ĠPetersburg":11363,"ĠRot":11364,"actory":11365,"ĠBear":11366,"ĠConfederate":11367,"vet":11368,"aho":11369,"ĠFly":11370,"ĠSeg":11371,"stance":11372,"ĠReturn":11373,"Ġris":11374,"comp":11375,"Ġboss":11376,"Ġ1864":11377,"rafts":11378,"artet":11379,"Ġnoble":11380,"Ġhttp":11381,"Ġlib":11382,"Ġnut":11383,"Ġimplemented":11384,"EM":11385,"Ġ1863":11386,"Prot":11387,"OL":11388,"Ġfill":11389,"Ġsang":11390,"Ġbreaking":11391,"Ġ1887":11392,"Ġmechanical":11393,"ĠCatherine":11394,"ĠOperations":11395,"å¾":11396,"umer":11397,"anne":11398,"ĠKay":11399,"Ġbehalf":11400,"Ġaccessible":11401,"ĠMalt":11402,"Ġbright":11403,"Ġ62":11404,"Ġproduces":11405,"ĠGonz":11406,"ĠHamb":11407,"ĠDanny":11408,"ĠLeo":11409,"Ġmagic":11410,"1931":11411,"ĠSaudi":11412,"Mad":11413,"utton":11414,"Ġseeing":11415,"alam":11416,"ĠRu":11417,"Ġgenerated":11418,"ĠChapel":11419,"ĠYale":11420,"Ġ1850":11421,"Ġmechanism":11422,"ÑģÐºÐ¸":11423,"Ġ68":11424,"ĠCe":11425,"ĠData":11426,"ifies":11427,"ĠConservation":11428,"Tube":11429,"1928":11430,"sequently":11431,"unswick":11432,"Sk":11433,"ĠAnglo":11434,"obre":11435,"Ġpublicly":11436,"1922":11437,"ĠStuart":11438,"Ġabroad":11439,"Ð´Ð¸":11440,"ä¸Ń":11441,"ĠMethodist":11442,"RS":11443,"Ġaimed":11444,"Ġmounted":11445,"Ġsurvive":11446,"rus":11447,"Ġ1884":11448,"cycle":11449,"ildren":11450,"Ġcommanded":11451,"Ġindex":11452,"å¯":11453,"ĠHelen":11454,"zes":11455,"ivic":11456,"ĠRivers":11457,"Ġreportedly":11458,"Ġdiameter":11459,"ĠKid":11460,"Ġexceed":11461,"hent":11462,"shaped":11463,"Ġlayer":11464,"ĠSuch":11465,"ĠArnold":11466,"Ġcruc":11467,"ĠOttawa":11468,"acional":11469,"ĠIb":11470,"Ã©d":11471,"1929":11472,"Ġmeat":11473,"Che":11474,"rets":11475,"Ġlatest":11476,"Ġweekend":11477,"ref":11478,"Ġaggregate":11479,"Ġhunting":11480,"Ġelectoral":11481,"ocket":11482,"Ġtopics":11483,"Ġmo":11484,"ilo":11485,"Ġchoir":11486,"ĠAlong":11487,"playing":11488,"cos":11489,"Ġnotice":11490,"making":11491,"Ġcanton":11492,"Ġfiles":11493,"onomous":11494,"Ġtouring":11495,"HF":11496,"iour":11497,"Ġexclusively":11498,"Kn":11499,"acked":11500,"Ġexposed":11501,"Ġconductor":11502,"liga":11503,"Ġhighlight":11504,"Ġagree":11505,"ĠSwan":11506,"Government":11507,"anche":11508,"ĠKill":11509,"Ġinnings":11510,"Ġperce":11511,"Ġtale":11512,"Ġalternate":11513,"ĠCOVID":11514,"she":11515,"Ġkidn":11516,"eno":11517,"ĠLamb":11518,"Ġshock":11519,"Ġca":11520,"core":11521,"Ġninth":11522,"ĠÅł":11523,"Ñĳ":11524,"ĠWel":11525,"Ġnovelists":11526,"ĠÑĤÐµ":11527,"omi":11528,"ĠAllied":11529,"ĠQual":11530,"Tim":11531,"dist":11532,"Ġ1886":11533,"Ġvul":11534,"afe":11535,"ĠKnights":11536,"Ġexercise":11537,"Ġideal":11538,"ĠIC":11539,"ĠNext":11540,"Ã¡l":11541,"Ġnominations":11542,"ographers":11543,"ĠTang":11544,"Ġdesignation":11545,"gi":11546,"çĶ¨":11547,"Ġtanks":11548,"ricks":11549,"Ġtons":11550,"ĠLac":11551,"å¼":11552,"ipped":11553,"Ġtruck":11554,"ĠVenice":11555,"Ġdiver":11556,"overe":11557,"Ġassemb":11558,"embourg":11559,"ĠMonteneg":11560,"London":11561,"orious":11562,"Ġprince":11563,"hematic":11564,"ĠIndustrial":11565,"Ġtrials":11566,"Ġlowest":11567,"Ġcrops":11568,"ĠTommy":11569,"Ġsimultane":11570,"aca":11571,"itol":11572,"Ġusage":11573,"Ġcomune":11574,"Atl":11575,"Ġum":11576,"Ġinaugural":11577,"Ġvoting":11578,"Ġbin":11579,"ertiary":11580,"Ġopponent":11581,"Ġpictures":11582,"ĠCoach":11583,"ephew":11584,"oku":11585,"Ġpret":11586,"Ġsecured":11587,"Ġsolar":11588,"rator":11589,"py":11590,"ĠBened":11591,"ĠMS":11592,"inda":11593,"ĠAncient":11594,"Ġchallenges":11595,"Ġloop":11596,"ĠGregory":11597,"ijing":11598,"Ġexpensive":11599,"Ġscope":11600,"1914":11601,"Ġacquisition":11602,"Ġparliamentary":11603,"Ġclearly":11604,"ĠHerman":11605,"Ġdiet":11606,"RI":11607,"Ġtherm":11608,"ĠFighter":11609,"Ġmarks":11610,"Ġ77":11611,"ĠPete":11612,"Green":11613,"Ġmanif":11614,"ĠEU":11615,"1927":11616,"quer":11617,"ĠGT":11618,"ĠArtist":11619,"bas":11620,"Ġoriginated":11621,"ĠMahar":11622,"Ġcamps":11623,"ĠMeanwhile":11624,"uto":11625,"pring":11626,"Ġimplementation":11627,"ĠGrace":11628,"ĠIndependence":11629,"rost":11630,"Ġnucle":11631,"ĠEsc":11632,"Ġvariable":11633,"ĠRuth":11634,"Ġabilities":11635,"Ġask":11636,"mits":11637,"Grand":11638,"anion":11639,"ortion":11640,"Ġlabels":11641,"Ġmachines":11642,"aciones":11643,"ĠShin":11644,"ĠCroatian":11645,"reprene":11646,"ĠMol":11647,"Ġrelevant":11648,"celand":11649,"ussia":11650,"ĠIss":11651,"ĠVilla":11652,"Ġimperial":11653,"rieved":11654,"ĠSuz":11655,"Ġcircumstances":11656,"ĠSor":11657,"rod":11658,"ĠUnlike":11659,"ĠCox":11660,"()":11661,"Ġinhib":11662,"ĠÐ¸Ð·":11663,"ĠConserv":11664,"kg":11665,"ĠOriginally":11666,"ĠVe":11667,"Ġdispute":11668,"ĠIndustry":11669,"Ġhyper":11670,"Ġongoing":11671,"enda":11672,"inceton":11673,"Ġessay":11674,"ployment":11675,"Ġprinciple":11676,"Ã³w":11677,"Ġbelieves":11678,"Ġbacter":11679,"ĠPedro":11680,"1925":11681,"eme":11682,"Ð½ÑĭÐµ":11683,"Ġdominant":11684,"Mass":11685,"ĠBrunswick":11686,"Ġnickname":11687,"ucc":11688,"ĠEncyclopedia":11689,"rah":11690,"Ġlabour":11691,"ÑĥÑİ":11692,"Sm":11693,"Ġ600":11694,"histor":11695,"Ġmaps":11696,"iente":11697,"ÑĩÐ°":11698,"ĠPy":11699,"ĠÐĴ":11700,"ĠTherefore":11701,"anthrop":11702,"ooking":11703,"Ġleng":11704,"ĠActor":11705,"Ġestablishing":11706,"ĠTechnical":11707,"gomery":11708,"ĠRat":11709,"ĠDame":11710,"issa":11711,"ĠPrice":11712,"ĠAges":11713,"ÄŁ":11714,"ĠFoster":11715,"ĠShang":11716,"Ġfitted":11717,"osophical":11718,"Ġexpand":11719,"Ġconclusion":11720,"Ġbutter":11721,"ĠAaron":11722,"ĠWald":11723,"1924":11724,"unda":11725,"Town":11726,"Ġvirtual":11727,"unning":11728,"ĠNumber":11729,"ĠÐ±Ñĭ":11730,"Ġmarine":11731,"ĠPoetry":11732,"Ġcompens":11733,"ĠMik":11734,"thlete":11735,"Ġgardens":11736,"Ġinternet":11737,"Ġforg":11738,"Ġbeating":11739,"Let":11740,"elin":11741,"Critical":11742,"ĠIntelligence":11743,"esis":11744,"onomic":11745,"ĠRou":11746,"Ġhoriz":11747,"stand":11748,"Ãī":11749,"ĠKun":11750,"Ġrub":11751,"iology":11752,"entle":11753,"Ġalter":11754,"Ã§Ã£o":11755,"rys":11756,"Äĩ":11757,"dess":11758,"ĠTed":11759,"Ġevac":11760,"Ġ1881":11761,"Ġclosure":11762,"Ġrated":11763,"Ġcanal":11764,"ĠGrove":11765,"ĠLis":11766,"Ġsounds":11767,"Ġdiscussion":11768,"Economy":11769,"gary":11770,"iffer":11771,"ĠPerformance":11772,"è¦":11773,"assy":11774,"Ġphotographs":11775,"Ġtomb":11776,"Ġalive":11777,"Ġcharity":11778,"ĠByzantine":11779,"ĠAS":11780,"apur":11781,"Ġdoors":11782,"mother":11783,"ygen":11784,"ĠMuch":11785,"ignated":11786,"Ġpermission":11787,"Ġhoused":11788,"ĠClarke":11789,"bul":11790,"Ġbeauty":11791,"Ġcongreg":11792,"Ġdrink":11793,"Columb":11794,"Ġsustain":11795,"Ġbishops":11796,"ĠSoon":11797,"ĠBulgarian":11798,"ĠSÃ£o":11799,"ĠPick":11800,"Ġarrangements":11801,"Ġ78":11802,"Ġincreases":11803,"Ġborough":11804,"ouncill":11805,"Ġnovelist":11806,"ĠFlow":11807,"Ġadventure":11808,"ĠNear":11809,"Ġcommunications":11810,"ĠQuarter":11811,"Ġbiological":11812,"1919":11813,"ystem":11814,"Ġfarmers":11815,"Main":11816,"Ġpersu":11817,"Ġhonorary":11818,"Ġsisters":11819,"ĠTree":11820,"Ġdebt":11821,"free":11822,"Ġcargo":11823,"ĠPrest":11824,"eting":11825,"agram":11826,"Ġcattle":11827,"ĠMadison":11828,"Ġsugar":11829,"Ġgauge":11830,"omo":11831,"ĠLuke":11832,"Ġexplain":11833,"ĠFuture":11834,"uta":11835,"ĠPrivate":11836,"ĠMilwaukee":11837,"Ġpractical":11838,"Ġsymptoms":11839,"bes":11840,"ĠBatt":11841,"Ġdisplayed":11842,"Ġconnects":11843,"irts":11844,"Ġsuppress":11845,"Ġtasks":11846,"Ġdin":11847,"Ġresol":11848,"written":11849,"ĠYugoslavia":11850,"atchewan":11851,"Ġexit":11852,"ĠPunjab":11853,"ĠRus":11854,"amples":11855,"ĠLag":11856,"ĠCle":11857,"Ġbankrupt":11858,"Ġtribute":11859,"anj":11860,"CAR":11861,"Ġpul":11862,"Ġwalking":11863,"Ġgraphics":11864,"rates":11865,"Ġtraditionally":11866,"ĠCircle":11867,"Ġevil":11868,"ĠAlger":11869,"That":11870,"arma":11871,"Val":11872,"Ġturb":11873,"ĠPep":11874,"Ġheir":11875,"Ġenroll":11876,"ĠMul":11877,"ĠDrama":11878,"Ġgallery":11879,"ĠAbraham":11880,"Ġliberal":11881,"ĠUg":11882,"ĠTogether":11883,"Ġstretch":11884,"Ġcricketers":11885,"raud":11886,"Ð³Ð¾":11887,"entry":11888,"Ġpole":11889,"Ġtot":11890,"ĠBanks":11891,"Ġju":11892,"overty":11893,"ĠCollect":11894,"USA":11895,"Ġformula":11896,"ĠBatman":11897,"Ġidentical":11898,"Ġsung":11899,"ĠÐ´Ð»Ñı":11900,"Ġorganised":11901,"ĠRams":11902,"Ġ79":11903,"eca":11904,"Ġbroadcasts":11905,"Ġconservative":11906,"ĠMust":11907,"Ġsight":11908,"Ġabolished":11909,"Ġtemples":11910,"Ġuncertain":11911,"Ġein":11912,"upt":11913,"direct":11914,"Ġreduction":11915,"ĠCardinals":11916,"Ġorn":11917,"efef":11918,"elfare":11919,"ĠCarr":11920,"ĠLaz":11921,"ĠLead":11922,"Ġtreaty":11923,"ĠÃģ":11924,"à¹Ģ":11925,"Ġphoto":11926,"Ġsmooth":11927,"ĠPhillips":11928,"Here":11929,"ä¸į":11930,"Ġdistribut":11931,"Ġ1882":11932,"irth":11933,"ĠCircuit":11934,"enders":11935,"Ġrevised":11936,"Ġrising":11937,"Hol":11938,"ĠSyn":11939,"Israel":11940,"Ġvirus":11941,"songwriter":11942,"Ġelectricity":11943,"Baseball":11944,"Ġlinear":11945,"Ġrelegated":11946,"ĠTong":11947,"Ġdiscussed":11948,"adows":11949,"ĠPand":11950,"1926":11951,"ä¸ª":11952,"Ġtourist":11953,"front":11954,"Ġswitched":11955,"Ġguests":11956,"Ġacknowled":11957,"ĠStories":11958,"lia":11959,"elo":11960,"ĠST":11961,"ĠFeat":11962,"elia":11963,"ĠWed":11964,"ĠStudy":11965,"Ġcomprehensive":11966,"Ġtransmit":11967,"Ġexplan":11968,"avia":11969,"ĠÐºÐ°Ðº":11970,"Ġbuses":11971,"Ġrunners":11972,"Ġaviation":11973,"ĠProtection":11974,"post":11975,"Ġsettlers":11976,"duces":11977,"ĠPlanet":11978,"ĠOber":11979,"oday":11980,"tracks":11981,"ĠHein":11982,"ften":11983,"Ġassisted":11984,"Ġsaved":11985,"ansk":11986,"Ġviolent":11987,"iche":11988,"ĠEston":11989,"ĠManuel":11990,"ĠRhodes":11991,"cho":11992,"Ġparking":11993,"Ġbone":11994,"Ġbull":11995,"Ġscores":11996,"Swed":11997,"igu":11998,"Ġtram":11999,"ĠMath":12000,"quest":12001,"riculum":12002,"è§":12003,"Ġincl":12004,"Ġrarely":12005,"Ġcabinet":12006,"Ġlogo":12007,"roid":12008,"ĠBros":12009,"ocracy":12010,"Ġvictim":12011,"ĠStein":12012,"Ġorche":12013,"Ġanimation":12014,"Little":12015,"Ġattempting":12016,"etti":12017,"arson":12018,"Sil":12019,"Ġcomfort":12020,"alm":12021,"Ġpropag":12022,"ethyl":12023,"ucker":12024,"Ġfundamental":12025,"ĠSang":12026,"ĠTodd":12027,"Ġearning":12028,"Ġsket":12029,"Saint":12030,"ĠFlying":12031,"College":12032,"cover":12033,"fin":12034,"ĠNat":12035,"edo":12036,"outheastern":12037,"ĠBosnia":12038,"eing":12039,"ĠViol":12040,"Ġpursue":12041,"Ġcoached":12042,"month":12043,"ĠCreat":12044,"Ġthir":12045,"Ġconcerning":12046,"1921":12047,"Ġvertical":12048,"ĠCov":12049,"aru":12050,"Ġinterpretation":12051,"onial":12052,"appe":12053,"Ġpunk":12054,"Ġmarch":12055,"ĠSean":12056,"word":12057,"Ġpriests":12058,"ipino":12059,"Ġreporting":12060,"ĠAx":12061,"oots":12062,"Ġshift":12063,"Short":12064,"Ġcommented":12065,"Ġflights":12066,"Ġavo":12067,"Ġ88":12068,"Ben":12069,"Ġoutstanding":12070,"Ġhidden":12071,"Ġroot":12072,"Mac":12073,"Super":12074,"hall":12075,"Ġcorresponding":12076,"Ġverse":12077,"Head":12078,"Ġmilk":12079,"ĠFish":12080,"RO":12081,"Ġfunded":12082,"ĠRaymond":12083,"Ġ71":12084,"Ġstrategic":12085,"ĠGuitar":12086,"Ġward":12087,"ĠSerie":12088,"Ġmos":12089,"Ġtemperatures":12090,"Ġ96":12091,"Ġmini":12092,"Ġcrossed":12093,"alog":12094,"Ġreop":12095,"ibilities":12096,"Ġsilent":12097,"ĠBiography":12098,"ĠMusical":12099,"Commun":12100,"list":12101,"åį":12102,"ĠHus":12103,"Ġflex":12104,"Ġretreat":12105,"icken":12106,"ĠStill":12107,"leph":12108,"ĠSA":12109,"ĠAngels":12110,"jor":12111,"ĠSz":12112,"ĠJe":12113,"intendo":12114,"Ġaltitude":12115,"Ġlanded":12116,"Ġbrands":12117,"ĠFlorence":12118,"Ġcemetery":12119,"Ġconvert":12120,"iast":12121,"ĠLen":12122,"Ġindustries":12123,"imm":12124,"orne":12125,"cester":12126,"Ġmanaging":12127,"ĠPut":12128,"ĠSullivan":12129,"Bill":12130,"1923":12131,"Ġpartial":12132,"Ġmerchant":12133,"html":12134,"Ġgymn":12135,"Ġrecipient":12136,"omes":12137,"ĠHughes":12138,"ĠKrish":12139,"NY":12140,"Ġfib":12141,"ĠYouTube":12142,"Ġactivists":12143,"ĠâĤ¬":12144,"ĠOg":12145,"ĠÑĦ":12146,"idency":12147,"Ġcarries":12148,"amente":12149,"inguished":12150,"Ġoverseas":12151,"ĠNAS":12152,"ĠJunction":12153,"offs":12154,"HC":12155,"icity":12156,"ĠAires":12157,"Ġrestricted":12158,"weep":12159,"flu":12160,"ancellor":12161,"Ġfasc":12162,"Ġstyl":12163,"Ġbelonging":12164,"atta":12165,"ĠÑĤÐ°Ðº":12166,"ĠLeonard":12167,"Western":12168,"ottingham":12169,"Ġexecution":12170,"ĠManager":12171,"ieu":12172,"issions":12173,"oned":12174,"Ġphysician":12175,"Ġtournaments":12176,"Ġcircle":12177,"Ġrequested":12178,"olics":12179,"ĠKath":12180,"ovan":12181,"Brazil":12182,"Ġbarri":12183,"ilian":12184,"Ġextend":12185,"ahan":12186,"Ġslave":12187,"ĠWorkers":12188,"https":12189,"Ġabsol":12190,"ĠMills":12191,"earing":12192,"Ġspend":12193,"Ġslaves":12194,"live":12195,"Ġviewers":12196,"roat":12197,"Ġ1876":12198,"Ġgeomet":12199,"ĠGardens":12200,"ĠPeng":12201,"Ġformations":12202,"Ġmanip":12203,"ĠBeh":12204,"ĠArabia":12205,"roduction":12206,"Ġsyndrome":12207,"two":12208,"ĠLem":12209,"ĠEmp":12210,"Ġengineers":12211,"ĠRaid":12212,"Ġresumed":12213,"BE":12214,"Ġelementary":12215,"Ġtight":12216,"uclear":12217,"ĠArtillery":12218,"ioned":12219,"Ġprest":12220,"ĠPalmer":12221,"Ġillustrated":12222,"ĠArchitecture":12223,"ĠWithin":12224,"Ġtherapy":12225,"esar":12226,"enic":12227,"ĠMidd":12228,"Ġ800":12229,"FFFF":12230,"Ġeldest":12231,"Ġsongwriter":12232,"Ġfulf":12233,"Ġconstitutional":12234,"Ġremote":12235,"Ġphotos":12236,"Long":12237,"ĠPerth":12238,"Ġhybrid":12239,"Ġrevenue":12240,"ĠNathan":12241,"ĠGuild":12242,"Ġwider":12243,"Ġpartners":12244,"Ġvocalist":12245,"Ġmoral":12246,"ĠYang":12247,"ĠSomerset":12248,"ĠBears":12249,"Ġtravels":12250,"ovich":12251,"eric":12252,"Ġdepicted":12253,"oque":12254,"ĠSierra":12255,"ĠTasman":12256,"Ġtens":12257,"ĠPract":12258,"Ġdim":12259,"ĠJar":12260,"Three":12261,"Ġkeyboard":12262,"Ġist":12263,"illes":12264,"Ã©m":12265,"length":12266,"bel":12267,"gie":12268,"Ġcoffee":12269,"Ġ1867":12270,"anim":12271,"ische":12272,"icing":12273,"Ġelsewhere":12274,"ĠSI":12275,"ailing":12276,"Ġaffect":12277,"ĠVersion":12278,"kar":12279,"Ġbath":12280,"Ġcharter":12281,"Î¿":12282,"Ġrig":12283,"yler":12284,"ĠBrooks":12285,"Serv":12286,"Ġreact":12287,"ĠWag":12288,"1917":12289,"ĠThai":12290,"Ġconstitut":12291,"ĠÐ²Ð°":12292,"Ġnephew":12293,"Ġrespective":12294,"à¹ī":12295,"ulus":12296,"ĠBelf":12297,"Ġreceives":12298,"ĠImm":12299,"ĠDevil":12300,"Ġphrase":12301,"umps":12302,"ovina":12303,"Ġpreparation":12304,"ĠEight":12305,"GP":12306,"Ġspecialized":12307,"Musicians":12308,"Ġtrump":12309,"ĠArchive":12310,"ĠNashville":12311,"KO":12312,"Rugby":12313,"ternoon":12314,"ĠProduction":12315,"Ġinterviews":12316,"ĠPearl":12317,"Ġranging":12318,"mid":12319,"ĠWellington":12320,"Ġ74":12321,"æĢ":12322,"Ġcomparison":12323,"ĠOct":12324,"ĠPic":12325,"ĠHarbor":12326,"Ġcentres":12327,"story":12328,"ĠErnest":12329,"Ġtape":12330,"ovanni":12331,"Ġpermit":12332,"Ġpreferred":12333,"ieth":12334,"VA":12335,"ĠCha":12336,"Ġ110":12337,"erness":12338,"Ã½":12339,"Ġfer":12340,"adier":12341,"Ġenemies":12342,"Ġanthrop":12343,"Ġdiocese":12344,"Ġibn":12345,"ocene":12346,"acles":12347,"Ġevolved":12348,"onnie":12349,"ĠCruz":12350,"ĠKrist":12351,"ĠBav":12352,"ĠSocialist":12353,"ĠRenaissance":12354,"Ġdescribing":12355,"furt":12356,"ĠTax":12357,"ĠAway":12358,"ĠPython":12359,"Ġ1878":12360,"Ġresponded":12361,"estershire":12362,"ĠSpencer":12363,"Gen":12364,"ĠMut":12365,"ĠCampaign":12366,"Ġearthqu":12367,"ĠMTV":12368,"ĠHenri":12369,"Ġcompleting":12370,"second":12371,"forming":12372,"ÃŃas":12373,"Ġaffair":12374,"ĠNewton":12375,"asia":12376,"Ġhappy":12377,"Ġfeelings":12378,"Ġteeth":12379,"ĠÑĢÐ°Ð·":12380,"Ġshops":12381,"ĠPanama":12382,"Ġwealthy":12383,"Ġ1875":12384,"NS":12385,"dal":12386,"Ġast":12387,"ymph":12388,"hm":12389,"ĠLA":12390,"Ġunions":12391,"Ġlooked":12392,"ĠGuardian":12393,"ĠÑĢÐµ":12394,"Ġinfluences":12395,"ĠRepresentative":12396,"Ġopponents":12397,"ĠMonday":12398,"Ġshr":12399,"azi":12400,"Ġ73":12401,"Soviet":12402,"ĠAzerbaijan":12403,"Ġrect":12404,"ĠLor":12405,"fefef":12406,"Ġunlike":12407,"fefefe":12408,"Ġcompiled":12409,"via":12410,"arta":12411,"quarter":12412,"Ġhardware":12413,"Ġriding":12414,"Ġpermitted":12415,"first":12416,"tains":12417,"Ġextensively":12418,"Ġarena":12419,"Ġtours":12420,"ĠDictionary":12421,"ĠMontana":12422,"Ġej":12423,"lights":12424,"1910":12425,"than":12426,"strument":12427,"Ġdecide":12428,"Ġwritings":12429,"ĠĠĠĠĠĠĠĠĠĠĠ":12430,"Ġthinking":12431,"Ġcertified":12432,"Ġing":12433,"ĠSold":12434,"eling":12435,"Ġscholarship":12436,"join":12437,".:":12438,"ĠfÃ¼r":12439,"Ġprox":12440,"ĠReed":12441,"sm":12442,"Ġusual":12443,"Ġdelivery":12444,"ĠESPN":12445,"Ġdismissed":12446,"ĠBeijing":12447,"Ġmemor":12448,"Ġgal":12449,"ĠDol":12450,"ĠKerala":12451,"ĠVict":12452,"vor":12453,"ĠAj":12454,"ĠBour":12455,"ĠIsle":12456,"Bob":12457,"Ġgolden":12458,"ĠKil":12459,"Ġpandemic":12460,"inated":12461,"elected":12462,"ĠBach":12463,"Ġsurpr":12464,"Ġcommentary":12465,"à¹Ģà¸":12466,"Ġ82":12467,"Ġmetropolitan":12468,"Ġvisits":12469,"ĠPeak":12470,"ĠSyria":12471,"Ġ1871":12472,"path":12473,"ĠRange":12474,"ĠGene":12475,"Ġsporting":12476,"Ġprices":12477,"ĠIsaac":12478,"Ġfifteen":12479,"Ġwithdrew":12480,"ammals":12481,"Ġexposure":12482,"cott":12483,"urse":12484,"Ġunless":12485,"rupted":12486,"ĠAnnual":12487,"ĠKenya":12488,"Ġresort":12489,"ĠBuenos":12490,"Ġpromoting":12491,"ĠEagle":12492,"Ġspeakers":12493,"Ġ1868":12494,"Ġdepartments":12495,"ĠHeights":12496,"Ġpermanently":12497,"race":12498,"iden":12499,"Ġfabric":12500,"Ġ1872":12501,"Ġsamples":12502,"rous":12503,"acco":12504,"essed":12505,"ĠSpider":12506,"Ġconcepts":12507,"Ġcomputers":12508,"lee":12509,"Ġguar":12510,"Ġruler":12511,"1915":12512,"iao":12513,"Rivers":12514,"kan":12515,"Ġrecognised":12516,"Ġconventional":12517,"ede":12518,"ĠHaz":12519,"Ġconfess":12520,"Ġtheories":12521,"ĠMontgomery":12522,"ĠSaskatchewan":12523,"Ġleaf":12524,"ÑĪÐ¸":12525,"ĠAdventures":12526,"Ġthereafter":12527,"ĠProvincial":12528,"ĠChapter":12529,"æī":12530,"Ġtel":12531,"Dutch":12532,"ĠRif":12533,"official":12534,"ĠTrump":12535,"Ġcampaigns":12536,"Er":12537,"Ġmargin":12538,"ĠNapole":12539,"Ġsteep":12540,"Ġ1879":12541,"Ġaspect":12542,"his":12543,"gebra":12544,"ND":12545,"Ġinitiated":12546,"ĠFinance":12547,"ĠCuban":12548,"ĠLuxembourg":12549,"Ġbay":12550,"ĠSaw":12551,"jet":12552,"Ġslowly":12553,"velt":12554,"Ġdevoted":12555,"Ġarrives":12556,"Ġapproaches":12557,"Ġhypothes":12558,"ĠCase":12559,"ĠProp":12560,"alis":12561,"Ġlooks":12562,"1916":12563,"ĠArmenia":12564,"Ġmans":12565,"ĠMalay":12566,"ĠNigeria":12567,"rift":12568,"Release":12569,"alling":12570,"Ġperspective":12571,"four":12572,"Cath":12573,"Ġrefere":12574,"Ġdialect":12575,"ecraft":12576,"abul":12577,"Ġcontrols":12578,"phib":12579,"Ġsymp":12580,"ĠOwen":12581,"Ġ1874":12582,"ĠSweet":12583,"ĠGP":12584,"intend":12585,"ĠÐºÐ¾ÑĤÐ¾":12586,"acer":12587,"Ġneutral":12588,"èĢ":12589,"Ġlistings":12590,"Ġconsistent":12591,"Ġ1840":12592,"Ġrum":12593,"ĠScar":12594,"ĠOriginal":12595,"Ġblow":12596,"Ġampl":12597,"Ġexplains":12598,"Ġinternationally":12599,"Between":12600,"ĠValent":12601,"Ġredes":12602,"roe":12603,"ĠBak":12604,"Ġescaped":12605,"ĠMang":12606,"Ann":12607,"brook":12608,"Ġtemporarily":12609,"Sur":12610,"Politics":12611,"ĠWeekly":12612,"Ġfavorite":12613,"ĠIceland":12614,"boro":12615,"Ġskiing":12616,"ĠPlat":12617,"Jack":12618,"Ġhills":12619,"ĠTalk":12620,"Ġblues":12621,"Ġburned":12622,"ĠEld":12623,"ĠDh":12624,"ubs":12625,"Ġhamlet":12626,"Ġisolated":12627,"about":12628,"ĠYellow":12629,"Ġreducing":12630,"Ġconscious":12631,"igue":12632,"Ġframework":12633,"ĠOutstanding":12634,"Ġangle":12635,"imensional":12636,"ĠBennett":12637,"ĠVoice":12638,"Ġaboard":12639,"Ġdas":12640,"undo":12641,"ĠGust":12642,"Ur":12643,"Ġquarterback":12644,"onso":12645,"Ġty":12646,"Argent":12647,"Ġjournals":12648,"Fore":12649,"ĠSoph":12650,"ifier":12651,"monton":12652,"Ġkilometers":12653,"Ã¡t":12654,"ĠHerald":12655,"ĠWatson":12656,"mand":12657,"esty":12658,"Ġapproached":12659,"ĠArticle":12660,"ĠDemocrats":12661,"ĠCeltic":12662,"ĠHob":12663,"Selected":12664,"ĠFolk":12665,"ĠParks":12666,"Schools":12667,"ĠHigher":12668,"Ġattendance":12669,"ferred":12670,"Ġfocuses":12671,"week":12672,"Ġclinical":12673,"reated":12674,"')":12675,"Det":12676,"ĠAbu":12677,"ĠLiu":12678,"Ġalien":12679,"Ġannex":12680,"Ġrib":12681,"Ġpremiere":12682,"Ġexactly":12683,"ï¼ļ":12684,"ups":12685,"Ġrelay":12686,"Ġload":12687,"Ġfuneral":12688,"Ġreorgan":12689,"ĠJen":12690,"Ġalliance":12691,"ĠTales":12692,"ĠReading":12693,"Ġfeeling":12694,"Ġcalcul":12695,"esse":12696,"ĠCoal":12697,"Ġ1883":12698,"Ġplastic":12699,"Ġworn":12700,"ĠStanford":12701,"Every":12702,"Ġnam":12703,"icos":12704,"oco":12705,"Ġoptim":12706,"Ġexcellent":12707,"Ġprol":12708,"ĠStudent":12709,"Ġreservoir":12710,"okes":12711,"ĠFaith":12712,"quis":12713,"Ġrid":12714,"insky":12715,"uanian":12716,"Ġrecovery":12717,"Ġstops":12718,"Ġdeemed":12719,"Ġchron":12720,"Ġprove":12721,"Ġcompetitors":12722,"Ġcodes":12723,"ĠBelgrade":12724,"Ġkings":12725,"through":12726,"arians":12727,"Ġpour":12728,"ĠSoutheast":12729,"ĠNas":12730,"Ġbrigade":12731,"Mor":12732,"Ġsubmitted":12733,"ĠScientific":12734,"Ġnegotiations":12735,"ĠActress":12736,"Ġupdated":12737,"åĨ":12738,"ĠOcc":12739,"ĠShop":12740,"prus":12741,"Ġrevers":12742,"ĠFras":12743,"Ã¤r":12744,"ovsky":12745,"Blue":12746,"Ġcartoon":12747,"pson":12748,"Ġlegacy":12749,"Ġbirthday":12750,"rave":12751,"ĠAnti":12752,"ĠDaw":12753,"åĩ":12754,"Ġstrengthen":12755,"Ġsobre":12756,"Ġthanks":12757,"Ġties":12758,"ĠAFL":12759,"izard":12760,"Ġatmosphere":12761,"Ġmathematic":12762,"ĠSimilar":12763,"Ġdifficulty":12764,"Ġexclusive":12765,"Los":12766,"Ġcavalry":12767,"ĠAdvis":12768,"ĠWells":12769,"ĠPlayers":12770,"ĠMarines":12771,"ĠDesert":12772,"Ġinterpre":12773,"âĪĴ":12774,"White":12775,"ĠRah":12776,"Ġcommenced":12777,"Ġflash":12778,"otto":12779,"Ġcollapse":12780,"esa":12781,"ĠAmendment":12782,"Ġenforcement":12783,"ĠFranÃ§":12784,"Ġdemonstrated":12785,"ĠOpp":12786,"marks":12787,"ĠShir":12788,"ĠOakland":12789,"Ġcompounds":12790,"ĠClare":12791,"Ġ81":12792,"Ġfarming":12793,"Burials":12794,"Ġ}":12795,"Ð¾Ñģ":12796,"ĠPath":12797,"aelic":12798,"senal":12799,"Business":12800,"Ġaw":12801,"Ð½Ð¾Ð¹":12802,"Ġlayout":12803,"ĠGeoff":12804,"ĠApost":12805,"ĠTreas":12806,"ĠHat":12807,"imates":12808,"ĠOwn":12809,"Ġhence":12810,"Ġinformed":12811,"imen":12812,"Ġpilots":12813,"Oh":12814,"Ġeconomics":12815,"Ġsoc":12816,"ĠIg":12817,"even":12818,"inos":12819,"Ġdogs":12820,"Ġzero":12821,"ĠWilhelm":12822,"Ġventure":12823,"Ġ1873":12824,"inas":12825,"ĠAltern":12826,"ĠStef":12827,"aude":12828,"Ã¡r":12829,"ompass":12830,"ĠOverall":12831,"icia":12832,"ĠFiction":12833,"ĠParad":12834,"ĠQuest":12835,"writing":12836,"terbury":12837,"Ġconsolid":12838,"apters":12839,"Ġnit":12840,"Ġchemistry":12841,"ĠOrd":12842,"Ġwaiting":12843,"Ġsubsc":12844,"Ġcompound":12845,"ĠApollo":12846,"ĠEconomics":12847,"ĠEnvironmental":12848,"named":12849,"Ġsubt":12850,"Ġcave":12851,"Ġprev":12852,"ĠCob":12853,"Ġcollaps":12854,"Ġinspiration":12855,"Politicians":12856,"FI":12857,"Ġsummit":12858,"gence":12859,"fast":12860,"uche":12861,"Ġelevated":12862,"Ġdeparted":12863,"Mel":12864,"that":12865,"Results":12866,"ĠHD":12867,"Ġconven":12868,"åĮ":12869,"ĠJoan":12870,"Form":12871,"ĠLex":12872,"ĠAccess":12873,"osexual":12874,"entes":12875,"Ġ1866":12876,"ĠGabriel":12877,"eras":12878,"ĠNorthwest":12879,"team":12880,"Ġescort":12881,"Av":12882,"ĠLie":12883,"ija":12884,"Ġquad":12885,"tz":12886,"ishi":12887,"Ġcondem":12888,"Ġmas":12889,"ĠTransit":12890,"Ġsuspension":12891,"ĠTrad":12892,"notes":12893,"ĠNy":12894,"ĠBeth":12895,"Ġspeaker":12896,"Ġtravelled":12897,"è¦ģ":12898,"redit":12899,"bone":12900,"lez":12901,"Ġaccommodate":12902,"Rem":12903,"ĠCraw":12904,"Central":12905,"ĠLegion":12906,"idi":12907,"ĠWatch":12908,"Ġ101":12909,"Ġtechnologies":12910,"ĠÑģÐ²":12911,"Ġpredecessor":12912,"Day":12913,"Ġpoison":12914,"ĠWoods":12915,"Ġempty":12916,"ĠHarper":12917,"Ġpromin":12918,"ĠEssex":12919,"sterious":12920,"Ġcontested":12921,"Ġfootage":12922,"ĠSchol":12923,"ĠâĨĴ":12924,"Ġcarrier":12925,"Ġtelling":12926,"ĠFriedrich":12927,"æ³":12928,"ĠChes":12929,"ullah":12930,"Acc":12931,"City":12932,"Ġvow":12933,"Ġoutdoor":12934,"Route":12935,"ĠLak":12936,"Ġgross":12937,"Ġretiring":12938,"Ġenthus":12939,"Ġreferring":12940,"Ġrocks":12941,"ĠCampus":12942,"ĠKate":12943,"Ġspir":12944,"Ġdisch":12945,"Ġposter":12946,"ĠRoth":12947,"iking":12948,"OP":12949,"Ġhandle":12950,"ĠDelta":12951,"ĠPink":12952,"ĠArg":12953,"Ġradical":12954,"osaurus":12955,"lain":12956,"Ġ92":12957,"Ġmeasured":12958,"wind":12959,"ÑģÑĤÐ°":12960,"Ġdisbanded":12961,"Ġanaly":12962,"Ġcitizen":12963,"Ġsculpture":12964,"itan":12965,"Ġrevol":12966,"municip":12967,"Ġalgorithm":12968,"!!":12969,"1912":12970,"ĠMario":12971,"Ġhistorically":12972,"Ġdissolved":12973,"ĠIng":12974,"ĠHeaven":12975,"ĠKin":12976,"Ġassum":12977,"Mult":12978,"Ġstick":12979,"Ġpowered":12980,"rand":12981,"ĠAndrews":12982,"attered":12983,"ĠThose":12984,"Ġplain":12985,"Ġchrom":12986,"ska":12987,"çĽ":12988,"Ġworst":12989,"Ġdesert":12990,"ĠAdmiral":12991,"ĠJoint":12992,"uador":12993,"Ġoblig":12994,"ĠMoz":12995,"Ġpupils":12996,"Ġinitiative":12997,"ĠFinally":12998,"sur":12999,"Ġfert":13000,"ĠLombard":13001,"itic":13002,"ipeg":13003,"Ġboxing":13004,"Ġdifficulties":13005,"Ġbattery":13006,"Ġremark":13007,"ĠObserv":13008,"Open":13009,"Ġgear":13010,"osevelt":13011,"rar":13012,"ĠCornwall":13013,"lt":13014,"ĠKarn":13015,"Ġbars":13016,"Pan":13017,"ĠWals":13018,"Ġcathedral":13019,"appeared":13020,"orded":13021,"Ġbypass":13022,"ĠManit":13023,"Ġadjust":13024,"Ġfaster":13025,"omed":13026,"ĠLakes":13027,"Ġinherited":13028,"Ġblog":13029,"inyl":13030,"Ġwick":13031,"ĠJur":13032,"ĠFinancial":13033,"ĠRonald":13034,"Ġnarrative":13035,"Ġprosp":13036,"ĠCompetition":13037,"Ġdescendants":13038,"ĠHamburg":13039,"Bro":13040,"speaking":13041,"Ġ93":13042,"ĠKra":13043,"Ġbreaks":13044,"ĠDominican":13045,"Ġ98":13046,"ĠFormula":13047,"Ġay":13048,"immer":13049,"Ġdeck":13050,"Ġdisorder":13051,"Ġcommune":13052,"Ġimprovements":13053,"omorph":13054,"icting":13055,"Ġfeud":13056,"Ġvariation":13057,"ĠRaw":13058,"ĠTravel":13059,"Legacy":13060,"Non":13061,"ustrated":13062,"ĠFurthermore":13063,"600":13064,"Ġmig":13065,"irms":13066,"Ġempire":13067,"aping":13068,"Ġdiscovers":13069,"ĠShar":13070,"ĠLegend":13071,"ĠYankees":13072,"ĠMC":13073,"ificate":13074,"isons":13075,"ĠTibet":13076,"Ġninet":13077,"ĠInterstate":13078,"ĠMaz":13079,"Ġretro":13080,"Ġ1877":13081,"Ġvoters":13082,"uania":13083,"ĠCS":13084,"ĠDavies":13085,"Ġdistinctive":13086,"si":13087,"ÐµÐ½Ð¸Ðµ":13088,"Ġdisaster":13089,"ĠNine":13090,"Ġshield":13091,"ĠResources":13092,"iliary":13093,"Joseph":13094,"GC":13095,"Ġtox":13096,"Ġ89":13097,"itus":13098,"Ma":13099,"Ġfinance":13100,"Ġencompass":13101,"Ġpharm":13102,"Ġranges":13103,"Ġregul":13104,"ĠHighland":13105,"Ġparticipating":13106,"ĠFu":13107,"Ġvictories":13108,"Direct":13109,"Final":13110,"enton":13111,"ĠLaura":13112,"ĠBes":13113,"Ġstem":13114,"Ġathlete":13115,"omber":13116,"istration":13117,"ĠArtists":13118,"Ġbio":13119,"1913":13120,"ĠChan":13121,"sole":13122,"Ġrifle":13123,"rary":13124,"ĠSisters":13125,"Ġacres":13126,"Ġguitarists":13127,"Ġdistinction":13128,"á¸":13129,"Ġblind":13130,"byter":13131,"ĠThom":13132,"Ġfriendship":13133,"uncan":13134,"ĠSH":13135,"ĠCand":13136,"GM":13137,"Ġmerc":13138,"ĠKash":13139,"Ġticket":13140,"ĠCut":13141,"ĠLess":13142,"Ġclergy":13143,"addy":13144,"ĠDra":13145,"Ġneighboring":13146,"Ġtub":13147,"ĠAch":13148,"Ġflew":13149,"ĠWhere":13150,"iott":13151,"ĠDeuts":13152,"Ġtourism":13153,"ĠLok":13154,"ĠVern":13155,"Ġindoor":13156,"ĠTake":13157,"Ġrevival":13158,"Ġprotests":13159,"ĠLiberty":13160,"ĠRelations":13161,"ĠCauc":13162,"Ġgrey":13163,"atinum":13164,"Ġdemands":13165,"Os":13166,"ben":13167,"Players":13168,"Ext":13169,"Ġacceler":13170,"ĠCatholics":13171,"ĠWorth":13172,"ĠArchives":13173,"isha":13174,"Ð½Ðµ":13175,"ĠAbdul":13176,"beat":13177,"Ġastronom":13178,"Ã©c":13179,"Ġorganic":13180,"Dis":13181,"Pe":13182,"elly":13183,"ighthouse":13184,"hin":13185,"aje":13186,"Ġtertiary":13187,"Ġessentially":13188,"ĠGas":13189,"Ġmainstream":13190,"atsu":13191,"ĠBelarus":13192,"ÃĹ":13193,"Ġpulled":13194,"ĠOscar":13195,"phis":13196,"Ġhelicopter":13197,"Ġcoc":13198,"Ġpas":13199,"Ġemphasis":13200,"ĠNancy":13201,"Ġfamiliar":13202,"onaut":13203,"ĠCalgary":13204,"kt":13205,"ĠPod":13206,"piracy":13207,"Ġ97":13208,"Ġdrain":13209,"forced":13210,"Scot":13211,"Ġdrinking":13212,"Ġcogn":13213,"ĠMiguel":13214,"ç§":13215,"âĢł":13216,"TT":13217,"Ġexplicit":13218,"opsis":13219,"ĠMoses":13220,"Ġdispos":13221,"Ġdiscontinued":13222,"ĠGamb":13223,"ĠUniverse":13224,"Ġdeter":13225,"Ð½ÑĭÐ¹":13226,"Ġlegislative":13227,"ĠBailey":13228,"Ġamounts":13229,"eor":13230,"Step":13231,"ĠDemocrat":13232,"Ġanchor":13233,"Ġassists":13234,"Ġcolumns":13235,"Singles":13236,"vas":13237,"isting":13238,"ĠPrison":13239,"ĠHindi":13240,"Ġtone":13241,"Ham":13242,"ĠCome":13243,"Ġartwork":13244,"ĠMotors":13245,"ĠPirates":13246,"Ġdelayed":13247,"family":13248,"ĠChair":13249,"airo":13250,"Through":13251,"Ġelabor":13252,"Ġprogrammes":13253,"Ġobjective":13254,"Good":13255,"Ġconstituencies":13256,"rage":13257,"Ġpackage":13258,"Ġpy":13259,"ĠEin":13260,"lich":13261,"ĠArmed":13262,"ĠIraqi":13263,"Ġtelephone":13264,"Ġraising":13265,"ĠBlock":13266,"ylan":13267,"rapped":13268,"Bec":13269,"avier":13270,"ĠStevens":13271,"ĠEventually":13272,"Ġvaried":13273,"Ġpale":13274,"cling":13275,"berto":13276,"uchy":13277,"Ġcomedian":13278,"Ġadministered":13279,"Association":13280,"ĠcÃ³":13281,"ifax":13282,"ĠLeader":13283,"ĠJamaica":13284,"Ġimprisoned":13285,"Washington":13286,"ieve":13287,"Ġmorph":13288,"Ġghost":13289,"Ġbelt":13290,"Ġforested":13291,"las":13292,"Ġlights":13293,"ĠGaz":13294,"Municipalities":13295,"onica":13296,"ĠFun":13297,"ĠInterview":13298,"aris":13299,"ĠBras":13300,"Ġeligible":13301,"etters":13302,"oyage":13303,"ĠCC":13304,"ĠPaulo":13305,"Ġcoinc":13306,"Louis":13307,"ĠCF":13308,"Ġovert":13309,"umberland":13310,"Ġcongressional":13311,"rag":13312,"Rob":13313,"Ġfilming":13314,"Ġanalog":13315,"Mur":13316,"Ġsick":13317,"umen":13318,"Ġtoll":13319,"amation":13320,"Ġvaluable":13321,"Ġratings":13322,"çŃ":13323,"Ġrecalled":13324,"iago":13325,"oded":13326,"isan":13327,"ĠTall":13328,"hibition":13329,"Ġmuscle":13330,"Ġpetition":13331,"Smith":13332,"Ġcyl":13333,"aneous":13334,"ĠPhilosophy":13335,"ÅĻ":13336,"Ġarriving":13337,"Ġdecorated":13338,"sburg":13339,"ĠPlayStation":13340,"speed":13341,"ĠSex":13342,"Ġsignals":13343,"Ġbreast":13344,"ĠCyprus":13345,"Ġdos":13346,"ĠHood":13347,"Ġministry":13348,"Ġimpossible":13349,"Ġhospitals":13350,"Ġportions":13351,"Ġresignation":13352,"Ġresource":13353,"ĠTransl":13354,"Ġexhibit":13355,"ĠTir":13356,"Ġcharacteristic":13357,"Ġremoval":13358,"Ġwasn":13359,"ĠTiger":13360,"Ġsiege":13361,"ĠHenderson":13362,"Round":13363,"ĠFoot":13364,"stract":13365,"ĠWu":13366,"ĠColin":13367,"Ġarrive":13368,"ĠKazakh":13369,"1900":13370,"ĠVent":13371,"ĠRevolutionary":13372,"Ġcopper":13373,"HP":13374,"Ġoutbreak":13375,"ieties":13376,"alks":13377,"Four":13378,"Ġlisten":13379,"ĠSlav":13380,"ĠMaurice":13381,"Ġsimul":13382,"ĠRhode":13383,"Den":13384,"olin":13385,"ĠPiet":13386,"Ġveteran":13387,"ĠCec":13388,"Ice":13389,"ĠRemix":13390,"Ġcooperation":13391,"ĠAirlines":13392,"ĠDevon":13393,"Ġveloc":13394,"Ġsitting":13395,"Ġrecruited":13396,"Ġbell":13397,"Ġtaxes":13398,"Ġlig":13399,"Ġdebuts":13400,"Ġdramatic":13401,"ĠPrinceton":13402,"ĠWildlife":13403,"ĠMull":13404,"mons":13405,"Ġgenerate":13406,"Ġtargets":13407,"Group":13408,"Ġinstruction":13409,"ĠReform":13410,"Basketball":13411,"Ġimmigration":13412,"bet":13413,"arms":13414,"Ġstructural":13415,"ĠBag":13416,"India":13417,"ÐµÐ»":13418,"Cor":13419,"ĠSter":13420,"ĠNottingham":13421,"Ġacademy":13422,"Ġradar":13423,"Henry":13424,"odia":13425,"alus":13426,"Ġasking":13427,"ĠCzechosl":13428,"Ġbeliefs":13429,"Taxa":13430,"Ġpresenter":13431,"Ġsocieties":13432,"ĠMend":13433,"ĠSebast":13434,"ÏĦ":13435,"Ġmaintaining":13436,"ĠWings":13437,"ÙĦ":13438,"Ġgift":13439,"Ġinterface":13440,"etary":13441,"icycle":13442,"Canada":13443,"Ġcoins":13444,"Great":13445,"wid":13446,"Ġwarri":13447,"ĠSony":13448,"Ġqueen":13449,"colm":13450,"erek":13451,"Ġefficiency":13452,"ocent":13453,"ĠFranz":13454,"Ġnearest":13455,"Chinese":13456,"ĠConcert":13457,"ĠSchw":13458,"ĠNASA":13459,"800":13460,"ĠCavalry":13461,"uisine":13462,"ĠEC":13463,"Ġaccompany":13464,"Ã©g":13465,"ĠBelfast":13466,"owder":13467,"Mah":13468,"Modern":13469,"ĠJerem":13470,"ĠFat":13471,"lando":13472,"Ġaccurate":13473,"Ġholiday":13474,"ĠHitler":13475,"Po":13476,"umph":13477,"rows":13478,"ĠCant":13479,"ĠVII":13480,"Ġwinds":13481,"à¸£":13482,"Wind":13483,"ampire":13484,"Ġferry":13485,"ĠComedy":13486,"ĠCust":13487,"amine":13488,"eneration":13489,"ĠMade":13490,"ĠDas":13491,"holders":13492,"Ġconsumption":13493,"sup":13494,"arted":13495,"namese":13496,"urrect":13497,"Ġprepare":13498,"Ġstored":13499,"RE":13500,"onte":13501,"Ġchorus":13502,"Ġparishes":13503,"ĠBreak":13504,"ĠMine":13505,"Ġ84":13506,"Ġglac":13507,"ĠUntil":13508,"oil":13509,"inery":13510,"tees":13511,"Ġinteresting":13512,"Ġpresents":13513,"Ġdollars":13514,"Ġchess":13515,"bin":13516,"ĠPain":13517,"arin":13518,"Ġcompositions":13519,"ÑİÑĤ":13520,"ĠLisa":13521,"Ġrelating":13522,"ĠAhmed":13523,"ĠGand":13524,"ĠRice":13525,"Î½":13526,"inee":13527,"ĠLearning":13528,"Like":13529,"Ġconfused":13530,"à¸ģ":13531,"ourney":13532,"ĠSikh":13533,"Ġsimultaneously":13534,"orem":13535,"Ġsharing":13536,"ĠFourth":13537,"ĠLutheran":13538,"Mary":13539,"ĠThunder":13540,"Ġfighters":13541,"idance":13542,"Ġplacing":13543,"Prior":13544,"ĠShield":13545,"Ġjudg":13546,"Of":13547,"Ġnoise":13548,"ĠLucas":13549,"amy":13550,"Ġcultures":13551,"Mex":13552,"illon":13553,"piece":13554,"Ġpredominantly":13555,"ĠSou":13556,"ÑĢÐµÐ´":13557,"itudes":13558,"ĠÐŁ":13559,"Ġphotographer":13560,"ĠCameron":13561,"æŃ":13562,"Ð¸Ð¼":13563,"ĠXI":13564,"Ġfailing":13565,"ĠEt":13566,"ÑĥÑĤ":13567,"OW":13568,"ĠAur":13569,"Ġhyd":13570,"ĠProfile":13571,"Ġgrandson":13572,"ðŁ":13573,"ĠHaven":13574,"ĠXV":13575,"ĠFilms":13576,"akk":13577,"ĠArd":13578,"Ġattacking":13579,"Ġsweet":13580,"Ġhole":13581,"ĠÐ¶":13582,"Ġgrave":13583,"Ġextends":13584,"quet":13585,"ĠAllan":13586,"Ġvoiced":13587,"Ġexperiments":13588,"Ġsubmarine":13589,"anyon":13590,"ĠTab":13591,"ĠVil":13592,"Ġ87":13593,"ĠAntar":13594,"ĠBenedict":13595,"|}":13596,"ĠMetal":13597,"Brien":13598,"Ġwilling":13599,"municipality":13600,"ĠPrague":13601,"Ġseemed":13602,"ĠOw":13603,"Ġshorter":13604,"ĠRoosevelt":13605,"ĠEvangel":13606,"horn":13607,"Ġtested":13608,"Ġfame":13609,"aiden":13610,"Ġpill":13611,"ĠDurham":13612,"Fac":13613,"Ġtum":13614,"ĠKas":13615,"Ġbombing":13616,"Ġarchaeological":13617,"ĠCombat":13618,"Ġtriple":13619,"Ġspeaks":13620,"erves":13621,"zig":13622,"Ġmemb":13623,"Ġjury":13624,"iev":13625,"ĠCrus":13626,"ĠTheory":13627,"Ġphosph":13628,"Ġemotional":13629,"Ġphilosopher":13630,"nick":13631,"lew":13632,"cludes":13633,"lived":13634,"Ġinhabited":13635,"ĠSep":13636,"1911":13637,"Ġvolunteers":13638,"ĠFuj":13639,"ondo":13640,"Ġapprec":13641,"Ġportrait":13642,"Ġskill":13643,"Att":13644,"Ġtut":13645,"Ġintercept":13646,"Ġpioneer":13647,"igure":13648,"ĠCardinal":13649,"å¥":13650,"ĠKor":13651,"Ġanalyst":13652,"fight":13653,"Ġgat":13654,"Ġoxygen":13655,"Ġliv":13656,"Ġproof":13657,"ĠBradford":13658,"Â²":13659,"ĠEditor":13660,"ĠPublications":13661,"ĠGrammy":13662,"Ġtributary":13663,"cock":13664,"Ġtraveling":13665,"Ġprocedure":13666,"group":13667,"intendent":13668,"Ġsailed":13669,"ĠChad":13670,"ĠHous":13671,"ĠAmazon":13672,"Techn":13673,"ĠShortly":13674,"Ġunem":13675,"ME":13676,"Ġbench":13677,"Ġbreeding":13678,"ĠXX":13679,"ints":13680,"ĠHim":13681,"umbent":13682,"ĠLot":13683,"Ġinteraction":13684,"ocals":13685,"Ãºn":13686,"Ġinstallation":13687,"Ġsolutions":13688,"Ġ1869":13689,"aji":13690,"Ġentre":13691,"Ġbelongs":13692,"Ġpir":13693,"ĠJung":13694,"Ġsegments":13695,"--------":13696,"tes":13697,"ĠAdvanced":13698,"Administ":13699,"ĠSudan":13700,"species":13701,"bank":13702,"Ġrestrictions":13703,"Ġintellectual":13704,"ĠSul":13705,"ĠIT":13706,"Ġspots":13707,"Ġdefended":13708,"Ġprinting":13709,"Ġ),":13710,"France":13711,"stock":13712,"Ġ83":13713,"Ġorange":13714,"angular":13715,"Ġdocumented":13716,"ĠCinema":13717,"ĠAw":13718,"ĠPent":13719,"ĠWarri":13720,"isi":13721,"onal":13722,"ĠWithout":13723,"rio":13724,"ussels":13725,"Ġcolonies":13726,"Ġautomatic":13727,"NN":13728,"Ġpointed":13729,"ĠJacques":13730,"Ġautob":13731,"Ġforth":13732,"ensen":13733,"ĠWestminster":13734,"ĠHero":13735,"iatric":13736,"Ġcow":13737,"Ġbears":13738,"ĠDouble":13739,"ÑĤÐµÐ»ÑĮ":13740,"ĠKenneth":13741,"More":13742,"rh":13743,"Ġflour":13744,"Ġaccum":13745,"made":13746,"ÐµÑĤÑģÑı":13747,"ĠRaf":13748,"ĠWarsaw":13749,"ĠSey":13750,"Ġsupplied":13751,"åı¯ä»¥":13752,"DE":13753,"Ġtrouble":13754,"Ġmonthly":13755,"ĠBark":13756,"Ġrebellion":13757,"Ġ(#":13758,"ĠWinners":13759,"Ġvulner":13760,"iability":13761,"Ġsav":13762,"Ġenrolled":13763,"inters":13764,"icious":13765,"ĠName":13766,"Ġdoubles":13767,"pher":13768,"ĠRailways":13769,"çİ":13770,"Ġcoalition":13771,"inae":13772,"ĠTampa":13773,"Ġhem":13774,"Ba":13775,"ĠDy":13776,"ĠFul":13777,"Ġprisoner":13778,"kinson":13779,"æł":13780,"Ġ1800":13781,"ĠLar":13782,"ĠManila":13783,"Ġrenowned":13784,"Ġpoverty":13785,"ĠRhe":13786,"Ġpel":13787,"ĠLouisville":13788,"Ġfiring":13789,"ĠKol":13790,"ishn":13791,"egovina":13792,"Ġracial":13793,"ĠNE":13794,"cal":13795,"ĠKiss":13796,"Ġcollaborated":13797,"ĠHod":13798,"ĠCardiff":13799,"ĠGibson":13800,"Ġexha":13801,"ĠCorp":13802,"Ġprogressive":13803,"Ġtackles":13804,"Ġcomments":13805,"Ġdevelopments":13806,"Ġ94":13807,"Ġmissile":13808,"ĠNaples":13809,"Ġdivorced":13810,"uchi":13811,"ĠAnat":13812,"Ġequation":13813,"äºĨ":13814,"Time":13815,"ĠOtto":13816,"Ġneighbourhood":13817,"Ġmemoir":13818,"zed":13819,"ĠArms":13820,"ĠTrent":13821,"Ġreward":13822,"Ġpeer":13823,"âĢĿ.":13824,"Ġbrew":13825,"Ġskating":13826,"ependent":13827,"Ġvariations":13828,"Ġeasier":13829,"Ġindicating":13830,"umm":13831,"mente":13832,"Ġtransit":13833,"Ġrecipients":13834,"Ġlaps":13835,"Ġ--":13836,"ĠLithuania":13837,"unners":13838,"Matt":13839,"ismo":13840,"ĠWarriors":13841,"Ġcad":13842,"ecca":13843,"ogg":13844,"Ġsacrif":13845,"ĠAircraft":13846,"ĠTriple":13847,"ĠEpiscopal":13848,"nesday":13849,"ĠAny":13850,"Ġstatements":13851,"Ġrivals":13852,"Ġtorped":13853,"Flora":13854,"Ġthriller":13855,"Ġcomprises":13856,"Ġentity":13857,"ĠForum":13858,"Ġimprovement":13859,"ä½ł":13860,"Ġlift":13861,"Ġquantum":13862,"opt":13863,"ĠStri":13864,"Ġeditors":13865,"Ġentreprene":13866,"Ġpushed":13867,"osc":13868,"Ġspecimens":13869,"Ġsituations":13870,"ĠEllis":13871,"ĠMorocco":13872,"Ġhighways":13873,"ĠEmmy":13874,"ĠPied":13875,"Ġunderwent":13876,"Ġsupplement":13877,"Ã¡nd":13878,"Ġchest":13879,"habilit":13880,"Ġcelebration":13881,"oyle":13882,"aeus":13883,"feat":13884,"Ġstolen":13885,"print":13886,"common":13887,"Ġpianist":13888,"ouns":13889,"Ã¯":13890,"ĠIP":13891,"Ġstake":13892,"ĠKind":13893,"ĠCitiz":13894,"ĠLif":13895,"Ġdestination":13896,"Ġputting":13897,"Ġrice":13898,"Ġcru":13899,"Ġborrow":13900,"Ġreaders":13901,"Ġ86":13902,"Stat":13903,"bery":13904,"Ġ1848":13905,"Ġtheatrical":13906,"ĠCommerce":13907,"Arthur":13908,"ĠPoems":13909,"Ġpsychology":13910,"Cultural":13911,"ĠExped":13912,"Ġgoalkeeper":13913,"Win":13914,"ĠBran":13915,"ĠLeft":13916,"ĠArchae":13917,"ĠSabha":13918,"gel":13919,"Ġattraction":13920,"Ġnamely":13921,"adal":13922,"Ġwish":13923,"Ġ?":13924,"oting":13925,"ĠRut":13926,"Ġsteal":13927,"Ġcasualties":13928,"Sec":13929,"ĠMarx":13930,"Ġconvinced":13931,"Ġneighbouring":13932,"Mo":13933,"arts":13934,"Ġregulation":13935,"Ġsword":13936,"Ġvoices":13937,"jud":13938,"ĠFranco":13939,"ategory":13940,"Ġmidfield":13941,"Ġvariants":13942,"ĠMoh":13943,"emin":13944,"blem":13945,"è¿Ļ":13946,"ĠGiovanni":13947,"Ġhandling":13948,"ĠDund":13949,"ĠOz":13950,"oces":13951,"ĠMerit":13952,"ĠMoney":13953,"Ġpairs":13954,"Several":13955,"ennium":13956,"Ġlibraries":13957,"rific":13958,"Ġinstitute":13959,"Ġcontribute":13960,"ĠHolmes":13961,"DR":13962,"ĠCyr":13963,"England":13964,"phabet":13965,"Ġcivilians":13966,"Ġsending":13967,"Ġrever":13968,"Ġkills":13969,"ĠArmstrong":13970,"Special":13971,"ĠAgriculture":13972,"isle":13973,"Ġknee":13974,"Ġoperators":13975,"Ġafternoon":13976,"ĠSimpson":13977,"ciÃ³n":13978,"Ġorb":13979,"mount":13980,"Ġdrove":13981,"Foot":13982,"pes":13983,"çī":13984,"Ġtenth":13985,"atics":13986,"ĠDistinguished":13987,"ĠStatistics":13988,"Ġmixture":13989,"Fre":13990,"Local":13991,"igi":13992,"apa":13993,"Ġrefugees":13994,"Ġsab":13995,"ĠInitially":13996,"Ġcutting":13997,"Ġunderstood":13998,"aws":13999,"deen":14000,"Ġyard":14001,"ĠRab":14002,"Mat":14003,"andra":14004,"ĠCanterbury":14005,"ĠHaving":14006,"ĠBlake":14007,"Ġcustomer":14008,"iblical":14009,"ashes":14010,"Ġdict":14011,"ĠNintendo":14012,"Broad":14013,"ĠÑįÑĤÐ¾":14014,"éĹ":14015,"ĠNewport":14016,"ĠNotre":14017,"Ġprofessionals":14018,"Ġ....":14019,"ĠManitoba":14020,"orient":14021,"idades":14022,"istent":14023,"Ġconsent":14024,"held":14025,"Ġbehaviour":14026,"alin":14027,"aurus":14028,"BN":14029,"Water":14030,"rox":14031,"ĠPicture":14032,"antom":14033,"ĠTrin":14034,"archy":14035,"anca":14036,"ĠMcN":14037,"Ġmentions":14038,"oney":14039,"ĠDivisiÃ³n":14040,"kers":14041,"ĠChi":14042,"Ġwarfare":14043,"KA":14044,"ĠGrande":14045,"iership":14046,"ĠDoug":14047,"nolds":14048,"Bre":14049,"icism":14050,"Ġeventual":14051,"ĠGlass":14052,"card":14053,"Ġmanages":14054,"regular":14055,"Ġfaces":14056,"Ġfisher":14057,"cor":14058,"ĠClif":14059,"Ġbord":14060,"ĠMontenegro":14061,"ĠBil":14062,"Ġdefenders":14063,"ĠEns":14064,"Del":14065,"Ġlocomotive":14066,"Ġskull":14067,"Ġdestro":14068,"Ġgraphic":14069,"foundland":14070,"GS":14071,"whe":14072,"Ġfreight":14073,"Fred":14074,"Ġ91":14075,"ĠCros":14076,"mal":14077,"Ġfraud":14078,"ĠMarcus":14079,"Ġliver":14080,"Ġlie":14081,"apest":14082,"ĠJulian":14083,"Ģâ":14084,"ĠDim":14085,"ogo":14086,"ĠNepal":14087,"ĠPiano":14088,"axy":14089,"onny":14090,"Ġciting":14091,"ĠMobile":14092,"usa":14093,"ĠTrue":14094,"ĠStockholm":14095,"Ġcreates":14096,"Ġphysic":14097,"Bo":14098,"ĠIF":14099,"sted":14100,"Ġmatrix":14101,"Vir":14102,"ĠDoll":14103,"ÐµÐº":14104,"ĠShadow":14105,"Ġabund":14106,"Ġtalks":14107,"Ġfastest":14108,"ĠBerm":14109,"ĠPalm":14110,"bian":14111,"Ġsciences":14112,"Ġargues":14113,"ĠCrist":14114,"ĠLiv":14115,"ĠEdmund":14116,"ĠEstate":14117,"ophers":14118,"Ġunp":14119,"Ġderiv":14120,"ĠEcuador":14121,"fred":14122,"Ġperceived":14123,"ĠNak":14124,"ĠWriters":14125,"Ġrenovation":14126,"founder":14127,"ĠFraser":14128,"Ġtowers":14129,"ashire":14130,"iffe":14131,"name":14132,"engers":14133,"Ġairfield":14134,"Ġlearns":14135,"ĠSoci":14136,"Ġsoph":14137,"ĠDale":14138,"Ġtheoret":14139,"adh":14140,"Ġconflicts":14141,"vard":14142,"IDS":14143,"ĠWord":14144,"Ġvolleyball":14145,"edge":14146,"Ġpitched":14147,"Ġcollective":14148,"ĠWinnipeg":14149,"inf":14150,"ĠShore":14151,"Ġmainland":14152,"Ġtea":14153,"ono":14154,"ĠKingston":14155,"ikes":14156,"à¸±":14157,"legraph":14158,"ĠMechan":14159,"Ġprotagonist":14160,"Ġshifted":14161,"bot":14162,"Ġcomplement":14163,"Ġposthum":14164,"ĠSloven":14165,"Ġlobby":14166,"hart":14167,"Ġma":14168,"æŀ":14169,"Ġarray":14170,"razy":14171,"Ġdisplays":14172,"Ġforty":14173,"ĠAhmad":14174,"Ġconsumer":14175,"Ġsaxophone":14176,"ĠHerzegovina":14177,"city":14178,"abwe":14179,"ĠJustin":14180,"Ġdiplomatic":14181,"ambers":14182,"Ġguards":14183,"archive":14184,"Ġserver":14185,"Ġthereby":14186,"Ġassociations":14187,"ĠEthiopia":14188,"Ġbotan":14189,"ĠDuncan":14190,"ĠSpect":14191,"ä¸º":14192,"ĠPreston":14193,"Sat":14194,"ĠLaboratory":14195,"ĠRush":14196,"Catholic":14197,"âĢ¦":14198,"ancers":14199,"Ġreforms":14200,"Ġfallen":14201,"ĠCly":14202,"unter":14203,"Ġconfront":14204,"Ġstoryline":14205,"Ġordinary":14206,"Ġsovere":14207,"Ġ1859":14208,"Ġpunishment":14209,"eneath":14210,"Ġhorizont":14211,"ĠLinux":14212,"Ġawareness":14213,"Ġjoins":14214,"Ġcanon":14215,"Ð½Ð¾Ð³Ð¾":14216,"aque":14217,"Ġinject":14218,"agger":14219,"iffs":14220,"uxiliary":14221,"ĠPalestine":14222,"building":14223,"ĠÐ¿ÑĢ":14224,"eros":14225,"Ġrelegation":14226,"ĠMLB":14227,"Ġextract":14228,"Ġcontracts":14229,"ilda":14230,"Ġquiet":14231,"MD":14232,"athi":14233,"Ġprey":14234,"Ġwarning":14235,"HE":14236,"nut":14237,"Mike":14238,"urated":14239,"Ġwidth":14240,"avian":14241,"ĠContest":14242,"quin":14243,"mail":14244,"Ġarchive":14245,"UT":14246,"Ġcounsel":14247,"Ġsuccession":14248,"avery":14249,"Ġdra":14250,"ilion":14251,"Ġcontributing":14252,"Ġnationally":14253,"Ġassessment":14254,"Ġworker":14255,"Ġnumbered":14256,"Ġdepends":14257,"Cross":14258,"Home":14259,"etics":14260,"SL":14261,"Ġpayment":14262,"dem":14263,"ĠJal":14264,"ĠEff":14265,"okie":14266,"Ã²":14267,"Ġseeds":14268,"Ġclient":14269,"Ġsulf":14270,"ĠUrugu":14271,"woman":14272,"auf":14273,"ĠKoch":14274,"Ġretain":14275,"cu":14276,"Ġcosm":14277,"eni":14278,"Ġrede":14279,"Ġ1857":14280,"ĠGothic":14281,"Ġthrew":14282,"Ġpotentially":14283,"ĠIdaho":14284,"ĠShanghai":14285,"Ġinvented":14286,"ĠCu":14287,"oche":14288,"ĠRomans":14289,"ĠEis":14290,"Ġtoler":14291,"neapolis":14292,"å¦":14293,"ĠKem":14294,"Carl":14295,"has":14296,"</":14297,"Ġdepression":14298,"jar":14299,"atoes":14300,"ajo":14301,"Ġengage":14302,"Ġparticles":14303,"Ġrunway":14304,"ĠBronze":14305,"ergarten":14306,"quiry":14307,"south":14308,"ĠAA":14309,"ĠSafety":14310,"Ġhier":14311,"ĠCort":14312,"à¸ĩ":14313,"Ġdur":14314,"Ġsurprise":14315,"ĠRolling":14316,"Ġti":14317,"ĠHir":14318,"ĠAlbums":14319,"Ġ125":14320,"ĠGrammar":14321,"ĠEye":14322,"imbabwe":14323,"Ġconstitute":14324,"ischer":14325,"Ġwidow":14326,"mitt":14327,"ĠCanyon":14328,"ĠNadu":14329,"uku":14330,"Ġopens":14331,"Ġadministrator":14332,"ĠAub":14333,"Scotland":14334,"èĩ":14335,"Ġinteract":14336,"ĠAchie":14337,"Coll":14338,"ĠWool":14339,"Ġpassion":14340,"Ġpatent":14341,"Ġcraft":14342,"Ġvinyl":14343,"Ġimprisonment":14344,"Ġachievements":14345,"ĠRank":14346,"ĠEngineer":14347,"].":14348,"ĠCann":14349,"Ġairline":14350,"Ġperformers":14351,"ĠMake":14352,"Ġscr":14353,"ĠEngineers":14354,"ĠBundes":14355,"had":14356,"Ġforcing":14357,"ovi":14358,"Ġtransformed":14359,"icester":14360,"Ġsle":14361,"ĠCond":14362,"imer":14363,"âĢ¢":14364,"Ġpresentation":14365,"bird":14366,"angered":14367,"Ġheading":14368,"eon":14369,"fol":14370,"Ġcinem":14371,"Ġ('":14372,"tar":14373,"Ġlighting":14374,"ĠChelsea":14375,"Ġaus":14376,"Ġjew":14377,"Ġowns":14378,"Ġreconstruction":14379,"Sem":14380,"vy":14381,"Ġber":14382,"Ġruins":14383,"Ġallies":14384,"Ġindeed":14385,"ĠAdventure":14386,"Ġprocedures":14387,"fold":14388,"Ġorbit":14389,"Ġcolleagues":14390,"à®":14391,"Ġreverse":14392,"Overview":14393,"byterian":14394,"Ġarchitects":14395,"nal":14396,"Fin":14397,"Mil":14398,"ĠAnders":14399,"igate":14400,"ĠClaud":14401,"ĠRib":14402,"ĠBurton":14403,"Ġ1830":14404,"alla":14405,"overed":14406,"missions":14407,"ĠBasil":14408,"ocaust":14409,"ĠMÃ©":14410,"ĠPlaza":14411,"stadt":14412,"ĠPorter":14413,"Ġtag":14414,"usters":14415,"Ġsurvivors":14416,"Ġcurriculum":14417,"Chicago":14418,"ĠSantiago":14419,"ĠAmbassador":14420,"Ġnatur":14421,"umble":14422,"ĠAlpha":14423,"Ġdiesel":14424,"Syn":14425,"built":14426,"ĠJak":14427,"Ġnest":14428,"Ġcorruption":14429,"Ġhydrogen":14430,"Ġtransmitter":14431,"Ġsharp":14432,"Ġbrings":14433,"ĠVirt":14434,"Ġgrows":14435,"imming":14436,"ĠPublishers":14437,"Fort":14438,"ango":14439,"ĠGerald":14440,"Ġprivile":14441,"uate":14442,"Ġindependently":14443,"lov":14444,"atz":14445,"Ġsa":14446,"Ġdiamond":14447,"Ġearthquake":14448,"ĠJin":14449,"Ġdialogue":14450,"Tourist":14451,"ĠCurtis":14452,"historic":14453,"olan":14454,"ĠMis":14455,"ĠAboriginal":14456,"Ġcuts":14457,"Jud":14458,"Ġtimber":14459,"ĠGuards":14460,"atories":14461,"Ġcrashed":14462,"Box":14463,"makers":14464,"Ġ\"[":14465,"Ġpreserve":14466,"Ġneur":14467,
[...]
